the 19578
, 16105
. 13056
of 10347
and 9096
to 8807
in 6233
a 5535
is 4611
that 3663
for 3260
on 2631
@-@ 2494
be 2236
with 2195
are 2110
The 2041
I 2013
this 1922
as 1879
it 1733
we 1681
by 1597
have 1549
not 1513
you 1490
will 1387
which 1368
from 1204
or 1195
&quot; 1187
at 1156
- 1150
an 1118
has 1109
&apos;s 1098
( 1057
) 1045
European 966
our 956
can 929
all 892
also 841
: 829
was 798
would 704
their 663
We 660
its 645
but 639
more 636
Mr 628
your 625
been 620
In 615
should 607
one 602
Commission 580
This 574
It 566
must 547
like 503
time 486
President 485
&apos; 476
only 469
very 468
they 464
other 460
there 452
/ 450
new 448
about 443
us 443
do 441
? 408
these 400
who 397
up 395
Union 392
any 384
so 383
Europe 375
no 373
countries 372
if 370
Parliament 368
Member 358
into 354
than 352
States 349
what 345
people 344
such 343
report 341
out 337
now 326
make 325
between 324
his 321
my 319
well 318
Council 316
because 315
EU 314
were 313
some 311
important 309
need 309
when 308
; 305
use 303
many 298
them 291
first 290
policy 288
work 287
If 285
take 277
made 273
most 266
those 265
way 264
! 262
support 259
over 256
just 254
years 254
world 251
A 248
am 244
information 240
re@@ 237
he 233
system 232
... 228
being 228
where 227
year 227
un@@ 226
two 225
able 222
economic 222
part 222
against 219
possible 219
same 218
through 217
had 216
area 214
even 214
here 214
s 211
hotel 210
right 210
may 205
There 204
after 204
market 203
want 203
country 202
development 201
could 200
rights 200
For 199
place 199
public 195
me 194
order 194
point 192
fact 190
then 190
% 188
good 188
own 187
under 186
social 183
As 182
how 181
therefore 181
does 180
de 179
Commissioner 178
both 178
political 178
number 177
question 177
think 177
used 177
level 176
see 176
within 175
find 174
much 174
services 171
You 170
already 170
international 170
o 170
without 169
great 168
today 168
free 167
know 166
But 165
high 165
say 165
case 164
2 163
in@@ 163
ing 162
long 160
proposal 160
course 159
end 159
citizens 158
view 158
different 156
last 156
1 154
national 153
&#91; 150
cannot 149
human 149
too 149
&#93; 148
That 147
example 147
clear 146
before 145
process 144
said 144
ed 143
every 143
still 142
available 141
based 141
y 140
However 139
set 139
data 138
day 138
future 138
means 138
Committee 136
issue 136
put 136
again 135
es 135
offers 135
service 135
situation 135
during 134
few 133
including 131
en@@ 130
products 130
Hotel 129
e 129
trade 129
3 128
Our 128
ensure 128
particular 128
agreement 127
believe 127
further 127
small 127
access 126
best 126
debate 126
each 126
room 126
real 125
C@@ 124
T@@ 124
ation 124
financial 124
get 124
i 124
They 123
c@@ 123
areas 122
measures 122
problems 122
cooperation 121
next 121
however 120
security 120
P@@ 119
since 119
group 118
vote 117
action 116
change 116
common 116
10 115
E@@ 115
On 115
always 115
come 115
while 115
er 114
large 114
s@@ 114
S@@ 113
necessary 113
needs 113
back 112
given 112
less 112
provide 112
respect 112
rooms 112
taken 112
why 112
Community 111
give 111
quality 111
companies 110
US 109
better 109
position 109
present 109
A@@ 108
ate 108
de@@ 108
did 108
growth 108
m 108
p@@ 108
certain 107
far 107
full 107
offer 107
B@@ 105
These 105
United 105
What 105
done 105
women 105
basis 104
protection 104
around 103
M@@ 102
ers 102
issues 102
specific 102
working 102
And 101
business 101
law 101
line 101
particularly 101
power 101
whether 101
4 100
All 100
city 100
life 100
Mrs 99
children 99
continue 99
current 99
health 99
her 99
5 98
At 98
ated 98
problem 98
shall 98
special 98
To 97
b@@ 97
d@@ 97
energy 97
located 97
thank 97
&amp; 96
&apos;t 96
With 96
budget 96
legal 96
help 95
ts 95
Group 94
House 94
become 94
crisis 94
form 94
making 94
matter 94
open 94
state 94
company 93
down 93
look 93
t@@ 93
term 93
China 92
When 92
experience 92
following 92
go 92
production 92
major 91
regard 91
away 90
conditions 90
gentlemen 90
hope 90
industry 90
programme 90
rules 90
three 90
German 89
H@@ 89
K@@ 89
d 89
government 89
site 89
something 89
transport 89
various 89
N@@ 88
create 88
project 88
region 88
water 88
6 87
account 87
con@@ 87
o@@ 87
often 87
short 87
step 87
terms 87
v@@ 87
ating 86
call 86
forward 86
fully 86
global 86
proposals 86
third 86
towards 86
2009 85
Madam 85
Members 85
agree 85
decision 85
general 85
institutions 85
local 85
range 85
sector 85
together 85
using 85
wish 85
&#124; 84
al 84
proposed 84
second 84
taking 84
F@@ 83
centre 83
especially 83
itself 83
main 83
result 83
role 83
W@@ 82
days 82
directive 82
en 82
systems 82
aid 81
called 81
dis@@ 81
non 81
stay 81
achieve 80
close 80
ladies 80
million 80
opinion 80
product 80
rapporteur 80
subject 80
sure 80
After 79
D@@ 79
O@@ 79
control 79
g@@ 79
i@@ 79
list 79
page 79
per 79
research 79
resources 79
risk 79
several 79
single 79
strategy 79
y@@ 79
concerned 78
period 78
really 78
ti@@ 78
amendments 77
another 77
economy 77
favour 77
hand 77
known 77
little 77
Germany 76
air 76
employment 76
key 76
once 76
L@@ 75
an@@ 75
behalf 75
due 75
going 75
legislation 75
projects 75
rather 75
reason 75
resolution 75
Treaty 74
ask 74
ations 74
attention 74
left 74
policies 74
solution 74
u 74
version 74
whole 74
adopted 73
contact 73
enjoy 73
found 73
having 73
interest 73
involved 73
members 73
off 73
start 73
u@@ 73
G@@ 72
a@@ 72
address 72
authorities 72
di@@ 72
opportunity 72
provided 72
text 72
until 72
welcome 72
approach 71
food 71
on@@ 71
t 71
website 71
among 70
field 70
groups 70
him 70
kind 70
least 70
light 70
n@@ 70
progress 70
quite 70
times 70
R@@ 69
V@@ 69
greater 69
h@@ 69
old 69
responsible 69
results 69
yet 69
South 68
age 68
deal 68
modern 68
points 68
regulation 68
responsibility 68
He 67
aware 67
costs 67
difficult 67
environmental 67
increase 67
li@@ 67
member 67
others 67
simply 67
things 67
value 67
20 66
I@@ 66
State 66
application 66
efforts 66
importance 66
investment 66
k@@ 66
la 66
money 66
negotiations 66
play 66
station 66
technology 66
So 65
currently 65
e@@ 65
fundamental 65
internal 65
might 65
share 65
side 65
views 65
z@@ 65
addition 64
ar@@ 64
capital 64
environment 64
essential 64
meeting 64
nature 64
never 64
ro@@ 64
staff 64
actually 63
allow 63
building 63
customers 63
le@@ 63
location 63
provides 63
recent 63
regional 63
standards 63
success 63
ting 63
user 63
activities 62
co@@ 62
committee 62
framework 62
low 62
ly 62
needed 62
ra@@ 62
related 62
safety 62
se 62
society 62
tax 62
true 62
15 61
50 61
One 61
al@@ 61
ates 61
content 61
democracy 61
home 61
ings 61
job 61
l 61
let 61
pages 61
pay 61
personal 61
serious 61
ted 61
8 60
J@@ 60
communication 60
extremely 60
f@@ 60
individual 60
le 60
natural 60
p 60
past 60
young 60
12 59
2010 59
30 59
art 59
car 59
care 59
cases 59
clearly 59
developing 59
easy 59
family 59
foreign 59
include 59
m@@ 59
management 59
network 59
po@@ 59
questions 59
sea 59
software 59
team 59
technical 59
&apos;@@ 58
ar 58
concerns 58
early 58
euro 58
ever 58
j@@ 58
men 58
months 58
parties 58
pressure 58
price 58
private 58
regions 58
strong 58
tions 58
above 57
competition 57
completely 57
em@@ 57
force 57
lead 57
minutes 57
name 57
r@@ 57
run 57
top 57
training 57
7 56
France 56
Internet 56
S 56
c 56
cost 56
effective 56
es@@ 56
events 56
excellent 56
interests 56
program 56
ri@@ 56
solutions 56
town 56
New 55
Please 55
Therefore 55
accept 55
ago 55
along 55
border 55
climate 55
enough 55
hard 55
k 55
keep 55
principle 55
themselves 55
thus 55
took 55
wide 55
als 54
bring 54
ch@@ 54
cultural 54
democratic 54
dialogue 54
direct 54
doing 54
el 54
ent 54
face 54
freedom 54
goods 54
h 54
included 54
inter@@ 54
meet 54
states 54
total 54
x 54
Presidency 53
ad@@ 53
central 53
either 53
higher 53
history 53
house 53
idea 53
l@@ 53
markets 53
over@@ 53
plan 53
seen 53
workers 53
America 52
aim 52
b 52
beautiful 52
concerning 52
existing 52
held 52
majority 52
red 52
request 52
required 52
takes 52
turn 52
3@@ 51
9 51
Government 51
ac@@ 51
amendment 51
ant 51
decisions 51
design 51
er@@ 51
image 51
knowledge 51
land 51
leading 51
man 51
or@@ 51
programmes 51
quickly 51
seems 51
stage 51
standard 51
try 51
w@@ 51
* 50
+ 50
0 50
2004 50
2006 50
2008 50
C 50
From 50
No 50
Russia 50
Turkey 50
according 50
agreements 50
certainly 50
community 50
concern 50
der 50
el@@ 50
four 50
funds 50
jobs 50
later 50
live 50
longer 50
makes 50
media 50
positive 50
remains 50
throughout 50
ways 50
words 50
2007 49
Lisbon 49
Re@@ 49
World 49
Y@@ 49
across 49
additional 49
be@@ 49
bo@@ 49
century 49
changes 49
developed 49
education 49
event 49
heart 49
population 49
prices 49
procedure 49
rates 49
read 49
requirements 49
road 49
sed 49
users 49
By 48
EUR 48
check 48
complete 48
created 48
directly 48
guarantee 48
indeed 48
is@@ 48
ors 48
os 48
partners 48
please 48
reform 48
show 48
voted 48
American 47
ability 47
almost 47
am@@ 47
at@@ 47
complex 47
consider 47
customer 47
des 47
ine 47
living 47
military 47
rate 47
reasons 47
response 47
self 47
significant 47
sp@@ 47
status 47
understand 47
upon 47
values 47
via 47
visit 47
25 46
English 46
International 46
O 46
agreed 46
although 46
date 46
develop 46
distribution 46
fight 46
five 46
function 46
improve 46
model 46
music 46
procedures 46
raised 46
reached 46
received 46
regarding 46
relations 46
style 46
sub@@ 46
thing 46
2000 45
24 45
Al@@ 45
_ 45
active 45
allows 45
asked 45
big 45
card 45
demand 45
entire 45
facilities 45
file 45
files 45
forms 45
friendly 45
latest 45
material 45
night 45
peace 45
prevent 45
sense 45
solidarity 45
stop 45
ty 45
unique 45
€ 45
2@@ 44
Affairs 44
April 44
French 44
How 44
answer 44
appropriate 44
beginning 44
book 44
coming 44
commitment 44
effect 44
est 44
famous 44
implementation 44
includes 44
initiative 44
movement 44
online 44
professional 44
providing 44
re 44
reach 44
recently 44
reports 44
search 44
supply 44
war 44
add 43
ally 43
comes 43
comfortable 43
consumers 43
established 43
external 43
governments 43
levels 43
mean 43
oil 43
outside 43
package 43
party 43
setting 43
si@@ 43
situated 43
size 43
st@@ 43
talk 43
th@@ 43
though 43
writing 43
100 42
14 42
18@@ 42
Austria 42
Con@@ 42
Finally 42
Since 42
U@@ 42
agenda 42
ary 42
bi@@ 42
breakfast 42
equipment 42
exchange 42
final 42
km 42
matters 42
move 42
n 42
nothing 42
objectives 42
original 42
perhaps 42
receive 42
reduce 42
restaurant 42
sustainable 42
traditional 42
treatment 42
walk 42
Africa 41
Co@@ 41
Court 41
D 41
Directive 41
In@@ 41
May 41
Some 41
amount 41
billion 41
body 41
came 41
choice 41
context 41
designed 41
digital 41
ding 41
don 41
feel 41
keyword 41
lack 41
leave 41
limited 41
lot 41
mail 41
mind 41
ones 41
person 41
rest 41
return 41
space 41
ter 41
travel 41
type 41
.@@ 40
B 40
Let 40
Office 40
Rooms 40
ance 40
bar 40
closed 40
co 40
creation 40
double 40
etc 40
express 40
features 40
half 40
hours 40
huge 40
joint 40
les 40
moment 40
official 40
parts 40
pool 40
poverty 40
pre@@ 40
relevant 40
res 40
send 40
series 40
ten 40
violence 40
{ 40
á@@ 40
00 39
= 39
Convention 39
East 39
June 39
Minister 39
T 39
Windows 39
act 39
agricultural 39
ans 39
applications 39
automatically 39
benefit 39
brought 39
culture 39
document 39
du@@ 39
equipped 39
immediately 39
increased 39
ism 39
labour 39
led 39
looking 39
mentioned 39
objective 39
opportunities 39
promote 39
she 39
soon 39
sound 39
table 39
x@@ 39
� 39
000 38
2005 38
January 38
Only 38
Party 38
Z@@ 38
alone 38
aspects 38
below 38
computer 38
ds 38
et 38
game 38
ideal 38
im@@ 38
instead 38
integration 38
ise 38
ist 38
lo@@ 38
ment 38
ne@@ 38
perfect 38
reforms 38
tic 38
tools 38
ve 38
ver@@ 38
written 38
40 37
4@@ 37
5@@ 37
March 37
Thank 37
Western 37
ab@@ 37
activity 37
basic 37
board 37
civil 37
compromise 37
contains 37
criteria 37
decided 37
direction 37
elements 37
ese 37
ex@@ 37
funding 37
giving 37
growing 37
guests 37
la@@ 37
ma@@ 37
nor 37
popular 37
possibility 37
principles 37
property 37
protect 37
qu@@ 37
r 37
relation 37
remain 37
safe 37
sc@@ 37
sectors 37
sing 37
speed 37
stability 37
sts 37
th 37
train 37
vehicles 37
11 36
18 36
Here 36
My 36
Now 36
Service 36
TV 36
apply 36
as@@ 36
assistance 36
balance 36
beach 36
beyond 36
businesses 36
commercial 36
connection 36
effort 36
finally 36
focus 36
instrument 36
it@@ 36
justice 36
legislative 36
mo@@ 36
near 36
note 36
ous 36
per@@ 36
performance 36
sh@@ 36
six 36
speak 36
te@@ 36
tion 36
tra@@ 36
web 36
works 36
} 36
2003 35
7@@ 35
An 35
Article 35
British 35
December 35
IT 35
London 35
Moreover 35
absolutely 35
actions 35
analysis 35
annual 35
build 35
cause 35
ch 35
challenges 35
class 35
colleagues 35
concept 35
draw 35
easily 35
effects 35
efficient 35
employees 35
everyone 35
fresh 35
holiday 35
industrial 35
instruments 35
language 35
lower 35
medium 35
message 35
ni@@ 35
reduction 35
se@@ 35
ses 35
stand 35
started 35
steps 35
um 35
ves 35
week 35
wi@@ 35
P 34
Today 34
applied 34
ators 34
behind 34
built 34
categories 34
code 34
conflict 34
contribution 34
cu@@ 34
da@@ 34
details 34
electronic 34
enable 34
establish 34
et@@ 34
fair 34
farmers 34
fish 34
former 34
ground 34
guest 34
independent 34
ke 34
leaders 34
offering 34
op@@ 34
ot@@ 34
paid 34
plant 34
practice 34
previous 34
produce 34
produced 34
reference 34
relating 34
selection 34
similar 34
simple 34
structure 34
test 34
ur@@ 34
voting 34
whose 34
z 34
2001 33
Berlin 33
E 33
ER 33
Fund 33
Kingdom 33
Mediterranean 33
Public 33
Ro@@ 33
September 33
Spain 33
accepted 33
closely 33
considered 33
cross 33
decide 33
ded 33
ec@@ 33
enlargement 33
ent@@ 33
extent 33
fields 33
financing 33
fixed 33
flexibility 33
g 33
ge@@ 33
genuine 33
green 33
heard 33
historic 33
impact 33
materials 33
met 33
office 33
pe@@ 33
potential 33
que 33
reading 33
require 33
requires 33
ry 33
thanks 33
ul@@ 33
variety 33
weeks 33
An@@ 32
Central 32
G 32
UK 32
ag@@ 32
allowed 32
approved 32
capacity 32
chance 32
choose 32
clients 32
covered 32
die 32
elections 32
estate 32
everything 32
fast 32
follow 32
innovation 32
leader 32
lines 32
nuclear 32
poor 32
precisely 32
priority 32
ren@@ 32
section 32
sent 32
separate 32
supported 32
task 32
tor 32
useful 32
wishes 32
6@@ 31
Bank 31
DE 31
Do 31
Italy 31
July 31
North 31
Of 31
Rights 31
accession 31
black 31
bus 31
cities 31
consumer 31
creating 31
despite 31
discussion 31
doubt 31
draft 31
enables 31
fellow 31
games 31
goes 31
implement 31
income 31
increasing 31
lives 31
lost 31
mention 31
minimum 31
namely 31
numerous 31
operating 31
operation 31
organisations 31
powerful 31
practical 31
prepared 31
presented 31
recommendations 31
restaurants 31
rich 31
round 31
rule 31
school 31
session 31
speaking 31
sports 31
statement 31
tell 31
ter@@ 31
terrorism 31
thought 31
transfer 31
transparency 31
unable 31
understanding 31
word 31
® 31
23 30
Chinese 30
IT@@ 30
Israel 30
M 30
Russian 30
Social 30
Ukraine 30
While 30
anything 30
apartments 30
becomes 30
borders 30
cohesion 30
contract 30
correct 30
cut 30
damage 30
del 30
ders 30
distance 30
documents 30
effectively 30
ents 30
fine 30
fishing 30
front 30
ful 30
guaranteed 30
hi@@ 30
highly 30
ideas 30
implemented 30
innovative 30
institutional 30
internet 30
link 30
opening 30
ourselves 30
pa@@ 30
places 30
priorities 30
railway 30
referred 30
regards 30
shows 30
signed 30
sitting 30
source 30
submitted 30
ties 30
tomorrow 30
uses 30
vi@@ 30
21 29
22 29
9@@ 29
First 29
GDP 29
Iraq 29
More 29
Web 29
West 29
X@@ 29
agriculture 29
atmosphere 29
ator 29
became 29
bit 29
calls 29
carry 29
ce 29
ci@@ 29
considerable 29
drive 29
duty 29
expenditure 29
fl@@ 29
gra@@ 29
highest 29
hold 29
improved 29
initial 29
intended 29
ir@@ 29
learn 29
mis@@ 29
neither 29
otherwise 29
pl@@ 29
reality 29
representatives 29
review 29
risks 29
server 29
starting 29
strategic 29
structural 29
talking 29
under@@ 29
urban 29
wanted 29
í@@ 29
.com 28
0@@ 28
8@@ 28
AT@@ 28
Development 28
F 28
Greece 28
L 28
UN 28
University 28
V 28
Y 28
Your 28
ages 28
airport 28
ap@@ 28
base 28
began 28
buy 28
capable 28
carried 28
child 28
conference 28
consequences 28
coordination 28
den 28
di 28
discussed 28
do@@ 28
download 28
economies 28
ed@@ 28
entry 28
families 28
feature 28
floor 28
historical 28
ic 28
il@@ 28
informed 28
laws 28
maintain 28
motion 28
moving 28
ou@@ 28
parliamentary 28
permanent 28
player 28
presence 28
release 28
reviews 28
sale 28
scope 28
screen 28
ski 28
strongly 28
swimming 28
target 28
te 28
truly 28
types 28
unto 28
ure 28
village 28
went 28
worked 28
&apos;ll 27
16 27
Although 27
Ar@@ 27
Bar@@ 27
Conference 27
Is 27
Its 27
Many 27
Nations 27
Paris 27
People 27
Security 27
accommodation 27
advanced 27
advantage 27
anti 27
applies 27
bar@@ 27
benefits 27
ca 27
center 27
comments 27
consumption 27
currency 27
daily 27
des@@ 27
domestic 27
enterprises 27
exist 27
gas 27
gives 27
happy 27
il 27
images 27
interesting 27
largest 27
late 27
links 27
mark 27
minute 27
monitoring 27
offered 27
om@@ 27
park 27
peaceful 27
phone 27
powers 27
programs 27
purpose 27
quiet 27
sales 27
says 27
ship 27
sites 27
specifically 27
speech 27
statements 27
su@@ 27
sub 27
summit 27
tabled 27
ten@@ 27
yourself 27
$ 26
13 26
AG 26
Democrats 26
Europeans 26
II 26
IN@@ 26
Mar@@ 26
Middle 26
November 26
October 26
Once 26
PC 26
Par@@ 26
San 26
X 26
ality 26
animals 26
beauty 26
becoming 26
camera 26
carefully 26
challenge 26
circumstances 26
closer 26
committed 26
conclusion 26
congratulate 26
credit 26
debt 26
defined 26
difference 26
encourage 26
equal 26
got 26
guidelines 26
implementing 26
introduced 26
item 26
ity 26
meetings 26
mi@@ 26
no@@ 26
obligations 26
ol@@ 26
out@@ 26
overall 26
path 26
payment 26
ph@@ 26
pleased 26
pro@@ 26
ru@@ 26
scale 26
shown 26
son 26
star 26
ters 26
thousands 26
tive 26
up@@ 26
whom 26
worldwide 26
-@@ 25
19 25
200 25
80 25
Ad@@ 25
Amendment 25
Asia 25
Brussels 25
Car@@ 25
Di@@ 25
General 25
Israeli 25
Latin 25
RE@@ 25
Secondly 25
Turkish 25
achieved 25
added 25
adopt 25
ati@@ 25
ative 25
ats 25
avoid 25
bank 25
broad 25
calling 25
candidate 25
car@@ 25
caused 25
delay 25
district 25
fiscal 25
forces 25
goal 25
hear 25
hotels 25
ina 25
inform 25
installed 25
institution 25
integrated 25
introduction 25
limit 25
linked 25
machine 25
man@@ 25
managed 25
ne 25
nice 25
obviously 25
operate 25
option 25
options 25
persons 25
pi@@ 25
planning 25
played 25
playing 25
post 25
producers 25
regulations 25
remember 25
secure 25
sized 25
sufficient 25
to@@ 25
usually 25
vo@@ 25
votes 25
wealth 25
wrong 25
17 24
AN@@ 24
AR@@ 24
Bar 24
CD 24
Economic 24
Every 24
Human 24
IC@@ 24
Italian 24
K 24
R 24
Republic 24
Sea 24
St@@ 24
THE 24
Unfortunately 24
actual 24
advertising 24
aimed 24
alternative 24
bed 24
box 24
changed 24
character 24
com@@ 24
comm@@ 24
competitive 24
comprehensive 24
connected 24
constructive 24
contents 24
da 24
dangerous 24
degree 24
delegation 24
demands 24
emissions 24
enormous 24
ensuring 24
enter 24
equality 24
exactly 24
expect 24
experts 24
expressed 24
failure 24
founded 24
friends 24
fund 24
ge 24
generation 24
go@@ 24
goals 24
har@@ 24
head 24
ins 24
installation 24
languages 24
listed 24
manner 24
ments 24
method 24
methods 24
ms 24
obvious 24
ons 24
opposition 24
origin 24
positions 24
preparation 24
probably 24
properly 24
protecting 24
provisions 24
published 24
raise 24
refer 24
served 24
so@@ 24
street 24
strengthen 24
successful 24
sur@@ 24
tasks 24
tics 24
tool 24
union 24
victims 24
weapons 24
wine 24
zed 24
é@@ 24
&apos;re 23
0.@@ 23
26 23
29 23
Association 23
Because 23
Cal@@ 23
Each 23
En@@ 23
Even 23
Indeed 23
India 23
Most 23
Palestinian 23
Restaurant 23
Room 23
Services 23
Spanish 23
Un@@ 23
anyone 23
balanced 23
banks 23
bathroom 23
ber@@ 23
budgetary 23
comfort 23
conclusions 23
confidence 23
construction 23
convinced 23
cor@@ 23
critical 23
damages 23
dealing 23
define 23
definition 23
destination 23
discussions 23
earlier 23
efficiency 23
followed 23
ger 23
golf 23
hands 23
he@@ 23
hot 23
inc@@ 23
island 23
map 23
maximum 23
medical 23
mon@@ 23
names 23
oral 23
outcome 23
press 23
proper 23
propose 23
regime 23
represent 23
represents 23
rise 23
route 23
saying 23
sion 23
sive 23
sources 23
st 23
study 23
supporting 23
ths 23
track 23
trans@@ 23
und 23
ver 23
wants 23
ye 23
17@@ 22
1997 22
1999 22
500 22
70 22
Ac@@ 22
Firstly 22
GmbH 22
High 22
IS@@ 22
Le@@ 22
National 22
Prime 22
Ri@@ 22
System 22
Yet 22
ad 22
agency 22
ale 22
appears 22
born 22
clean 22
comp@@ 22
crucial 22
defence 22
delivered 22
demonstrate 22
den@@ 22
drawn 22
eg@@ 22
ence 22
end@@ 22
ently 22
ess 22
establishing 22
extend 22
extensive 22
fear 22
fo@@ 22
forget 22
gh@@ 22
gi@@ 22
governance 22
grounds 22
honourable 22
ies 22
ino 22
install 22
insurance 22
join 22
mainly 22
marketing 22
mechanisms 22
millions 22
mobile 22
modified 22
monetary 22
myself 22
naturally 22
networks 22
organised 22
outstanding 22
performed 22
rail 22
reduced 22
relationship 22
respond 22
rural 22
smoking 22
spacious 22
sport 22
structures 22
suitable 22
supports 22
ta@@ 22
telephone 22
ton 22
um@@ 22
voice 22
w 22
won 22
www.@@ 22
1@@ 21
2002 21
28 21
Bo@@ 21
Ex@@ 21
February 21
Green 21
Iran 21
Justice 21
Mexico 21
Ministers 21
Policy 21
Swiss 21
acc@@ 21
achieving 21
affected 21
alised 21
allowing 21
announced 21
ants 21
apartment 21
aspect 21
attempt 21
bodies 21
cal@@ 21
ces 21
choices 21
ck@@ 21
click 21
colleague 21
combat 21
compliance 21
continues 21
contribute 21
cover 21
customs 21
desire 21
easier 21
else 21
ep@@ 21
ets 21
experienced 21
extended 21
ff 21
ha@@ 21
helpful 21
ic@@ 21
illegal 21
independence 21
individuals 21
interested 21
intervention 21
king 21
lake 21
leadership 21
lies 21
likely 21
lu@@ 21
machines 21
meters 21
middle 21
month 21
parking 21
participation 21
partner 21
peoples 21
perspective 21
planned 21
players 21
port 21
pre 21
proved 21
ps 21
qualified 21
ready 21
rec@@ 21
regular 21
resulting 21
sal@@ 21
save 21
select 21
situations 21
south 21
spaces 21
stands 21
suggest 21
ta 21
threat 21
totally 21
valid 21
ve@@ 21
vital 21
waste 21
white 21
wing 21
wood 21
ys 21
14@@ 20
20@@ 20
African 20
Board 20
Charter 20
Dis@@ 20
Euro 20
Foreign 20
Grand 20
His 20
Lu@@ 20
Mon@@ 20
Netherlands 20
Pre@@ 20
Private 20
Pro@@ 20
Rome 20
SP@@ 20
Sa@@ 20
Safety 20
Those 20
US@@ 20
Whether 20
adoption 20
ahead 20
ancient 20
ari@@ 20
assets 20
association 20
attack 20
attractive 20
bear 20
books 20
causes 20
cks 20
club 20
concrete 20
confirmed 20
crime 20
cs 20
dealt 20
defend 20
detail 20
determine 20
differences 20
difficulties 20
dimension 20
discuss 20
discussing 20
diversity 20
element 20
email 20
error 20
establishment 20
evidence 20
exclusive 20
expected 20
export 20
extra 20
failed 20
felt 20
figures 20
firm 20
flexible 20
focused 20
format 20
generated 20
gu@@ 20
highlight 20
ho@@ 20
host 20
humanitarian 20
ia 20
immigration 20
increasingly 20
infrastructure 20
intellectual 20
introduce 20
ish 20
je@@ 20
ks 20
learning 20
limits 20
ling 20
love 20
menu 20
mutual 20
north 20
ob@@ 20
ological 20
opened 20
organisation 20
packages 20
paper 20
partnership 20
pass 20
pen@@ 20
politics 20
printing 20
processing 20
promoting 20
purposes 20
recognise 20
relate 20
res@@ 20
shopping 20
sides 20
sti@@ 20
students 20
summer 20
super@@ 20
terrace 20
thinking 20
tly 20
tri@@ 20
trust 20
unfortunately 20
urge 20
vision 20
volume 20
whilst 20
é 20
00@@ 19
300 19
75 19
90 19
Ber@@ 19
Booking.com 19
Center 19
Check 19
Christian 19
Club 19
Debian 19
EC 19
ES 19
ES@@ 19
Great 19
Gu@@ 19
H 19
Linux 19
Management 19
Microsoft 19
OF 19
Po@@ 19
Poland 19
Romania 19
Switzerland 19
TH@@ 19
Two 19
U.S. 19
Why 19
accordance 19
addressed 19
ade 19
adequate 19
administration 19
administrative 19
ak@@ 19
ali@@ 19
appreciate 19
assessment 19
ast@@ 19
attacks 19
av@@ 19
average 19
ba@@ 19
bad 19
begin 19
biggest 19
ble 19
brand 19
burden 19
cal 19
charge 19
client 19
competitiveness 19
conduct 19
consideration 19
contained 19
continued 19
core 19
cur@@ 19
death 19
delighted 19
device 19
display 19
drawing 19
f 19
fac@@ 19
fi@@ 19
fighting 19
for@@ 19
functions 19
gave 19
gre@@ 19
harmonisation 19
holding 19
impossible 19
improvements 19
inflation 19
ing@@ 19
ink 19
ised 19
ju@@ 19
kept 19
leads 19
lin@@ 19
lose 19
loss 19
measure 19
metres 19
monitor 19
news 19
numbers 19
older 19
operations 19
operators 19
opinions 19
ots 19
ously 19
par@@ 19
paragraph 19
perfectly 19
picture 19
politicians 19
possibilities 19
practices 19
presidency 19
protected 19
provision 19
putting 19
quick 19
ra 19
record 19
reliable 19
representative 19
resistance 19
resort 19
seeking 19
seem 19
sensitive 19
seriously 19
sian 19
sions 19
spread 19
stated 19
surface 19
surroundings 19
taste 19
tests 19
told 19
tors 19
tourism 19
traffic 19
trafficking 19
unacceptable 19
v 19
va 19
video 19
visitors 19
von 19
win 19
yesterday 19
1996 18
33 18
5.@@ 18
7.@@ 18
8.@@ 18
98 18
AC@@ 18
AG@@ 18
According 18
Also 18
Another 18
August 18
City 18
During 18
ED 18
El 18
Greek 18
Guest 18
Hungary 18
Japan 18
Just 18
La 18
MEPs 18
Mobile 18
Museum 18
Nevertheless 18
Non 18
Nos 18
Pi@@ 18
Red 18
She 18
Su@@ 18
Their 18
Thus 18
Tra@@ 18
U 18
Vi@@ 18
Vienna 18
actively 18
advantages 18
agencies 18
alism 18
ana 18
answers 18
approval 18
ard 18
arrangements 18
article 18
artists 18
attitude 18
au@@ 18
awareness 18
background 18
bers 18
blue 18
cally 18
campaign 18
careful 18
charged 18
claims 18
col@@ 18
collective 18
comment 18
commitments 18
controlled 18
controls 18
courses 18
criminal 18
cul@@ 18
dates 18
dedicated 18
described 18
determined 18
developments 18
devices 18
dinner 18
directives 18
discrimination 18
disease 18
edge 18
election 18
engine 18
ering 18
ev@@ 18
expectations 18
expensive 18
exports 18
extension 18
facing 18
fail 18
fall 18
flight 18
garden 18
ged 18
ging 18
hair 18
happen 18
happened 18
immediate 18
initiatives 18
involve 18
items 18
laid 18
ler 18
letter 18
losses 18
ma 18
manufacturers 18
manufacturing 18
me@@ 18
mission 18
module 18
multi 18
named 18
nation 18
nations 18
password 18
percent 18
plants 18
prior 18
pu@@ 18
realistic 18
reasonable 18
reject 18
represented 18
shower 18
sign 18
signal 18
sk@@ 18
stable 18
successfully 18
technologies 18
territory 18
thermal 18
translation 18
unemployment 18
us@@ 18
usual 18
vehicle 18
ving 18
vis@@ 18
walking 18
war@@ 18
ws 18
yes 18
zone 18
12@@ 17
16@@ 17
1998 17
19@@ 17
6.@@ 17
60 17
AL@@ 17
AM 17
Airport 17
Amendments 17
Any 17
Art 17
Barcelona 17
Centre 17
Control 17
De@@ 17
Dutch 17
EC@@ 17
Eastern 17
Euro@@ 17
FR 17
Free 17
Furthermore 17
Irish 17
Lo@@ 17
Located 17
MS 17
Market 17
Mo@@ 17
NATO 17
Pact 17
Park 17
Sam@@ 17
Th@@ 17
Then 17
Vice 17
War 17
York 17
accounts 17
amongst 17
amounts 17
animal 17
appear 17
ass@@ 17
associated 17
attractions 17
au 17
availability 17
beaches 17
berg 17
bilateral 17
bl@@ 17
bringing 17
browser 17
bu@@ 17
cards 17
cars 17
changing 17
ches 17
ching 17
chosen 17
cia 17
cked 17
claim 17
completed 17
concentration 17
constitute 17
contain 17
cuisine 17
das 17
determination 17
dri@@ 17
eb@@ 17
elected 17
ens 17
entirely 17
evening 17
facilitate 17
fer@@ 17
flo@@ 17
flow 17
fun 17
furnished 17
generally 17
getting 17
greatest 17
guarantees 17
hand@@ 17
head@@ 17
heavy 17
holidays 17
industries 17
ined 17
ising 17
ists 17
ja 17
kitchen 17
landscape 17
leaving 17
library 17
lie 17
manage 17
mar@@ 17
med 17
membership 17
merely 17
ministers 17
motor 17
multi@@ 17
objects 17
ology 17
ore 17
output 17
passengers 17
personally 17
pictures 17
piece 17
plans 17
prepare 17
promise 17
prove 17
recommended 17
rejected 17
remind 17
satisfaction 17
selected 17
shared 17
sol@@ 17
sometimes 17
spa 17
spent 17
sta@@ 17
sting 17
strengthening 17
stress 17
surrounding 17
taxation 17
taxes 17
title 17
tour 17
trading 17
transparent 17
tried 17
truth 17
trying 17
tu@@ 17
tures 17
typical 17
unless 17
updates 17
ut@@ 17
wa@@ 17
ward 17
water@@ 17
welfare 17
wonderful 17
ya 17
š@@ 17
13@@ 16
45 16
9.@@ 16
AM@@ 16
AND 16
Agreement 16
Amsterdam 16
Baltic 16
Budgets 16
Ch@@ 16
Czech 16
Due 16
EN@@ 16
ER@@ 16
Ireland 16
LA@@ 16
Lake 16
N 16
PA 16
Protocol 16
Q@@ 16
Rules 16
ST@@ 16
Sch@@ 16
Schengen 16
Secretary 16
Should 16
Smoking 16
Take 16
USA 16
acting 16
acy 16
ads 16
ano 16
approximately 16
aries 16
asking 16
assume 16
ational 16
atory 16
bly 16
bur@@ 16
ced 16
che 16
ched 16
combination 16
communities 16
compared 16
competence 16
condition 16
confirm 16
consent 16
corporate 16
decade 16
decisive 16
depends 16
detailed 16
discover 16
doors 16
dy 16
eight 16
emergency 16
ensures 16
entered 16
era 16
except 16
exceptional 16
expenses 16
expression 16
facts 16
ff@@ 16
film 16
fin@@ 16
finance 16
flat 16
flights 16
gar@@ 16
glad 16
gold 16
granted 16
heating 16
hospitality 16
hour 16
i.e. 16
ig@@ 16
informal 16
inside 16
interface 16
lessons 16
lock 16
looks 16
ls 16
lunch 16
maintained 16
mass 16
milk 16
models 16
ner 16
ness 16
net 16
nevertheless 16
newsletter 16
not@@ 16
officials 16
oriented 16
participate 16
pe 16
percentage 16
pleasant 16
police 16
pped 16
previously 16
pri@@ 16
productivity 16
prosperity 16
provider 16
purchase 16
q 16
reception 16
recognised 16
recognition 16
recommend 16
recovery 16
reducing 16
reflect 16
refugees 16
registration 16
regulatory 16
remaining 16
rent 16
requests 16
reserves 16
resi@@ 16
restrictions 16
revenue 16
ring 16
sen@@ 16
serve 16
shop 16
sky 16
spirit 16
spring 16
stations 16
sted 16
stock 16
stone 16
storage 16
streets 16
substantial 16
talks 16
testing 16
ther@@ 16
tradition 16
ular 16
united 16
update 16
updated 16
voluntary 16
waters 16
wed 16
weight 16
wooden 16
31 15
35 15
@ 15
Afghanistan 15
Alliance 15
Austrian 15
Belgium 15
Box 15
CO@@ 15
Can 15
Char@@ 15
Design 15
Desk 15
Energy 15
Enterprise 15
Gi@@ 15
God 15
Hall 15
Her@@ 15
IN 15
Monetary 15
OS 15
Or@@ 15
Prague 15
Si@@ 15
Star 15
Storage 15
Thursday 15
WTO 15
Where 15
accurate 15
ach 15
aims 15
air@@ 15
assist 15
audi@@ 15
authority 15
ban 15
binding 15
br@@ 15
bri@@ 15
brings 15
buildings 15
cap@@ 15
carrying 15
church 15
coast 15
collection 15
combined 15
components 15
conc@@ 15
concentrate 15
conditioning 15
consensus 15
continent 15
contributions 15
corresponding 15
cuts 15
decline 15
destruction 15
discharge 15
driving 15
effectiveness 15
electric 15
els 15
emerging 15
emphasis 15
enabling 15
ental 15
equally 15
eu@@ 15
exercise 15
exp@@ 15
expansion 15
extreme 15
factor 15
feeling 15
finding 15
fire 15
foot 15
form@@ 15
fying 15
gener@@ 15
glass 15
helping 15
helps 15
himself 15
hundreds 15
id@@ 15
im 15
improving 15
indicate 15
indicated 15
involving 15
j 15
jo@@ 15
kinds 15
leisure 15
lic@@ 15
logical 15
marks 15
mer@@ 15
mobility 15
morning 15
mountain 15
moved 15
movements 15
multiple 15
nearly 15
negotiating 15
ning 15
normal 15
observed 15
obtain 15
obtained 15
ok@@ 15
ori@@ 15
ory 15
ov@@ 15
participants 15
photo 15
platform 15
pose 15
pr@@ 15
precise 15
prefer 15
printed 15
proceedings 15
processes 15
profit 15
profits 15
promised 15
proof 15
reaching 15
relaxing 15
released 15
religious 15
requirement 15
respects 15
rightly 15
running 15
sa@@ 15
shape 15
ships 15
signs 15
skills 15
solely 15
standing 15
strategies 15
studies 15
suffer 15
surely 15
techniques 15
texts 15
tically 15
tours 15
transportation 15
tur@@ 15
turned 15
ty@@ 15
un 15
vel@@ 15
ven@@ 15
versions 15
waiting 15
walls 15
warm 15
write 15
ying 15
ze 15
zing 15
С@@ 15
.. 14
1.@@ 14
1994 14
27 14
3.@@ 14
46 14
95 14
AS 14
Ab@@ 14
Apart 14
Arab 14
Brazil 14
Bri@@ 14
Can@@ 14
Casino 14
Costa 14
Cre@@ 14
Cro@@ 14
Danish 14
ECB 14
Elevator 14
Enjoy 14
Find 14
Foundation 14
Garden 14
Get 14
Health 14
Ho@@ 14
ID@@ 14
IM@@ 14
IP 14
Japanese 14
Kosovo 14
Luggage 14
Madrid 14
Man@@ 14
Not 14
ON@@ 14
Over 14
PO@@ 14
Portuguese 14
Regional 14
Shi@@ 14
Stability 14
Strasbourg 14
Such 14
Summit 14
Treaties 14
UR@@ 14
Very 14
ably 14
adopting 14
advance 14
affect 14
alisation 14
alist 14
amp@@ 14
ann@@ 14
appeal 14
arms 14
arrival 14
awarded 14
az@@ 14
band 14
bars 14
battle 14
block 14
bra@@ 14
bro@@ 14
can@@ 14
cent 14
characters 14
clause 14
clo@@ 14
collaboration 14
comply 14
composition 14
conducted 14
connections 14
consequence 14
consulting 14
containing 14
continuous 14
contracts 14
contrary 14
counter@@ 14
couple 14
cre@@ 14
crises 14
danger 14
definitely 14
demonstrated 14
der@@ 14
desirable 14
desired 14
dic@@ 14
disaster 14
divided 14
dness 14
door 14
drugs 14
earned 14
eastern 14
ely 14
ement 14
emphasise 14
employed 14
engineering 14
ery 14
est@@ 14
exclusively 14
fees 14
fication 14
fied 14
filled 14
fruit 14
fu@@ 14
gen@@ 14
ges 14
grant 14
hardware 14
heads 14
hearing 14
hor@@ 14
ian 14
ice 14
import 14
imposed 14
ine@@ 14
influence 14
investments 14
involvement 14
justified 14
ka 14
largely 14
latter 14
length 14
liability 14
liberalisation 14
locations 14
manufacturer 14
men@@ 14
met@@ 14
min@@ 14
minority 14
missions 14
modules 14
mu@@ 14
nearby 14
occasions 14
om 14
operational 14
orders 14
patients 14
payments 14
phrase 14
physical 14
placed 14
pleasure 14
presentation 14
primary 14
profile 14
proposing 14
prospects 14
pun@@ 14
pursue 14
qui@@ 14
ranging 14
rapid 14
rapporteurs 14
ration 14
recognized 14
recommendation 14
referendum 14
remove 14
repeat 14
replacement 14
requested 14
reservation 14
reserve 14
respective 14
season 14
sec@@ 14
secondary 14
seek 14
serves 14
ship@@ 14
shops 14
significantly 14
species 14
square 14
starts 14
suffering 14
suppliers 14
sus@@ 14
teachers 14
technological 14
temporary 14
tes 14
tical 14
tional 14
touch 14
tourist 14
toward 14
una 14
unit 14
ures 14
urgent 14
uting 14
wall 14
we@@ 14
western 14
winter 14
wor@@ 14
worse 14
za 14
à 14
38 13
Argentina 13
Ban@@ 13
Book 13
Bulgaria 13
CO2 13
Constitution 13
Deposit 13
EL 13
Employment 13
Environment 13
Framework 13
Front 13
He@@ 13
Home 13
IS 13
Information 13
Inter@@ 13
Kar@@ 13
LO@@ 13
La@@ 13
Li@@ 13
Luxembourg 13
Ma@@ 13
Mi@@ 13
Other 13
PHP 13
Protection 13
RO@@ 13
Rec@@ 13
Roma 13
Rule 13
Sal@@ 13
Soviet 13
Structural 13
Sur@@ 13
Trade 13
Use 13
VAT 13
Without 13
abroad 13
acceptable 13
acts 13
addressing 13
advice 13
aff@@ 13
aged 13
airlines 13
ame 13
anti@@ 13
are@@ 13
arguments 13
arise 13
assess 13
asylum 13
bath 13
behaviour 13
ber 13
bit@@ 13
bottom 13
buffet 13
cable 13
cancer 13
catch 13
cent@@ 13
chair 13
cheap 13
ck 13
cking 13
cm 13
combating 13
combine 13
component 13
con 13
concepts 13
conclude 13
connect 13
consistent 13
consists 13
constant 13
contemporary 13
convert 13
corruption 13
cosy 13
counter 13
court 13
creative 13
credibility 13
database 13
debates 13
deficit 13
deliver 13
died 13
difficulty 13
directory 13
dishes 13
dispute 13
diverse 13
divide 13
documentation 13
doesn 13
drink 13
edited 13
elegant 13
elsewhere 13
empty 13
encouraged 13
ended 13
entertainment 13
enti@@ 13
entrance 13
evaluation 13
expertise 13
eyes 13
factors 13
fans 13
faster 13
fe@@ 13
fil@@ 13
fill 13
fisheries 13
fla@@ 13
fra@@ 13
functionality 13
functioning 13
fy 13
generate 13
generations 13
gli@@ 13
gone 13
handle 13
happens 13
healthy 13
houses 13
ically 13
ie 13
improvement 13
inspired 13
instance 13
intend 13
intention 13
inv@@ 13
investors 13
issued 13
ker 13
launch 13
lay 13
losing 13
maintenance 13
massive 13
messages 13
metal 13
negotiated 13
noted 13
obligation 13
occasion 13
organizations 13
parents 13
pension 13
pensions 13
personnel 13
phase 13
politically 13
presents 13
primarily 13
prison 13
proportion 13
publication 13
qualifications 13
ran@@ 13
rapidly 13
ratio 13
register 13
regret 13
regularly 13
relatively 13
relax 13
removed 13
reservations 13
resolutions 13
resolve 13
responsibilities 13
river 13
roads 13
row 13
sanctions 13
science 13
scientific 13
sen 13
sending 13
ser@@ 13
serving 13
sets 13
settings 13
sha@@ 13
shares 13
shr@@ 13
sight 13
solve 13
somewhat 13
specified 13
spend 13
spending 13
star@@ 13
stat@@ 13
sters 13
sto@@ 13
stra@@ 13
sum 13
surrounded 13
swe@@ 13
tan@@ 13
targets 13
tin 13
treated 13
treaty 13
trip 13
unfair 13
uni@@ 13
unions 13
universal 13
valley 13
violation 13
virus 13
wait 13
watch 13
winning 13
with@@ 13
wn 13
wo@@ 13
wonder 13
worth 13
zes 13
° 13
.... 12
09 12
10@@ 12
15@@ 12
23@@ 12
36 12
Agenda 12
Americans 12
Are 12
Atlantic 12
Authority 12
Balkans 12
Bi@@ 12
Br@@ 12
Budgetary 12
Chairman 12
Col@@ 12
Congress 12
Cri@@ 12
DA@@ 12
Description 12
Despite 12
Dom@@ 12
Download 12
Du@@ 12
EL@@ 12
Express 12
Financial 12
Following 12
Hotels 12
Hour 12
ING 12
Indian 12
Islamic 12
Jo@@ 12
Ladies 12
Lord 12
MA@@ 12
Mac@@ 12
Martin 12
Michael 12
Min@@ 12
Mr. 12
No@@ 12
OR 12
Out 12
Research 12
River 12
Saint 12
Sec@@ 12
Second 12
Sp@@ 12
St. 12
Street 12
Sweden 12
Swedish 12
Transport 12
Under 12
Villa 12
Vol@@ 12
W 12
Yes 12
accessible 12
accidents 12
adapt 12
affairs 12
aging 12
ah 12
akes 12
ales 12
all@@ 12
and@@ 12
appearance 12
ari 12
arian 12
ased 12
assure 12
author 12
automation 12
banking 12
barriers 12
beds 12
begun 12
belong 12
blo@@ 12
booking 12
boost 12
breathtaking 12
briefly 12
budgets 12
characteristics 12
charming 12
che@@ 12
cious 12
classic 12
colour 12
communicate 12
computers 12
concluded 12
constantly 12
contacts 12
continuing 12
contrast 12
courts 12
covers 12
cra@@ 12
creates 12
cultures 12
cy@@ 12
dar@@ 12
decades 12
default 12
del@@ 12
description 12
distributed 12
don@@ 12
driver 12
duties 12
earth 12
eat 12
ect 12
eh@@ 12
ek@@ 12
ell 12
ell@@ 12
ending 12
enjoyed 12
enjoys 12
eurozone 12
everyday 12
examination 12
examples 12
exists 12
expert 12
explain 12
explore 12
faces 12
farm 12
fashion 12
follows 12
forced 12
fraud 12
freedoms 12
ft 12
gl@@ 12
granting 12
grateful 12
grow 12
gs 12
hectares 12
helped 12
hom@@ 12
hostels 12
ics 12
id 12
implications 12
incentives 12
increases 12
ines 12
ining 12
insist 12
invited 12
ir 12
journey 12
larger 12
lets 12
liable 12
liberal 12
listening 12
loading 12
log 12
mann 12
match 12
meant 12
mechanism 12
medi@@ 12
medicines 12
mental 12
mixed 12
mode 12
mountains 12
narrow 12
nation@@ 12
nationals 12
negative 12
notice 12
observe 12
opposite 12
optim@@ 12
organized 12
our@@ 12
overcome 12
overlooking 12
packaging 12
passed 12
passenger 12
passing 12
permitted 12
photos 12
programming 12
race 12
raising 12
receiving 12
recorded 12
regulated 12
relaxed 12
ro 12
ron@@ 12
sake 12
satellite 12
schools 12
scre@@ 12
sell 12
seven 12
severe 12
sexual 12
sharing 12
showed 12
sia 12
sion@@ 12
sit 12
slightly 12
societies 12
someone 12
sought 12
southern 12
sphere 12
stance 12
ste 12
ste@@ 12
steel 12
strengthened 12
strict 12
subsequent 12
succeed 12
succeeded 12
suggestions 12
terrorist 12
the@@ 12
tor@@ 12
tower 12
tr@@ 12
trac@@ 12
und@@ 12
underground 12
utili@@ 12
vis 12
visible 12
ware 12
welcomed 12
whereby 12
window 12
xes 12
С 12
• 12
04@@ 11
08 11
1990 11
19th 11
2020 11
34 11
37 11
39 11
42 11
57 11
64 11
97 11
AD@@ 11
Agency 11
Applause 11
Au@@ 11
Bal@@ 11
Be 11
Before 11
Belgian 11
Breakfast 11
Bureau 11
Bush 11
CA@@ 11
Chamber 11
Code 11
Com@@ 11
Comp@@ 11
Cyprus 11
De 11
Dec@@ 11
Del@@ 11
Dr. 11
Er@@ 11
Federal 11
Fri@@ 11
Friday 11
Gaza 11
Given 11
Golf 11
Google 11
Hungarian 11
MO@@ 11
Mat@@ 11
Monday 11
Mor@@ 11
Ni@@ 11
Note 11
OR@@ 11
Open 11
Pap@@ 11
Procedure 11
Prodi 11
Putin 11
San@@ 11
Scotland 11
Se@@ 11
Slovakia 11
Socialist 11
Software 11
Sol@@ 11
Station 11
Strategy 11
Systems 11
Thanks 11
Through 11
Tur@@ 11
USB 11
Using 11
Venice 11
Who 11
Year 11
acknowledge 11
acted 11
af@@ 11
ah@@ 11
ail 11
aircraft 11
ak 11
alization 11
alo@@ 11
ap 11
applying 11
ara 11
army 11
ash@@ 11
asing 11
assurance 11
attached 11
audience 11
back@@ 11
ban@@ 11
bas@@ 11
bel@@ 11
bound 11
bre@@ 11
break 11
bridge 11
brief 11
bs 11
button 11
ca@@ 11
campaigns 11
candidates 11
career 11
cat@@ 11
category 11
ce@@ 11
cell 11
certainty 11
cho@@ 11
cies 11
committees 11
compensation 11
comprises 11
conciliation 11
conditioned 11
conflicts 11
considerably 11
considers 11
constitutes 11
constitutional 11
cus 11
cycle 11
deep 11
defended 11
demo@@ 11
departure 11
depending 11
designer 11
developers 11
diseases 11
domain 11
drop 11
dy@@ 11
dynamic 11
earn 11
edi@@ 11
edition 11
educational 11
ei@@ 11
ein 11
ella 11
em 11
ency 11
ends 11
enforcement 11
entitled 11
enz@@ 11
errors 11
ession 11
everybody 11
exchanges 11
excluded 11
exit 11
expand 11
exploitation 11
extending 11
eye 11
facility 11
fantastic 11
farming 11
father 11
fee 11
feed 11
feels 11
feet 11
fewer 11
firmly 11
firms 11
firstly 11
fishermen 11
football 11
forecasts 11
formal 11
formali@@ 11
foundation 11
fourth 11
fre@@ 11
friend 11
gan@@ 11
gardens 11
genetic 11
ght 11
guide 11
hall 11
hence 11
hiking 11
horse 11
hr@@ 11
hu@@ 11
hum@@ 11
ical 11
identified 11
identify 11
ier@@ 11
inadequate 11
inde@@ 11
inf@@ 11
infl@@ 11
ingly 11
inhabitants 11
inten@@ 11
intensive 11
interior 11
islands 11
ite 11
ization 11
keeping 11
knows 11
land@@ 11
leaves 11
legally 11
letters 11
lin 11
luxury 11
maintaining 11
meat 11
migration 11
ming 11
minor 11
missing 11
monitored 11
na@@ 11
notably 11
ns 11
od@@ 11
off@@ 11
offices 11
oldest 11
ome 11
ongoing 11
onto 11
openness 11
operates 11
operator 11
oppose 11
owned 11
philosophy 11
picturesque 11
pione@@ 11
pla@@ 11
plenary 11
plus 11
pping 11
president 11
prevention 11
processed 11
producing 11
progres@@ 11
protocol 11
proven 11
radical 11
referring 11
reflected 11
reflects 11
relaxation 11
remained 11
remote 11
renewable 11
replaced 11
reply 11
residence 11
respecting 11
returned 11
rising 11
roll 11
runs 11
sation 11
saved 11
saving 11
scene 11
seconds 11
seeing 11
ser 11
settlement 11
sights 11
significance 11
sm 11
smaller 11
soil 11
sold 11
sophisticated 11
sort 11
specialists 11
spite 11
ss@@ 11
stars 11
ster 11
story 11
strength 11
substance 11
suite 11
supervision 11
suspended 11
syn@@ 11
targeted 11
tel@@ 11
textile 11
thereby 11
threshold 11
tionally 11
tourists 11
translations 11
undertakings 11
ute 11
van 11
van@@ 11
ven 11
visa 11
visits 11
vulnerable 11
web@@ 11
weekend 11
west 11
widely 11
wild 11
work@@ 11
worrying 11
wrote 11
zu 11
à@@ 11
ç@@ 11
&apos;ve 10
&gt; 10
01 10
150 10
2.@@ 10
2013 10
400 10
55 10
66 10
99 10
A5 10
ACP 10
AS@@ 10
Adobe 10
Air 10
Americ@@ 10
Annex 10
BAE 10
Be@@ 10
Bu@@ 10
Business 10
CON@@ 10
Christians 10
Civil 10
Company 10
Consumer 10
Copenhagen 10
Could 10
DI@@ 10
DO@@ 10
DVD 10
Do@@ 10
Don 10
EADS 10
EF@@ 10
EM@@ 10
ENT 10
Earth 10
Egypt 10
El@@ 10
England 10
Experience 10
Facilities 10
Fi 10
Fi@@ 10
Fo@@ 10
Freedom 10
Gra@@ 10
Han@@ 10
Har@@ 10
High@@ 10
Hu@@ 10
IA 10
IMF 10
Indonesia 10
Is@@ 10
Island 10
Islands 10
Java 10
Land 10
Lastly 10
Live 10
Maastricht 10
Maria 10
Millennium 10
Munich 10
Nice 10
Op@@ 10
Page 10
Poli@@ 10
Portugal 10
Pro 10
Programme 10
Pu@@ 10
Py@@ 10
Question 10
Rap@@ 10
Rotary 10
SS 10
Santa 10
Spa 10
Square 10
TO 10
TR@@ 10
Ther@@ 10
Ti@@ 10
Tip 10
UN@@ 10
Up 10
Welcome 10
Wi 10
Women 10
Wor@@ 10
abuse 10
ading 10
adv@@ 10
affects 10
afford 10
aling 10
allies 10
allocated 10
ambitious 10
ani 10
ant@@ 10
antly 10
approaches 10
appropriations 10
architecture 10
aring 10
arising 10
arrange 10
arrive 10
arrived 10
ars 10
articles 10
aside 10
assembly 10
ata 10
ation@@ 10
automatic 10
avoiding 10
award 10
baggage 10
beer 10
begins 10
belief 10
blog 10
blood 10
boasts 10
bon@@ 10
care@@ 10
cells 10
certificate 10
certified 10
checked 10
checking 10
cing 10
classical 10
cleaning 10
clubs 10
coastal 10
collapse 10
collec@@ 10
collected 10
color 10
colours 10
com 10
competent 10
completion 10
confirmation 10
consultation 10
convenient 10
conver@@ 10
cool@@ 10
countryside 10
coverage 10
credible 10
cru@@ 10
dad 10
dead 10
deals 10
declared 10
decorated 10
deeply 10
deleg@@ 10
delivery 10
dent 10
deny 10
depth 10
dering 10
destroyed 10
differenti@@ 10
differently 10
din@@ 10
disasters 10
dly 10
dollar 10
down@@ 10
dust 10
eded 10
elled 10
elling 10
emphasised 10
enabled 10
ences 10
encouraging 10
endorse 10
ene 10
engaged 10
ening 10
ens@@ 10
equity 10
ett@@ 10
ette 10
ex 10
examine 10
exceptions 10
exciting 10
exhibition 10
explicit 10
faced 10
fan 10
festival 10
films 10
fitted 10
fle@@ 10
flows 10
focuses 10
fore@@ 10
forest 10
formed 10
forum 10
frame 10
frequently 10
fulfil 10
functional 10
ga 10
gain 10
gets 10
ghts 10
grand@@ 10
greatly 10
guaranteeing 10
habit@@ 10
hal@@ 10
harmonised 10
heat 10
her@@ 10
hesitate 10
hin@@ 10
holes 10
honour 10
identity 10
immigrants 10
imperative 10
impose 10
inclusion 10
index 10
indoor 10
info 10
infringement 10
ini 10
input 10
inst@@ 10
inter 10
interim 10
investigation 10
ire 10
ises 10
iting 10
ize 10
joined 10
kernel 10
ki 10
ki@@ 10
kids 10
knew 10
lan@@ 10
learned 10
legitimate 10
lement 10
ley 10
liked 10
ll@@ 10
load 10
los 10
magnificent 10
mandate 10
maritime 10
meal 10
memory 10
mere 10
mess@@ 10
miss 10
mm 10
moral 10
moves 10
mp@@ 10
musical 10
my@@ 10
na 10
necessarily 10
neighbours 10
newly 10
nine 10
noise 10
nom@@ 10
normally 10
nu@@ 10
nur@@ 10
object 10
obstacles 10
ography 10
ong 10
optimal 10
ordinary 10
organize 10
ou 10
ours 10
parliament 10
parliaments 10
pat@@ 10
perform 10
pers 10
physi@@ 10
pick 10
plan@@ 10
planet 10
pointed 10
poll@@ 10
posted 10
posts 10
power@@ 10
preliminary 10
preparing 10
print 10
privacy 10
pur@@ 10
purely 10
pursuing 10
quote 10
ral 10
rare 10
reconstruction 10
records 10
refers 10
regarded 10
regardless 10
relationships 10
rely 10
renovated 10
repair 10
repeatedly 10
ress 10
restricted 10
retain 10
riding 10
ries 10
ris@@ 10
roots 10
run@@ 10
sa 10
satisfied 10
savings 10
scheduled 10
scientists 10
searching 10
seat 10
sely 10
servers 10
shed 10
signals 10
sis 10
skin 10
sleep 10
sli@@ 10
sm@@ 10
soft 10
songs 10
speaker 10
speakers 10
specialist 10
spoke 10
statistical 10
sten@@ 10
stood 10
store 10
stored 10
strange 10
stressed 10
stronger 10
submit 10
subscribe 10
subsidies 10
substances 10
suffered 10
suggested 10
supplementary 10
telecommunications 10
telling 10
tend 10
tened 10
territorial 10
tested 10
tim@@ 10
tobacco 10
transferred 10
transition 10
trees 10
trend 10
tribute 10
tro@@ 10
tru@@ 10
turning 10
ultimate 10
une 10
ung@@ 10
units 10
unusual 10
upgrade 10
upload 10
upper 10
ur 10
vary 10
vast 10
victory 10
villages 10
voters 10
wa 10
wave 10
weak 10
websites 10
wers 10
whereas 10
wife 10
willing 10
youth 10
· 10
è@@ 10
ó@@ 10
,000 9
,@@ 9
0.0 9
1,@@ 9
1000 9
1990s 9
1995 9
2011 9
25@@ 9
32 9
48 9
49 9
85 9
Access 9
Apartments 9
Ara@@ 9
Auditors 9
BMW 9
Ba@@ 9
Bad 9
Based 9
Bor@@ 9
Bre@@ 9
Bur@@ 9
CH@@ 9
Cam@@ 9
Cir@@ 9
Climate 9
Customer 9
Department 9
Des@@ 9
Deutsche 9
ET@@ 9
EX@@ 9
Ele@@ 9
FOR 9
Fe@@ 9
For@@ 9
Frankfurt 9
Funds 9
Go@@ 9
Goals 9
Gr@@ 9
Guests 9
HR 9
Instead 9
Iranian 9
JavaScript 9
Jewish 9
Jews 9
Ju@@ 9
Last 9
Lat@@ 9
Law 9
Mart@@ 9
Medi@@ 9
Milan 9
Minutes 9
Morocco 9
Mur@@ 9
MySQL 9
NGOs 9
Net@@ 9
Online 9
PL@@ 9
PPE 9
Pa@@ 9
Pal@@ 9
Perhaps 9
Poker 9
Polish 9
Pool 9
Presidents 9
Product 9
Puerto 9
Radio 9
Read 9
Report 9
Ru@@ 9
SA 9
SAP 9
SE@@ 9
SMEs 9
SS@@ 9
School 9
Serbia 9
Shop 9
Site 9
Situated 9
Sk@@ 9
Speci@@ 9
Subject 9
Sunday 9
TS 9
Te@@ 9
Technology 9
Ter@@ 9
Time 9
To@@ 9
Trek 9
Wall 9
Washington 9
Will 9
Within 9
YOU 9
Z 9
acceler@@ 9
accident 9
accompanied 9
accordingly 9
addresses 9
ado 9
advise 9
advocate 9
afternoon 9
agents 9
album 9
alized 9
alternatives 9
ambi@@ 9
ances 9
anniversary 9
apart 9
apparently 9
appointed 9
arch@@ 9
argue 9
argument 9
arti@@ 9
ate@@ 9
atic 9
attend 9
aviation 9
aw@@ 9
ba 9
beings 9
believed 9
blocks 9
bul@@ 9
carbon 9
catalogue 9
cation 9
ceiling 9
centuries 9
chain 9
channels 9
charges 9
checks 9
cl@@ 9
clarified 9
closing 9
coffee 9
coherence 9
cold 9
command 9
complaints 9
compulsory 9
conf@@ 9
consultations 9
conventional 9
conversion 9
convince 9
cool 9
cope 9
copy 9
corner 9
craft 9
creativity 9
crimes 9
culinary 9
cutting 9
dan 9
deck 9
deser@@ 9
desk 9
differ 9
directed 9
disappointed 9
drivers 9
ear@@ 9
ecological 9
ek 9
electricity 9
eless 9
emb@@ 9
engage 9
enhanced 9
enting 9
equ@@ 9
equi@@ 9
equivalent 9
ero 9
estimated 9
ethical 9
everywhere 9
exact 9
exceed 9
exception 9
exclusion 9
exec@@ 9
execution 9
exposed 9
falls 9
featuring 9
fell 9
fies 9
filter 9
fit 9
flu@@ 9
fold 9
foot@@ 9
formation 9
formula 9
fur@@ 9
ga@@ 9
genuinely 9
gol@@ 9
graphic 9
gross 9
grown 9
handling 9
heading 9
headquarters 9
heavily 9
height 9
high@@ 9
hill 9
hit 9
holder 9
hole 9
hon@@ 9
hopes 9
horses 9
ignore 9
imp@@ 9
importantly 9
imported 9
individually 9
inform@@ 9
inherent 9
ini@@ 9
ink@@ 9
inn@@ 9
inquiry 9
installing 9
intense 9
intent 9
invest 9
istic 9
je 9
judge 9
killed 9
kl@@ 9
kno@@ 9
labor 9
lar@@ 9
las 9
launched 9
layers 9
lied 9
listen 9
listings 9
lists 9
lling 9
luxurious 9
managing 9
mark@@ 9
marked 9
medieval 9
meets 9
mine 9
mini 9
mix 9
modification 9
mother 9
museum 9
museums 9
native 9
notified 9
occurred 9
organization 9
ori 9
originally 9
owners 9
pace 9
pain 9
paragraphs 9
parameters 9
partnerships 9
patent 9
ped 9
pending 9
permission 9
pieces 9
pollution 9
populations 9
por@@ 9
potentially 9
pra@@ 9
practically 9
preserve 9
prime 9
privileged 9
professionals 9
promotes 9
promotion 9
protests 9
pul@@ 9
push 9
racing 9
radio 9
rating 9
raw 9
ray 9
reali@@ 9
recital 9
rel@@ 9
relates 9
remarks 9
removal 9
repeated 9
representation 9
reputation 9
rescue 9
resource 9
respectively 9
restored 9
revised 9
ride 9
rit@@ 9
rolling 9
rub@@ 9
rubber 9
safeguard 9
sam@@ 9
sample 9
sand 9
satisfactory 9
sauna 9
saw 9
scheme 9
secret 9
senior 9
shift 9
signing 9
silence 9
sk 9
sleeping 9
slopes 9
song 9
sorry 9
spec@@ 9
spoken 9
stag@@ 9
stores 9
stories 9
straight 9
stri@@ 9
striking 9
stru@@ 9
student 9
stylish 9
su 9
suggests 9
suited 9
sun 9
surprising 9
sy@@ 9
tables 9
tackle 9
tation 9
teaching 9
television 9
temperature 9
theory 9
therapy 9
thoroughly 9
ti 9
tion@@ 9
transactions 9
transitional 9
tree 9
trends 9
tual 9
ub@@ 9
uncertainty 9
undertaken 9
uns 9
vacation 9
val@@ 9
valuable 9
vent 9
vers 9
vice 9
viewed 9
virtually 9
wards 9
washing 9
wear 9
wer 9
whatsoever 9
widespread 9
wind 9
wind@@ 9
wines 9
wording 9
worry 9
yer 9
yo@@ 9
yst@@ 9
zo@@ 9
á 9
â 9
™ 9
-- 8
.00 8
03 8
04 8
120 8
1980s 8
24@@ 8
250 8
30@@ 8
600 8
65 8
A4 8
AB@@ 8
Action 8
Afghan 8
Agriculture 8
Airlines 8
Allah 8
Anonymous 8
Area 8
BS 8
Bag@@ 8
Barroso 8
Belarus 8
Ben@@ 8
Both 8
COM 8
Camp@@ 8
Cha@@ 8
Christmas 8
Cor@@ 8
DC 8
DR 8
Danube 8
Denmark 8
Dor@@ 8
ECU 8
Eff@@ 8
Egyptian 8
Est@@ 8
Executive 8
Federation 8
Fer@@ 8
Festival 8
Flo@@ 8
Franz 8
Fu@@ 8
GNU 8
Games 8
Gar@@ 8
Global 8
Golden 8
Gre@@ 8
Greens 8
Hans 8
Have 8
Having 8
Heads 8
Heating 8
History 8
IC 8
ID 8
IR@@ 8
Institute 8
Internal 8
Ka@@ 8
King 8
Korea 8
Kyoto 8
Language 8
Legal 8
Liber@@ 8
Liberal 8
Life 8
Like 8
ME@@ 8
MEP 8
Mal@@ 8
Mas@@ 8
Mc@@ 8
Me@@ 8
Med@@ 8
Mel@@ 8
NL 8
NOT 8
Newspapers 8
Nobel 8
Obama 8
Obviously 8
Old 8
Ombudsman 8
Open@@ 8
Organisation 8
Ori@@ 8
PL 8
PP@@ 8
PS 8
Pack 8
Pakistan 8
Paper 8
Plus 8
Publi@@ 8
Q 8
Ra@@ 8
Ref 8
Resort 8
S.@@ 8
SC@@ 8
SI@@ 8
Sahara 8
Section 8
See 8
Sem@@ 8
Sierra 8
Singapore 8
Slovenia 8
Small 8
So@@ 8
Southern 8
Stra@@ 8
Stuttgart 8
Support 8
Syria 8
TI@@ 8
TO@@ 8
Tem@@ 8
Three 8
Town 8
User 8
Val@@ 8
Web@@ 8
Website 8
Which 8
Wikitravel 8
a.@@ 8
abo@@ 8
absolute 8
acceptance 8
ach@@ 8
achievement 8
achievements 8
acquired 8
activ@@ 8
adding 8
adi@@ 8
adjustment 8
admit 8
affordable 8
alists 8
alli@@ 8
analy@@ 8
ang 8
ania 8
ano@@ 8
app@@ 8
applicable 8
appointment 8
ards 8
arity 8
arrangement 8
arrest 8
artistic 8
aspirations 8
ass 8
associations 8
asts 8
atives 8
ato 8
atri@@ 8
attract 8
audio 8
authentic 8
avoided 8
baby 8
backed 8
bal@@ 8
balcony 8
bath@@ 8
bears 8
believes 8
belongs 8
bet 8
bey 8
bid 8
bill 8
bing 8
bio@@ 8
blame 8
bol@@ 8
brain 8
brands 8
bright 8
broad@@ 8
bureaucracy 8
but@@ 8
cam@@ 8
capitalism 8
castle 8
celebrated 8
centers 8
centres 8
chairman 8
chan@@ 8
chapter 8
citizenship 8
ckers 8
clarify 8
clock 8
clothes 8
codecision 8
collect 8
colonial 8
comb@@ 8
commit 8
communications 8
compatible 8
compete 8
complaint 8
comple@@ 8
completing 8
configuration 8
constitution 8
constructed 8
contextually 8
contra@@ 8
contractual 8
contributed 8
controlling 8
convergence 8
cooperate 8
coordinate 8
copyright 8
correctly 8
courage 8
cri@@ 8
criterion 8
curve 8
databases 8
deadline 8
deb@@ 8
dec@@ 8
declarations 8
decor@@ 8
delicious 8
dep@@ 8
department 8
depend 8
dependent 8
dest 8
destinations 8
destroy 8
dev@@ 8
devoted 8
didn 8
differing 8
dignity 8
dining 8
diplomatic 8
discipline 8
disk 8
displayed 8
disposal 8
districts 8
dol@@ 8
drug 8
eding 8
edit 8
efficiently 8
electoral 8
emp@@ 8
eng@@ 8
enhance 8
enn@@ 8
enterprise 8
ered 8
ern@@ 8
essentially 8
eting 8
eve 8
excessive 8
explicitly 8
extraordinary 8
ey 8
ez 8
fabric 8
fails 8
familiar 8
fault 8
fed 8
female 8
fer 8
finished 8
fitness 8
floors 8
fly 8
flying 8
foremost 8
formats 8
foundations 8
fragmentation 8
frequent 8
fron@@ 8
fruits 8
furniture 8
gained 8
gam@@ 8
gaps 8
ger@@ 8
gift 8
girls 8
globalisation 8
gn@@ 8
grammatically 8
graphical 8
gri@@ 8
gue 8
ha 8
hazardous 8
hide 8
hopefully 8
hospitals 8
hundred 8
ideally 8
ie@@ 8
imbalance 8
incomes 8
individu@@ 8
inger 8
initiate 8
ins@@ 8
insi@@ 8
inspection 8
insufficient 8
int 8
integral 8
intensi@@ 8
intim@@ 8
introducing 8
investigate 8
invitation 8
invite 8
involves 8
isolated 8
iti@@ 8
iz@@ 8
judicial 8
lap@@ 8
lasting 8
lat@@ 8
layer 8
lest 8
liber@@ 8
license 8
lift 8
lights 8
listened 8
ll 8
lo 8
logic 8
looked 8
lovers 8
ly@@ 8
magazine 8
makers 8
mal@@ 8
manager 8
manship 8
mar 8
massage 8
master 8
meaning 8
meaningfully 8
medicine 8
ment@@ 8
mes 8
metals 8
mid 8
mild 8
mo 8
monopoly 8
mor@@ 8
motiv@@ 8
negotiation 8
nit@@ 8
nor@@ 8
nose 8
obliged 8
obtaining 8
occurs 8
officially 8
openly 8
opens 8
optional 8
ora 8
orious 8
ought 8
ownership 8
painting 8
pan@@ 8
papers 8
patents 8
paying 8
periods 8
plac@@ 8
plates 8
play@@ 8
pointing 8
poli@@ 8
pools 8
poorest 8
port@@ 8
posi@@ 8
possibly 8
pot@@ 8
preferred 8
pres@@ 8
pretty 8
principal 8
proactive 8
procedural 8
protectionism 8
protest 8
proud 8
pt 8
publish 8
purchasing 8
puts 8
quantitative 8
quarter 8
realise 8
reas@@ 8
recall 8
ref@@ 8
reiterate 8
reliability 8
rem@@ 8
renowned 8
residents 8
resistant 8
resolved 8
resumed 8
retirement 8
rice 8
rock 8
romantic 8
ros 8
rose 8
rou@@ 8
routes 8
sad 8
schemes 8
secondly 8
seemed 8
sel@@ 8
sensible 8
separately 8
sex 8
sh 8
shareholders 8
shipping 8
shor@@ 8
shot 8
show@@ 8
simulation 8
sincerely 8
sounds 8
sovereignty 8
specifications 8
spectrum 8
spell 8
sta 8
statistics 8
stic 8
string 8
struggle 8
subsequently 8
sun@@ 8
super 8
superior 8
supplier 8
supposed 8
switch 8
symbol 8
systematically 8
tag@@ 8
tal 8
talked 8
tangible 8
taught 8
tea 8
teams 8
tells 8
tennis 8
tensions 8
thousand 8
threaten 8
thri@@ 8
tic@@ 8
tip 8
tips 8
tiv@@ 8
topic 8
tou@@ 8
tough 8
transit 8
travellers 8
tube 8
turing 8
twenty 8
ually 8
ultimately 8
ultra 8
unanimously 8
understood 8
unds 8
unemployed 8
unity 8
universities 8
university 8
unstable 8
unt 8
ved 8
venue 8
versatile 8
vessels 8
videos 8
villa 8
visited 8
visiting 8
vo 8
voc@@ 8
vocational 8
wage 8
wan@@ 8
weaknesses 8
wel 8
welcomes 8
wellness 8
wh@@ 8
wise 8
wn@@ 8
worst 8
x.@@ 8
yard 8
yed 8
zi@@ 8
² 8
ê@@ 8
ín 8
ón 8
ô@@ 8
ř@@ 8
-B4 7
02 7
07 7
1991 7
2,@@ 7
2012 7
28@@ 7
4.@@ 7
47 7
5000 7
54 7
56 7
63 7
68 7
7,@@ 7
81 7
86 7
AP@@ 7
Adriatic 7
Alexander 7
Allow 7
Already 7
Andalu@@ 7
As@@ 7
Assembly 7
Automati@@ 7
Ay@@ 7
BC 7
Bei@@ 7
Bel@@ 7
Besides 7
Bla@@ 7
Black 7
Bon@@ 7
Bro@@ 7
Buddhist 7
Börse 7
Ca@@ 7
Canada 7
Cap@@ 7
Cas@@ 7
Charles 7
Coast 7
Consequently 7
Constitutional 7
Contact 7
Croatia 7
Cup 7
D.@@ 7
Data 7
David 7
Director 7
Don@@ 7
Dublin 7
EA 7
End 7
FF 7
Family 7
Finland 7
Fischler 7
Food 7
Friendly 7
GN@@ 7
GPS 7
Gal@@ 7
Gas@@ 7
Gay 7
Geneva 7
Gold 7
Hi@@ 7
Hol@@ 7
Holiday 7
Hon@@ 7
Hostelsclub 7
Hussein 7
IBM 7
Inn 7
Innovation 7
Intergovernmental 7
Islam@@ 7
J 7
John 7
Kra@@ 7
LE 7
Las 7
Le 7
Liberals 7
Location 7
Los 7
Louis 7
ME 7
Macedonia 7
Make 7
Map 7
Mar 7
Meanwhile 7
Meeting 7
Memorial 7
Mir@@ 7
Modern 7
Moscow 7
Mu@@ 7
Muslim 7
Natura 7
Ne@@ 7
Nonetheless 7
OP@@ 7
Olympic 7
Or 7
PM 7
PR@@ 7
Pacific 7
Palace 7
Palestinians 7
Per@@ 7
Place 7
Plan@@ 7
Plaza 7
Power@@ 7
Press 7
Prize 7
Process 7
Professional 7
Program 7
Questions 7
RO 7
Rad@@ 7
Real 7
Regarding 7
Rh@@ 7
Roman 7
Rus@@ 7
SA@@ 7
SQL 7
ST 7
Saddam 7
Sar@@ 7
Set 7
Shanghai 7
Socialists 7
Solidarity 7
Sometimes 7
Space 7
Special 7
Staff 7
Ste@@ 7
Sub@@ 7
Sun 7
Sun@@ 7
TION 7
Terrace 7
Thirdly 7
Ticket 7
Top 7
Tri@@ 7
Tuni@@ 7
Until 7
Ver@@ 7
Vietnam 7
Village 7
Vir@@ 7
Wa@@ 7
Wal@@ 7
Well 7
Wireless 7
Young 7
a.m 7
abandoned 7
abilities 7
absence 7
accommodations 7
accord 7
accuracy 7
aci@@ 7
acknowledged 7
acquisition 7
activists 7
adher@@ 7
affili@@ 7
agrees 7
ai 7
airline 7
ala 7
aled 7
alise 7
amb@@ 7
amenities 7
ample 7
announcement 7
answered 7
anywhere 7
appearing 7
applicant 7
aria 7
arises 7
arrested 7
art@@ 7
asser@@ 7
asset 7
ast 7
ath@@ 7
att@@ 7
auction 7
auf 7
authorised 7
avi@@ 7
ay 7
bac@@ 7
bag 7
banana 7
banned 7
bat@@ 7
bearing 7
bedroom 7
bedrooms 7
bes 7
bike 7
bin 7
bin@@ 7
birth 7
bitter 7
blat@@ 7
blocked 7
bom@@ 7
bonds 7
bone 7
booked 7
boom 7
boot 7
burg 7
calendar 7
calm 7
capabilities 7
capability 7
cash 7
casino 7
chairs 7
chances 7
characteristic 7
charm 7
chemical 7
churches 7
ci 7
circle 7
citizen 7
clarification 7
classi@@ 7
cli@@ 7
coin 7
collabor@@ 7
column 7
commend 7
commerce 7
compact 7
complementary 7
complicated 7
concert 7
concludes 7
condemned 7
confident 7
conservation 7
considering 7
consolidated 7
constituted 7
consult 7
cont@@ 7
container 7
contextual 7
continually 7
contradictory 7
cookies 7
cou@@ 7
count 7
covering 7
criticism 7
critique 7
cro@@ 7
crossing 7
ction 7
custom 7
dan@@ 7
dat@@ 7
decent 7
declare 7
deep@@ 7
defects 7
defending 7
delete 7
deleted 7
dem 7
dem@@ 7
demanded 7
demanding 7
demographic 7
dened 7
desc@@ 7
describe 7
deserve 7
designs 7
develops 7
dict@@ 7
dictatorship 7
disastrous 7
disc 7
disclose 7
discount 7
discovered 7
dissemination 7
division 7
dominant 7
dor@@ 7
downloaded 7
dr@@ 7
drafted 7
drives 7
duration 7
ease 7
eating 7
eds 7
ef@@ 7
eive 7
eled 7
eliminate 7
ells 7
emerged 7
emphasize 7
entering 7
enthusiasts 7
environments 7
eri@@ 7
esc@@ 7
ess@@ 7
estimate 7
etch 7
eth 7
ethnic 7
etti 7
evi@@ 7
examined 7
exceptionally 7
exclude 7
executive 7
exemption 7
exotic 7
experiences 7
experiencing 7
explained 7
explains 7
fabri@@ 7
factory 7
fairly 7
fallen 7
false 7
fax 7
fers 7
filed 7
finances 7
finish 7
fir@@ 7
fleet 7
focusing 7
fol@@ 7
folder 7
forests 7
forming 7
fortress 7
forums 7
founder 7
founding 7
fundament@@ 7
für 7
gains 7
gender 7
genetically 7
girl 7
globalization 7
gorgeous 7
governing 7
gran@@ 7
graph@@ 7
gro@@ 7
guided 7
ham@@ 7
hard@@ 7
harmony 7
hear@@ 7
hei@@ 7
heritage 7
hi 7
highlights 7
hing 7
hire 7
hol@@ 7
holds 7
home@@ 7
honest 7
hostel 7
hydro@@ 7
hypo@@ 7
ices 7
identities 7
iled 7
illing 7
immense 7
impetus 7
imports 7
imposing 7
impression 7
impressive 7
inated 7
incident 7
incorporate 7
ind 7
infrastructures 7
integrate 7
intends 7
interaction 7
internationally 7
intervene 7
ints 7
invested 7
inviting 7
ion 7
iron 7
ishing 7
ishment 7
isolation 7
itable 7
ited 7
jazz 7
jet 7
jum@@ 7
ke@@ 7
kers 7
kill 7
label 7
labelling 7
lands 7
lau@@ 7
law@@ 7
laying 7
layout 7
lending 7
lifestyle 7
ligh@@ 7
lim@@ 7
lla 7
loans 7
loc@@ 7
log@@ 7
lowest 7
m2 7
machinery 7
manual 7
manufacture 7
manufactured 7
maps 7
marking 7
measured 7
mem@@ 7
metro 7
mid@@ 7
minorities 7
mistakes 7
mobili@@ 7
moderate 7
modify 7
mostly 7
motor@@ 7
mus@@ 7
nar@@ 7
necessity 7
need@@ 7
neighborhood 7
net@@ 7
nez 7
nights 7
nobody 7
northern 7
observation 7
observers 7
occurrence 7
ona 7
ond 7
op 7
operated 7
opponents 7
ord 7
ordered 7
ort 7
oth 7
ouring 7
outdoor 7
outset 7
owner 7
pack@@ 7
pact 7
panoramic 7
para 7
participating 7
pas@@ 7
paths 7
pedi@@ 7
perception 7
phones 7
pil@@ 7
pity 7
placing 7
plays 7
ples 7
pling 7
plug 7
polio 7
ports 7
post@@ 7
postal 7
practi@@ 7
praise 7
precious 7
preferences 7
preparations 7
pressed 7
prestigious 7
preventing 7
prevents 7
proc@@ 7
productive 7
professions 7
promises 7
properties 7
prospect 7
pull 7
pure 7
quantities 7
quantity 7
recession 7
recording 7
recycling 7
refer@@ 7
refined 7
registered 7
religion 7
renewed 7
rental 7
replace 7
reporting 7
representing 7
reserved 7
respected 7
restrict 7
resulted 7
revenues 7
rigorous 7
rivers 7
roughly 7
rows 7
salary 7
scenery 7
scra@@ 7
scrutiny 7
sees 7
sers 7
servant 7
shadow 7
sheets 7
shi@@ 7
sho@@ 7
shooting 7
shortcomings 7
shortly 7
showing 7
shuttle 7
sided 7
sightseeing 7
signatures 7
sil@@ 7
simplification 7
simplified 7
simplify 7
sin 7
sincere 7
sixth 7
ska 7
smallest 7
smoothly 7
soci@@ 7
solar 7
sole 7
son@@ 7
sound@@ 7
spe@@ 7
spectacular 7
spiritual 7
spot 7
ss 7
stages 7
stal@@ 7
steam 7
stocks 7
str@@ 7
stresses 7
stunning 7
subscri@@ 7
substantially 7
sugar 7
suites 7
suits 7
summits 7
supplies 7
suspension 7
swiftly 7
tailored 7
tanks 7
tar@@ 7
taxpayers 7
tem@@ 7
temperatures 7
template 7
temporarily 7
tered 7
tering 7
terri@@ 7
tery 7
theme 7
thirds 7
threats 7
tickets 7
tis 7
tivity 7
tom@@ 7
topics 7
towns 7
tragedy 7
transform 7
translated 7
travelling 7
trips 7
troops 7
trouble 7
tured 7
tw@@ 7
twice 7
ulate 7
ums 7
uncertain 7
unch 7
unclear 7
undertaking 7
updating 7
urgently 7
ux 7
varied 7
vention 7
verification 7
vic@@ 7
violent 7
visitor 7
wages 7
wan 7
warning 7
watching 7
well@@ 7
wholly 7
wider 7
willingness 7
winners 7
wishing 7
withdraw 7
workshops 7
worried 7
wra@@ 7
ye@@ 7
yp@@ 7
zation 7
ze@@ 7
£ 7
ä@@ 7
ö@@ 7
ú@@ 7
б@@ 7
.de 6
.org 6
0.5 6
05 6
05@@ 6
06 6
0s 6
100,000 6
16.@@ 6
160 6
16th 6
18th 6
1967 6
2.5 6
27@@ 6
36@@ 6
3rd 6
43 6
50@@ 6
67 6
700 6
88 6
900 6
96 6
A.@@ 6
AF@@ 6
ALL 6
AT 6
ATE 6
AV@@ 6
Above 6
Acc@@ 6
Administration 6
Again 6
Airbus 6
Airconditioning 6
Al 6
Albania 6
Alpine 6
Am@@ 6
App@@ 6
Arts 6
Ashton 6
At@@ 6
Auth@@ 6
Baroness 6
Bas@@ 6
Bay 6
Best 6
Blue 6
Bol@@ 6
Bosni@@ 6
Bosnia 6
Bra@@ 6
Bremen 6
Britain 6
Budget 6
Buyer 6
C. 6
C4 6
CD@@ 6
CHF 6
CI 6
CS 6
Card 6
Castle 6
Catalan 6
Children 6
Chile 6
Church 6
Ci@@ 6
Communist 6
Comple@@ 6
Content 6
Cooperation 6
Corporate 6
Credit 6
Côte 6
DA 6
Dem@@ 6
Dep@@ 6
Det@@ 6
Diam@@ 6
Die 6
Digital 6
Disabled 6
Dru@@ 6
Düsseldorf 6
ED@@ 6
EMU 6
EN 6
Ecofin 6
Everyone 6
External 6
FR@@ 6
Fa@@ 6
Fern@@ 6
File 6
Fin@@ 6
Firefox 6
Fisheries 6
Florence 6
Four 6
Full 6
Fundamental 6
Garda 6
Gate 6
Gen@@ 6
Georgia 6
Germans 6
Green@@ 6
Guide 6
HU 6
Hamas 6
Hel@@ 6
Hence 6
Hom@@ 6
Hong 6
Hor@@ 6
IB@@ 6
IONS 6
ISO 6
Jackson 6
Ke@@ 6
Key 6
Ko@@ 6
Korean 6
Ku@@ 6
Ky@@ 6
Lag@@ 6
Later 6
Latvia 6
Level 6
Lithuania 6
Ly@@ 6
MD@@ 6
MP3 6
Mac 6
Machine 6
Malaysia 6
Malta 6
Manager 6
Marketing 6
Media 6
Mod@@ 6
Money 6
Mountains 6
NE@@ 6
Na@@ 6
Nas@@ 6
Network 6
Nor@@ 6
Not@@ 6
OL 6
OLAF 6
ON 6
Official 6
Order 6
Otherwise 6
PRO@@ 6
PSE 6
Palestine 6
Partnership 6
Patten 6
Pen@@ 6
Peter 6
Phar@@ 6
Plat@@ 6
Power 6
Project 6
Provence 6
Provi@@ 6
Qu@@ 6
RA 6
RA@@ 6
ROM 6
Region 6
Regulation 6
Relations 6
Ren@@ 6
Representative 6
Richard 6
Rock 6
Rub@@ 6
SD@@ 6
SE 6
SK 6
SLR 6
SO@@ 6
SR@@ 6
Saturday 6
Sc@@ 6
Ser@@ 6
Series 6
Sie 6
Silver 6
Similarly 6
Single 6
Skype 6
Slovak 6
Starfleet 6
Super 6
Ta@@ 6
Tai@@ 6
Tel@@ 6
Test 6
Third 6
Tor@@ 6
Tour 6
Tourism 6
UL@@ 6
Ukrainian 6
Unless 6
VI 6
Valley 6
Verheugen 6
View 6
Wat@@ 6
We@@ 6
Wednesday 6
West@@ 6
Would 6
Written 6
accepting 6
accepts 6
acid 6
acquis 6
actors 6
ada 6
adapted 6
adds 6
ades 6
adjustments 6
administ@@ 6
agreeing 6
airports 6
ais 6
albeit 6
algorith@@ 6
ali 6
alize 6
alle@@ 6
alled 6
allegations 6
alliance 6
aluminium 6
ambition 6
amended 6
ams 6
analysed 6
ando 6
ands 6
ang@@ 6
announce 6
apparent 6
ard@@ 6
ario 6
arre@@ 6
artist 6
assurances 6
assured 6
ately 6
attaches 6
attacked 6
atten@@ 6
attended 6
author@@ 6
auto@@ 6
automated 6
automobile 6
autonomy 6
autumn 6
aux 6
aving 6
bann@@ 6
bathrooms 6
bench@@ 6
beneficial 6
bes@@ 6
bio 6
biological 6
bis 6
black@@ 6
ble@@ 6
bles 6
boat 6
borrowing 6
breaking 6
broke 6
bug 6
bund@@ 6
calcul@@ 6
calculated 6
camp 6
cancellation 6
capture 6
carriage 6
cas@@ 6
catering 6
causing 6
cel 6
cell@@ 6
cement 6
cer 6
certification 6
challenging 6
character@@ 6
chat 6
cheese 6
chemicals 6
chi 6
chi@@ 6
chief 6
chocolate 6
chose 6
cion@@ 6
circulation 6
civili@@ 6
civilians 6
cker 6
classified 6
clay 6
closest 6
cluster 6
coherent 6
collecting 6
commission 6
commonly 6
communist 6
compare 6
comparison 6
compens@@ 6
compet@@ 6
competences 6
competitors 6
completeness 6
concerts 6
condemn 6
condemnation 6
cone 6
conferences 6
configure 6
confined 6
connec@@ 6
consistency 6
consistently 6
consolidate 6
consultants 6
continuously 6
contributes 6
controller 6
controversial 6
cooking 6
coordinated 6
cop@@ 6
copies 6
copper 6
counts 6
couples 6
cozy 6
crus@@ 6
cum@@ 6
cy 6
damaged 6
dance 6
dealers 6
deaths 6
debated 6
decre@@ 6
dedic@@ 6
defining 6
delic@@ 6
delivering 6
democracies 6
dening 6
denom@@ 6
depl@@ 6
desires 6
determining 6
dge 6
dges 6
diagnosis 6
dialog 6
dies 6
directions 6
director 6
disabilities 6
disagree 6
disappear 6
disproportionate 6
dist@@ 6
distinguished 6
diver@@ 6
diversification 6
dollars 6
dra@@ 6
drafting 6
dream 6
driven 6
dru@@ 6
dry 6
dumping 6
dur@@ 6
economists 6
effec@@ 6
eli@@ 6
ellers 6
emission 6
employee 6
employer 6
encounter 6
encouragement 6
endeav@@ 6
engagement 6
engineers 6
ensured 6
environmentally 6
ep 6
ere@@ 6
eria 6
eries 6
ert 6
essen 6
essence 6
establishes 6
eta 6
euros 6
evaluate 6
evident 6
exc@@ 6
excellence 6
exemptions 6
existence 6
expec@@ 6
explanation 6
extrac@@ 6
extremism 6
facilitating 6
faith 6
fal@@ 6
fan@@ 6
farms 6
fascinating 6
favourable 6
feder@@ 6
feedback 6
fen@@ 6
ferry 6
fest 6
fiable 6
ficial 6
figure 6
financed 6
findings 6
fitting 6
flash 6
fleets 6
flowers 6
forecast 6
forthcoming 6
fought 6
free@@ 6
freely 6
fs 6
fuel 6
funded 6
furthermore 6
gallery 6
gar 6
gate 6
gement 6
generating 6
gent 6
gers 6
gia 6
globe 6
govern@@ 6
gradually 6
grand 6
graphics 6
guidance 6
hanging 6
happening 6
harmful 6
harmonise 6
haven 6
healthcare 6
highlighted 6
highlighting 6
hills 6
holders 6
homes 6
hot@@ 6
housing 6
http 6
hub 6
humans 6
hunting 6
ich@@ 6
ico 6
ide@@ 6
ids 6
ig 6
ignored 6
ili@@ 6
ill@@ 6
illi@@ 6
ills 6
imagine 6
impa@@ 6
implic@@ 6
incidents 6
incomplete 6
incorporated 6
incorrect 6
indications 6
inevitably 6
influenced 6
ingredients 6
initi@@ 6
inner 6
insight 6
instructions 6
insu@@ 6
int@@ 6
integrity 6
interinstitutional 6
interpretation 6
interpretations 6
inu@@ 6
investing 6
ired 6
isol@@ 6
iss@@ 6
journalists 6
judgments 6
jump 6
jungle 6
justi@@ 6
kar@@ 6
ked 6
keeps 6
key@@ 6
keys 6
kilometres 6
kitchenette 6
ko 6
ko@@ 6
lac@@ 6
laser 6
laundry 6
lec@@ 6
legitim@@ 6
len@@ 6
letting 6
licence 6
lined 6
literature 6
lived 6
lor@@ 6
lots 6
lovely 6
mac@@ 6
magnetic 6
manoeuvre 6
married 6
mass@@ 6
meals 6
measuring 6
mechanical 6
merit 6
micro@@ 6
min 6
mineral 6
minister 6
mirror 6
misuse 6
mit 6
modifications 6
monitors 6
moreover 6
mouse 6
mouth 6
movie 6
multip@@ 6
musi@@ 6
nam@@ 6
ned 6
neg@@ 6
neighbourhood 6
newspapers 6
nonetheless 6
noon 6
noticed 6
ny 6
oasis 6
oc@@ 6
occupation 6
ol 6
ola 6
ologically 6
onds 6
onia 6
onic 6
oning 6
ony 6
ope 6
organise 6
origins 6
oring 6
ot 6
ous@@ 6
outer 6
ov 6
overview 6
p.m 6
p.m. 6
painter 6
parall@@ 6
parent 6
participant 6
patient 6
pays 6
pen 6
performing 6
permit 6
piano 6
pillar 6
plain 6
plate 6
poker 6
portable 6
portfolio 6
postp@@ 6
postponed 6
practic@@ 6
prec@@ 6
presenting 6
pressing 6
prevented 6
pride 6
pris@@ 6
pro 6
producer 6
produces 6
proposes 6
protocols 6
providers 6
psychological 6
publishing 6
qualification 6
quar@@ 6
quotas 6
racism 6
raises 6
ran 6
react 6
reaction 6
reads 6
realities 6
realize 6
recognize 6
red@@ 6
refuge 6
regi@@ 6
regimes 6
reimbur@@ 6
rela@@ 6
releases 6
remainder 6
reminded 6
rep@@ 6
reported 6
repression 6
residential 6
restoring 6
restraint 6
restriction 6
retained 6
rever@@ 6
revi@@ 6
reviewed 6
ri 6
rig@@ 6
robust 6
ron 6
rop@@ 6
ruins 6
ruled 6
ruling 6
sad@@ 6
sandy 6
sat@@ 6
satisfy 6
scann@@ 6
scho@@ 6
script 6
sections 6
sensor 6
sensors 6
sharp 6
shipment 6
showers 6
si 6
sible 6
sich 6
sid 6
sit@@ 6
sively 6
ski@@ 6
sl@@ 6
sle@@ 6
slide 6
smo@@ 6
sn@@ 6
snow 6
solid 6
sor@@ 6
sou@@ 6
sovereign 6
spam 6
speciali@@ 6
specialised 6
specialized 6
specially 6
speeches 6
spi@@ 6
splendid 6
split 6
sporting 6
statute 6
ster@@ 6
stick 6
stones 6
stopped 6
straightforward 6
stream 6
strike 6
stringent 6
strive 6
struc@@ 6
succe@@ 6
suggestion 6
sum@@ 6
sunset 6
sup@@ 6
surprise 6
surprised 6
survival 6
sus 6
sw@@ 6
synchron@@ 6
tab@@ 6
tactics 6
tancy 6
tant 6
tape 6
taxi 6
technique 6
teen 6
temp@@ 6
tendencies 6
tens 6
tension 6
tho@@ 6
thorough 6
thoughts 6
thouse 6
threatened 6
tible 6
tice 6
ticket 6
tie 6
tiny 6
tionary 6
tness 6
tolerance 6
tonnes 6
tops 6
trained 6
tram 6
trans 6
transatlantic 6
transfers 6
transformed 6
transmission 6
transmitted 6
treat 6
treatments 6
trial 6
tries 6
tropical 6
tun@@ 6
tunnel 6
ual 6
ug@@ 6
ules 6
ull 6
ume 6
unanimous 6
understandable 6
undertake 6
undoubtedly 6
unforgettable 6
unprecedented 6
uri@@ 6
uted 6
utes 6
utmost 6
vacc@@ 6
vacuum 6
val 6
vegetation 6
verified 6
verify 6
vian 6
view@@ 6
viewing 6
viol@@ 6
violations 6
virtual 6
visas 6
vor@@ 6
warming 6
warrant 6
wars 6
wash@@ 6
weakness 6
weapon 6
weather 6
weekends 6
wei@@ 6
welcoming 6
whatever 6
windows 6
withdrawal 6
woman 6
worker 6
workshop 6
worthy 6
writer 6
xed 6
yers 6
zu@@ 6
© 6
ér@@ 6
î@@ 6
č@@ 6
ě@@ 6
е 6
--@@ 5
0.000 5
01.@@ 5
1950s 5
1980 5
1993 5
2.6 5
200@@ 5
21st 5
2nd 5
3D 5
40@@ 5
41 5
5,@@ 5
51 5
58 5
61 5
62 5
71 5
73 5
91 5
93 5
ACK@@ 5
AD 5
AL 5
ALDE 5
ALE 5
ANY 5
AP 5
ART 5
ATION 5
About 5
Abu 5
Academy 5
Accordingly 5
Account 5
Albanian 5
Along 5
Among 5
Ans@@ 5
Ant@@ 5
Ap@@ 5
Apache 5
Aqu@@ 5
Arc@@ 5
Asian 5
Audio 5
Available 5
B2@@ 5
BA 5
BR@@ 5
BSE 5
Bangkok 5
Bat@@ 5
Beach 5
Beg@@ 5
Bell@@ 5
Beyond 5
Bridge 5
Brok 5
Budapest 5
Buddh@@ 5
Burma 5
Bus 5
CAP 5
CC 5
CE@@ 5
CFSP 5
CL@@ 5
California 5
Canal 5
Cap 5
Capital 5
Casa 5
Case 5
Challen@@ 5
Chancellor 5
Chechnya 5
Chi@@ 5
Clearly 5
Click 5
Close 5
Co 5
Cold 5
Collection 5
College 5
Colom@@ 5
Comm@@ 5
Commissioners 5
Cra@@ 5
Criminal 5
Cross 5
Customs 5
Cy@@ 5
Cypri@@ 5
DO 5
DP 5
DR@@ 5
DS 5
Day 5
Display 5
Doc@@ 5
Dol@@ 5
Dra@@ 5
Dri@@ 5
EK@@ 5
EM 5
EP@@ 5
EV@@ 5
Easy 5
Ec@@ 5
Ed@@ 5
Edition 5
Empire 5
Entertainment 5
Europol 5
Exchange 5
Explorer 5
Fac@@ 5
Far@@ 5
Fed 5
Finance 5
Finnish 5
Fle@@ 5
Fontaine 5
Fran@@ 5
Frau@@ 5
Fre@@ 5
Ga@@ 5
Galicia 5
Ge@@ 5
Gentoo 5
Get@@ 5
Gibraltar 5
Gift 5
Gor@@ 5
Gro@@ 5
Growth 5
HD 5
HIV 5
Ham@@ 5
Hamburg 5
Head 5
Hot@@ 5
IF@@ 5
IGC 5
IM 5
ION 5
IV 5
Inside 5
Iraqi 5
Joseph 5
Kong 5
LE@@ 5
Labour 5
Land@@ 5
Lanzarote 5
Lar@@ 5
Large 5
Lebanon 5
Legislative 5
Libya 5
License 5
Lob@@ 5
MA 5
MB 5
Mag@@ 5
Mallorca 5
Mand@@ 5
Manhattan 5
Marco 5
Marina 5
Master 5
Merkel 5
Mess@@ 5
Met@@ 5
Mit@@ 5
Mount 5
Mountain 5
Ms 5
My@@ 5
Málaga 5
NET 5
Naturally 5
Nest@@ 5
Nikon 5
Nor 5
Nordic 5
Northern 5
Nov@@ 5
Nowadays 5
Numerous 5
OM 5
OM@@ 5
Ob@@ 5
Ocean 5
Oil 5
Olymp@@ 5
Oper@@ 5
Opera 5
Over@@ 5
PC@@ 5
PCs 5
PD@@ 5
PM@@ 5
PNR 5
Pas@@ 5
Paul 5
Ph@@ 5
Pocket 5
Por@@ 5
Porsche 5
Post@@ 5
Pr@@ 5
Pri@@ 5
Prin@@ 5
Privacy 5
Products 5
Prof. 5
Prophet 5
Pum@@ 5
Pur@@ 5
Purch@@ 5
QU@@ 5
Qui@@ 5
RES@@ 5
Recovery 5
Rei@@ 5
Rein@@ 5
Republican 5
Res@@ 5
Residen@@ 5
Respon@@ 5
Ric@@ 5
Riviera 5
Rwand@@ 5
SH@@ 5
SV 5
Sales 5
Salzburg 5
Satellite 5
Sax@@ 5
Schul@@ 5
Scott 5
Search 5
Seller 5
Shuttle 5
Slovenian 5
Socrates 5
Sol 5
Som@@ 5
Source 5
Sta@@ 5
Stand@@ 5
Stockholm 5
Studio 5
Style 5
Submitted 5
Superior 5
Supervisory 5
TE 5
Taiwan 5
Taking 5
Ten@@ 5
The@@ 5
Times 5
Together 5
Too 5
Tool 5
Tools 5
Tor 5
Tr@@ 5
Training 5
Tro@@ 5
Vac@@ 5
Vall@@ 5
Van 5
Via 5
Vil@@ 5
Vila 5
Visa 5
Visitors 5
Vladimir 5
Vo@@ 5
WAR@@ 5
WC 5
WHO 5
Warcraft 5
Wei@@ 5
Wellness 5
Whenever 5
Whit@@ 5
Wil@@ 5
Wine 5
Wolfgang 5
Word 5
Work 5
YOUR 5
Zi@@ 5
a.m. 5
ables 5
aboard 5
aboli@@ 5
abuses 5
accelerate 5
accessibility 5
accessing 5
accessories 5
accommod@@ 5
accoun@@ 5
aces 5
ached 5
aching 5
ack 5
acquire 5
actor 5
adhe@@ 5
administered 5
administrator 5
admire 5
adult 5
advances 5
advisory 5
advocates 5
aer@@ 5
affir@@ 5
ageing 5
aggressive 5
ain 5
aire 5
aka 5
aked 5
alia 5
aligned 5
alike 5
alising 5
aller 5
allo@@ 5
allocation 5
alu@@ 5
alysts 5
ama 5
ambitions 5
amed 5
amending 5
amm@@ 5
analyses 5
angle 5
annex 5
announ@@ 5
apologise 5
appe@@ 5
appealing 5
appeared 5
appointments 5
appreciation 5
approve 5
approxim@@ 5
arbitrary 5
armed 5
arose 5
arri@@ 5
ase 5
assi@@ 5
assigned 5
assumes 5
asting 5
ath 5
ati 5
atings 5
ationary 5
attach 5
attempts 5
attraction 5
attributes 5
aus 5
austerity 5
authors 5
automotive 5
ax@@ 5
backing 5
backs 5
backwards 5
basi@@ 5
basket 5
bathing 5
bay 5
beat 5
beforehand 5
beginners 5
behave 5
bel 5
ben@@ 5
berry 5
billions 5
blu@@ 5
boards 5
book@@ 5
bot@@ 5
bought 5
bow 5
brake 5
brea@@ 5
breach 5
breaks 5
breath 5
breeding 5
brigh@@ 5
broader 5
broken 5
browse 5
buffer 5
buses 5
cache 5
calculation 5
camp@@ 5
cancelled 5
cand@@ 5
carrier 5
casting 5
catalog 5
categ@@ 5
caution 5
cav@@ 5
cc@@ 5
cease 5
celebrate 5
celebrations 5
cens@@ 5
certificates 5
chair@@ 5
cham@@ 5
channel 5
chaos 5
char@@ 5
characterised 5
cheaper 5
choosing 5
cian 5
cinema 5
cip@@ 5
cket 5
clarity 5
classes 5
classification 5
cle 5
clicking 5
clothing 5
coinci@@ 5
commodity 5
comparable 5
comparative 5
compiled 5
compli@@ 5
complied 5
compounds 5
condi@@ 5
conditional 5
confidentiality 5
configured 5
confusion 5
congratulating 5
congress 5
consi@@ 5
considerations 5
constitu@@ 5
constraints 5
constructions 5
consulted 5
continental 5
continuity 5
contracting 5
contradiction 5
contributing 5
conventions 5
converter 5
convic@@ 5
convincing 5
copied 5
copying 5
cornerstone 5
cosmetic 5
costly 5
coun@@ 5
countless 5
coupling 5
creature 5
creditors 5
crop 5
crops 5
ct 5
cture 5
cxns 5
dairy 5
dam@@ 5
dangers 5
debts 5
declaration 5
decrease 5
defeat 5
defense 5
deficits 5
definite 5
degrees 5
delays 5
deliveries 5
demic 5
demonstrates 5
dence 5
dently 5
dependence 5
deserves 5
designing 5
detected 5
detection 5
determines 5
developer 5
devised 5
devote 5
dict 5
dictionary 5
dig@@ 5
dimensions 5
din 5
dings 5
dio 5
dioxide 5
diplom@@ 5
direc@@ 5
dirty 5
disabled 5
disciplinary 5
discou@@ 5
discretion 5
discrimin@@ 5
disp@@ 5
displays 5
distributors 5
dive 5
doc@@ 5
doctrine 5
domin@@ 5
dominated 5
downloading 5
downtown 5
drew 5
drinking 5
dryer 5
du 5
duly 5
dunes 5
e.g. 5
ea 5
eco 5
economically 5
editing 5
editor 5
effic@@ 5
ei 5
einer 5
eing 5
ela 5
elec@@ 5
elegance 5
ello 5
ema 5
embrace 5
emerge 5
emphasized 5
employers 5
empt 5
encing 5
encourages 5
enda 5
endor@@ 5
enforce 5
enforced 5
engines 5
enjoying 5
enne 5
enrich@@ 5
entit@@ 5
entrepreneurs 5
entrusted 5
envisaged 5
enz 5
episodes 5
eradication 5
ero@@ 5
eses 5
ested 5
ete 5
eted 5
ettes 5
evaluating 5
eventually 5
exam@@ 5
exceeded 5
exceeding 5
exceeds 5
executed 5
exemplary 5
exhaust 5
exhibitors 5
expense 5
experiment 5
experiments 5
explanations 5
explo@@ 5
exposure 5
expressly 5
exquisite 5
fa@@ 5
facto 5
failing 5
fair@@ 5
fare 5
fasc@@ 5
favourite 5
fic 5
fifth 5
finder 5
finds 5
finest 5
finger@@ 5
fis@@ 5
fix 5
flag 5
fli@@ 5
flowing 5
foods 5
forever 5
forgotten 5
fragile 5
freight 5
fri@@ 5
friendship 5
frontier 5
frontiers 5
frustr@@ 5
frustration 5
fulfilled 5
fulness 5
func@@ 5
funny 5
fusion 5
gaining 5
galax@@ 5
gases 5
gateway 5
gear 5
geared 5
gely 5
gen 5
generous 5
gentle 5
geographical 5
gg@@ 5
giant 5
glo@@ 5
glob@@ 5
golden 5
govern 5
gr@@ 5
grace 5
grants 5
greenhouse 5
gres@@ 5
gur@@ 5
habits 5
hairdryer 5
han@@ 5
happiness 5
hardly 5
hat 5
hath 5
haus 5
heated 5
hed 5
historically 5
hitherto 5
homepage 5
hop@@ 5
horizontal 5
horny 5
housed 5
household 5
humanity 5
hunger 5
hur@@ 5
ich 5
ideology 5
idity 5
iger 5
ile 5
iling 5
ille 5
illegally 5
ilt 5
ily 5
imm@@ 5
imperial 5
imprisoned 5
inappropriate 5
incapable 5
incentive 5
incredible 5
indic@@ 5
indicates 5
indication 5
indicators 5
indirect 5
inevitable 5
informing 5
ingen 5
ingers 5
inland 5
instability 5
insul@@ 5
intact 5
intelligent 5
intern@@ 5
investigated 5
investigations 5
invites 5
invoice 5
iring 5
irs 5
isation 5
ish@@ 5
ished 5
ishes 5
ita 5
itiner@@ 5
ix 5
izing 5
jo 5
journ@@ 5
ju 5
judges 5
judiciary 5
jun@@ 5
jurisdiction 5
justification 5
kin@@ 5
kit 5
kow 5
lab@@ 5
lacking 5
lad@@ 5
lakes 5
landscapes 5
laptop 5
lav@@ 5
lawyers 5
lay@@ 5
ld 5
leather 5
legisl@@ 5
lend 5
lens 5
lenses 5
lessly 5
lev@@ 5
lia 5
liberty 5
lic 5
lication 5
licensing 5
liers 5
likes 5
linen 5
literary 5
loaded 5
locally 5
locate 5
logo 5
lounge 5
lt 5
magazines 5
mailing 5
main@@ 5
male 5
managers 5
mani@@ 5
manipulation 5
mankind 5
marble 5
margin 5
marquis 5
marriage 5
marvellous 5
max 5
mayor 5
meantime 5
measurement 5
mel@@ 5
mented 5
mer 5
meter 5
miles 5
minds 5
minimal 5
mirrors 5
misleading 5
missed 5
mistake 5
mitig@@ 5
mittedly 5
mond 5
monuments 5
motorway 5
mounted 5
mounting 5
multilateral 5
mur@@ 5
musicians 5
mutually 5
naval 5
nearest 5
negligence 5
negoti@@ 5
neighbor@@ 5
neighbouring 5
ner@@ 5
ners 5
networking 5
newspaper 5
ney 5
nis 5
noble 5
non@@ 5
notable 5
notes 5
nov@@ 5
novel 5
nutri@@ 5
nutrition 5
oak 5
objec@@ 5
observer 5
occur 5
offen@@ 5
officer 5
ole 5
oling 5
oll@@ 5
ong@@ 5
oni 5
oni@@ 5
onian 5
ony@@ 5
open@@ 5
opposed 5
optimistic 5
optimized 5
ord@@ 5
ordering 5
org@@ 5
organic 5
orial 5
ories 5
origin@@ 5
orship 5
otage 5
ounce 5
outlined 5
overnight 5
overwhel@@ 5
owe 5
pair 5
pal@@ 5
pap@@ 5
paradise 5
parallel 5
parks 5
parti@@ 5
partic@@ 5
participated 5
partly 5
past@@ 5
patented 5
patterns 5
penalty 5
perc@@ 5
percep@@ 5
performances 5
permanently 5
permits 5
perpetrators 5
persi@@ 5
phenomena 5
pho@@ 5
pic@@ 5
pin 5
pipeline 5
platforms 5
plenty 5
pm 5
pocket 5
pol@@ 5
poli 5
por 5
portra@@ 5
pos@@ 5
posed 5
poses 5
positioned 5
posting 5
pp@@ 5
ppy 5
pragmatic 5
precarious 5
predecessor 5
predict 5
premises 5
preservation 5
preserved 5
pretext 5
prize 5
proceed 5
productions 5
progressive 5
promising 5
promoted 5
prompt 5
protectionist 5
protects 5
proves 5
publicly 5
pupils 5
queries 5
query 5
quest 5
quiries 5
quo 5
radi@@ 5
rain 5
random 5
ranges 5
ranking 5
rat@@ 5
ratified 5
ratings 5
rational 5
reactions 5
read@@ 5
reaffir@@ 5
realized 5
recipient 5
recognises 5
recognising 5
recourse 5
recover 5
recreational 5
recru@@ 5
recruitment 5
refin@@ 5
reflecting 5
reflection 5
refuse 5
reign 5
reinforce 5
rejecting 5
rejection 5
reli@@ 5
relief 5
remin@@ 5
remit 5
remo@@ 5
rene@@ 5
renewal 5
repairs 5
restoration 5
restructuring 5
retail 5
retention 5
reveal 5
reveals 5
revision 5
rhetoric 5
ric 5
ridi@@ 5
righ@@ 5
rigi@@ 5
rigid 5
robot 5
rooted 5
round@@ 5
rounds 5
sacred 5
sadly 5
safeguarding 5
safeguards 5
salaries 5
saves 5
scape 5
schedule 5
schi@@ 5
schol@@ 5
score 5
sea@@ 5
seaside 5
seats 5
securities 5
seeks 5
selecting 5
selling 5
sem@@ 5
semi 5
seminars 5
sens@@ 5
sentenced 5
servants 5
settled 5
settlements 5
sever@@ 5
shaped 5
shelter 5
shire 5
sign@@ 5
signature 5
simul@@ 5
sizes 5
skill 5
skilled 5
sla@@ 5
slaughter 5
slave 5
slo@@ 5
slow 5
smart 5
snow@@ 5
socialist 5
soli@@ 5
solved 5
som@@ 5
sooner 5
sor 5
sorted 5
soul 5
spac@@ 5
spare 5
speci@@ 5
specialities 5
spectac@@ 5
speeds 5
spokes@@ 5
sponsor@@ 5
springs 5
squares 5
stabili@@ 5
stabilisation 5
stant 5
stating 5
stayed 5
steadily 5
stem 5
stepped 5
stered 5
stimulate 5
stipulated 5
stitution 5
stly 5
ston 5
stret@@ 5
stretches 5
strikes 5
strings 5
stroke 5
studio 5
subjects 5
submission 5
subsidiary 5
subsidy 5
succ@@ 5
suddenly 5
suff@@ 5
suggesting 5
suicide 5
superb 5
supermarkets 5
supplied 5
surfing 5
survey 5
sustainability 5
symbolic 5
systematic 5
tab 5
tag 5
tain 5
talent 5
tasty 5
tative 5
teach 5
tech 5
technically 5
tel 5
tends 5
termin@@ 5
terminal 5
terrorists 5
testi@@ 5
theatre 5
theft 5
themes 5
thereof 5
thin 5
thro@@ 5
throw 5
tia 5
tial 5
tigh@@ 5
till 5
timber 5
timetable 5
tioned 5
tively 5
ton@@ 5
tongue 5
torate 5
tot@@ 5
tra 5
trace 5
traces 5
tract 5
traders 5
traditions 5
tragic 5
trails 5
trains 5
transformation 5
transposition 5
traveling 5
tre 5
treaties 5
triple 5
trucks 5
tt 5
tually 5
tune 5
ture 5
turn@@ 5
turns 5
twelve 5
typically 5
ua 5
ularly 5
umb@@ 5
unequi@@ 5
unexpected 5
unified 5
unlikely 5
unlimited 5
unter 5
upcoming 5
urgency 5
urop@@ 5
usable 5
ush@@ 5
utter 5
utterly 5
vac@@ 5
vaccines 5
var 5
vari@@ 5
variable 5
vent@@ 5
venture 5
venues 5
verb@@ 5
veri@@ 5
vertical 5
viable 5
vicinity 5
vig@@ 5
ville 5
vin@@ 5
violated 5
visibility 5
vit@@ 5
vitally 5
vol@@ 5
voltage 5
vors 5
vy 5
walks 5
wanting 5
warmly 5
weaker 5
weekly 5
wen@@ 5
wet 5
wheel 5
whenever 5
wherever 5
whi@@ 5
wie 5
wilderness 5
winds 5
witness 5
wns 5
woody 5
workflow 5
xenophobia 5
yield 5
yn@@ 5
zero 5
zones 5
zz@@ 5
Ö@@ 5
ás 5
ça 5
ère 5
ě 5
ž@@ 5
Ћ@@ 5
и@@ 5
о@@ 5
р@@ 5
ро@@ 5
с@@ 5
&apos;E@@ 4
..... 4
...... 4
.net 4
0.1 4
03@@ 4
06@@ 4
09@@ 4
1.4 4
1.5 4
10.@@ 4
100@@ 4
108 4
11th 4
128 4
13.@@ 4
140 4
142 4
180 4
190 4
1944 4
1945 4
1956 4
196 4
1966 4
1968 4
1970s 4
1977 4
1979 4
1984 4
1992 4
1st 4
2015 4
24th 4
25th 4
26@@ 4
29@@ 4
2D 4
3.0 4
300@@ 4
3G 4
450 4
52 4
53 4
59 4
76 4
79 4
800 4
82 4
84 4
A. 4
A380 4
ANA 4
ATA 4
Act 4
Add 4
Additionally 4
Aff@@ 4
After@@ 4
Age 4
Agreements 4
Agricultural 4
Ah@@ 4
Alan 4
Ali@@ 4
Alpes 4
Alps 4
Am 4
And@@ 4
Andreas 4
Annual 4
Antonio 4
Anyone 4
Applications 4
Around 4
Arti@@ 4
Athens 4
Aus@@ 4
Auto 4
Auto@@ 4
Award 4
Awards 4
BE@@ 4
BER@@ 4
BL@@ 4
BO@@ 4
Bak@@ 4
Barnier 4
Basilica 4
Beau@@ 4
Beautiful 4
Bec@@ 4
Bed 4
Bio@@ 4
Bir@@ 4
Bis@@ 4
Bl@@ 4
Blair 4
Blan@@ 4
Blo@@ 4
Boh@@ 4
Bot@@ 4
Bou@@ 4
Bru@@ 4
Bus@@ 4
CAN 4
CEO 4
CH 4
CI@@ 4
Cab@@ 4
Café 4
Cairo 4
Call 4
Cambridge 4
Cameron 4
Camping 4
Campo 4
Canary 4
Canon 4
Castell@@ 4
Cat@@ 4
Catho@@ 4
Cav@@ 4
Certainly 4
Chair 4
Chalet 4
Chernobyl 4
Christian@@ 4
Christopher 4
Cin@@ 4
Class 4
Classic 4
Cle@@ 4
Cli@@ 4
Comfort 4
Commercial 4
Common 4
Communication 4
Conc@@ 4
Congo 4
Consulting 4
Contrac@@ 4
Cop@@ 4
Countries 4
Course 4
Cuban 4
Cultural 4
Currently 4
Customers 4
DB 4
DB@@ 4
DIS@@ 4
DS@@ 4
Dan@@ 4
Das 4
Decision 4
Defence 4
Democratic 4
Directors 4
Domin@@ 4
Dresden 4
Dry 4
Dü@@ 4
EB@@ 4
EEC 4
ET 4
EX 4
Ear@@ 4
Early 4
Edinburgh 4
Equipment 4
Ernst 4
Es 4
Especially 4
Eurex 4
Europa 4
Eurostat 4
Everything 4
F1 4
FAQ 4
FL@@ 4
Fal@@ 4
Feli@@ 4
Fernando 4
Fif@@ 4
Fit@@ 4
Forest 4
Fortunately 4
Fourthly 4
Fra@@ 4
Ful@@ 4
Funk@@ 4
Fur@@ 4
G20 4
GB 4
GL@@ 4
GM 4
Galileo 4
Game 4
Gas 4
Gaulle 4
Generally 4
Ger@@ 4
Gol@@ 4
Good 4
Gothenburg 4
Governments 4
Gran 4
Gri@@ 4
Guinea 4
Gulf 4
Gur@@ 4
HA 4
HTML 4
Ha@@ 4
Haiti 4
Hamp@@ 4
Hei@@ 4
Helsinki 4
Herzegovina 4
Holy 4
Hospital 4
Hostel 4
IA@@ 4
IK@@ 4
IL 4
INTER@@ 4
IX@@ 4
Im@@ 4
Ima@@ 4
Image 4
Imp@@ 4
Inclu@@ 4
Individual 4
Inform@@ 4
Inst@@ 4
Intel 4
Investment 4
Islam 4
Jack 4
James 4
Jan@@ 4
Jean 4
Jerusalem 4
Ji@@ 4
Join 4
KG 4
KS 4
Kal@@ 4
Kel@@ 4
Kir@@ 4
Kol@@ 4
Kul@@ 4
Kurdish 4
LA 4
LAN@@ 4
LCD 4
LINE 4
Lam@@ 4
Langu@@ 4
Lanka 4
League 4
Left 4
Lem@@ 4
Leonardo 4
List 4
Lom@@ 4
Look 4
MP@@ 4
Main 4
Mali 4
Man 4
Mari@@ 4
Marie 4
Maritime 4
Mars 4
Mau@@ 4
Maximum 4
Meas@@ 4
Messenger 4
Milosevic 4
Mis@@ 4
Mol@@ 4
Montenegro 4
Motion 4
Move 4
Moz@@ 4
Mugabe 4
Musi@@ 4
Music 4
Muslims 4
NA 4
NEW 4
NI 4
Neg@@ 4
Nero 4
Nigeria 4
Notes 4
OSCE 4
Ober@@ 4
Oc@@ 4
Off@@ 4
Offic@@ 4
Olympus 4
Oomen 4
Operation 4
Organ@@ 4
Organization 4
Out@@ 4
PAR@@ 4
PCI 4
PD 4
PDF 4
PH@@ 4
PHARE 4
Palacio 4
Paragraph 4
Partic@@ 4
Pass 4
Past@@ 4
Pat@@ 4
Patri@@ 4
Pension 4
Perfect 4
Philip 4
Pl@@ 4
Pol@@ 4
Port 4
Porto 4
Posi@@ 4
Post 4
Pra@@ 4
Presiden@@ 4
Prix 4
Problem 4
Put 4
Quality 4
Rac@@ 4
Railway 4
Ram@@ 4
Rather 4
Realty 4
Reference 4
Refu@@ 4
Regions 4
Register 4
Regulations 4
Rhine 4
Rig@@ 4
Right 4
Road 4
Rob@@ 4
Romanian 4
Round 4
Royal 4
Ruijten 4
Ry@@ 4
SC 4
SMS 4
SW@@ 4
SY@@ 4
Sac@@ 4
Samsung 4
Sant@@ 4
Sav@@ 4
Schi@@ 4
Scho@@ 4
Science 4
Server 4
Sh@@ 4
Sha@@ 4
Sho@@ 4
Simp@@ 4
Sky 4
Smi@@ 4
Society 4
Solana 4
Soli@@ 4
Something 4
Son 4
Sony 4
Sound@@ 4
Sper@@ 4
Sport 4
Spring 4
Sri 4
St 4
Standard 4
Star@@ 4
Start 4
Starting 4
Statute 4
Steel 4
Still 4
Str@@ 4
Suites 4
Sup@@ 4
Supp@@ 4
Sus@@ 4
TER@@ 4
Tampere 4
Tar@@ 4
Techn@@ 4
Technical 4
Things 4
Tibetan 4
Tim@@ 4
Tool@@ 4
Tower 4
Trans@@ 4
Tre@@ 4
Tribunal 4
Trogir 4
Tru@@ 4
Tu@@ 4
Tunisia 4
Twitter 4
Type 4
Tyrol 4
UC@@ 4
UM@@ 4
UP@@ 4
UPS 4
Ul@@ 4
Uni@@ 4
Unit 4
Universal 4
Unlike 4
Ur@@ 4
VE 4
VI@@ 4
Valent@@ 4
Venetian 4
Version 4
Virtual 4
Voice 4
WM@@ 4
Wallström 4
War@@ 4
Water@@ 4
Watson 4
Whatever 4
Wher@@ 4
White 4
Wi@@ 4
Wilhelm 4
Win@@ 4
Work@@ 4
Working 4
Wri@@ 4
XLSTAT 4
XP 4
Yor@@ 4
Zar@@ 4
Zend 4
Zer@@ 4
Zimbabwe 4
\ 4
abandon 4
abortion 4
absorb 4
abstract 4
ac 4
accesses 4
accommodate 4
accountable 4
accounting 4
accused 4
ace 4
acknowled@@ 4
adap@@ 4
adaptation 4
aded 4
adequately 4
adi 4
adjusted 4
adores 4
adults 4
advertisements 4
advis@@ 4
advised 4
affecting 4
afterwards 4
agent 4
ai@@ 4
aids 4
aires 4
aj@@ 4
aking 4
aks 4
aler 4
alities 4
alleged 4
alls 4
alter 4
altered 4
altitude 4
alto 4
amazing 4
amen@@ 4
ament 4
amente 4
aming 4
amos 4
analyze 4
anch@@ 4
ander 4
anne@@ 4
annually 4
anton 4
any@@ 4
ao 4
apo@@ 4
appliances 4
approving 4
archaeological 4
archi@@ 4
ardo 4
ared 4
arena 4
arge 4
arisen 4
ark@@ 4
arm 4
arranged 4
arriving 4
arrogan@@ 4
aser 4
ash 4
asi@@ 4
assault 4
assessing 4
associate 4
assuring 4
aston@@ 4
ater 4
ater@@ 4
athy 4
ato@@ 4
aton 4
attitudes 4
aus@@ 4
authoritarian 4
authorized 4
autonomous 4
await 4
awards 4
axis 4
ay@@ 4
aya 4
az 4
backdrop 4
badly 4
bal 4
banner 4
bare 4
bases 4
basically 4
basin 4
bear@@ 4
beef 4
beg@@ 4
behavior 4
belonging 4
bered 4
besides 4
beverage 4
bi 4
bic 4
bigger 4
bility 4
biodiversity 4
bir@@ 4
bird 4
bizarre 4
blank 4
bli@@ 4
blin@@ 4
bloo@@ 4
bo 4
boats 4
bollah 4
bombing 4
bon 4
boo@@ 4
boutiques 4
boxes 4
branch 4
branches 4
brave 4
breaches 4
brick 4
broadcasting 4
brother 4
brown 4
buff@@ 4
bulk 4
bureau@@ 4
bureaucratic 4
cab@@ 4
café 4
cam 4
cameras 4
canal 4
cancel 4
capita 4
card@@ 4
carpet 4
cat 4
cathedral 4
cattle 4
ceful 4
cel@@ 4
centrali@@ 4
champ@@ 4
champion 4
chen 4
chs 4
chy 4
cial 4
ciano 4
claimed 4
clas@@ 4
clearer 4
clever 4
clim@@ 4
climbing 4
closure 4
coding 4
cogni@@ 4
collections 4
collectively 4
colon@@ 4
colors 4
combines 4
comforts 4
compan@@ 4
compar@@ 4
complement 4
complexity 4
complic@@ 4
complimentary 4
compress@@ 4
compressed 4
compromises 4
confront 4
confronted 4
congratulations 4
coni 4
conjunction 4
conscious 4
consolidation 4
consul@@ 4
continents 4
continu@@ 4
contribut@@ 4
convention 4
coordinator 4
copy@@ 4
corn 4
corporations 4
correctness 4
corridors 4
cos 4
cotton 4
coup 4
cr@@ 4
cratic 4
cription 4
criticisms 4
cros@@ 4
crossed 4
cruel 4
crystal 4
culmin@@ 4
currencies 4
customized 4
cycles 4
dare 4
dark 4
dated 4
dation 4
daughter 4
deci@@ 4
deciding 4
deduc@@ 4
deemed 4
def@@ 4
definitions 4
delayed 4
delegations 4
delight 4
delivers 4
democratically 4
democratisation 4
demon@@ 4
denied 4
deple@@ 4
deposit 4
depri@@ 4
deprived 4
derived 4
descri@@ 4
designated 4
det@@ 4
deter@@ 4
deterior@@ 4
dia 4
diagno@@ 4
diam@@ 4
diff@@ 4
differentiated 4
dimin@@ 4
disable 4
disagreement 4
disappointment 4
disc@@ 4
discrepan@@ 4
discriminatory 4
disputes 4
disregard 4
distant 4
distinction 4
distingu@@ 4
distorted 4
distortions 4
dition 4
dity 4
diving 4
dle 4
dom@@ 4
donor 4
dossier 4
doub@@ 4
drag 4
dramatic 4
dro@@ 4
dropped 4
duc@@ 4
duced 4
dues 4
ean 4
earnings 4
earthquake 4
easing 4
ecks 4
economics 4
ection 4
ects 4
edly 4
ee 4
eh 4
eigh@@ 4
elaborate 4
ele 4
electorate 4
electrical 4
elev@@ 4
eligible 4
elimination 4
els@@ 4
eman@@ 4
embedded 4
ements 4
emis@@ 4
emotional 4
emphasi@@ 4
emplo@@ 4
employ 4
ems 4
ena 4
encomp@@ 4
encountered 4
endar@@ 4
endless 4
enfor@@ 4
enhan@@ 4
enjoyment 4
enk@@ 4
enlarged 4
enligh@@ 4
enni@@ 4
entertaining 4
enthusiastic 4
ential 4
entirety 4
entries 4
envis@@ 4
enza 4
ept@@ 4
ere 4
ergies 4
erial 4
eric 4
esa 4
escal@@ 4
escape 4
esh 4
esi@@ 4
esser 4
esta 4
establishments 4
etc. 4
eter 4
eth@@ 4
ety 4
etz 4
europ@@ 4
evaluated 4
evil 4
exacerb@@ 4
exagger@@ 4
excessively 4
execute 4
expanding 4
expects 4
expendi@@ 4
explanatory 4
exploiting 4
explored 4
expor@@ 4
extraction 4
ez@@ 4
facade 4
facilit@@ 4
facilitates 4
factories 4
failures 4
falling 4
fam@@ 4
farmer 4
fast@@ 4
fate 4
fav@@ 4
favorite 4
fears 4
feasibility 4
feasible 4
federal 4
feelings 4
fertili@@ 4
fi 4
fic@@ 4
fici@@ 4
financially 4
finger 4
finishing 4
fireplace 4
flood 4
floods 4
foam 4
font 4
fonts 4
ford 4
foreseen 4
forestry 4
forgetting 4
formerly 4
formulated 4
fortunately 4
frag@@ 4
frames 4
frankly 4
frequency 4
fulfill 4
fulfilling 4
gap 4
gastronomic 4
gel 4
gel@@ 4
generic 4
genocide 4
german 4
gest 4
gesture 4
get@@ 4
gging 4
ghter 4
gifts 4
gio 4
gle@@ 4
glo 4
globally 4
glu@@ 4
gon 4
gon@@ 4
goodwill 4
governed 4
gradual 4
grams 4
grid 4
growers 4
grows 4
guard 4
guides 4
ham 4
handic@@ 4
hardt 4
hatred 4
heart@@ 4
heav@@ 4
heaven 4
heim 4
hes 4
hesit@@ 4
hidden 4
hip 4
holdings 4
homeland 4
homo@@ 4
honor 4
hoping 4
horn 4
hospital 4
host@@ 4
hostile 4
hosting 4
hy@@ 4
hybrid 4
iPhone 4
ial 4
ica 4
icing 4
ick 4
icon 4
ideological 4
iel 4
iento 4
ik 4
ilers 4
ill 4
illa 4
illnesses 4
illustrate 4
immer@@ 4
immunity 4
implies 4
impres@@ 4
inary 4
ination 4
inations 4
ince 4
inclusive 4
incoming 4
incorporating 4
incurred 4
indi@@ 4
indicating 4
indispensable 4
infin@@ 4
influ@@ 4
influences 4
initially 4
initiated 4
injury 4
inning 4
insecurity 4
inser@@ 4
insert 4
inserted 4
inspiring 4
installer 4
instantly 4
instruc@@ 4
instrumental 4
intel@@ 4
intensity 4
intentions 4
interference 4
intermedi@@ 4
interpre@@ 4
interpret 4
interpreted 4
interrupted 4
intervals 4
interven@@ 4
interventions 4
interview 4
intoler@@ 4
inum 4
inver@@ 4
investor 4
invo@@ 4
ionships 4
irre@@ 4
irregularities 4
irrespective 4
isch@@ 4
issu@@ 4
ital 4
itation 4
ites 4
ith 4
iti 4
ized 4
jacuzzi 4
jan 4
jeopardis@@ 4
ji 4
jk 4
joining 4
joy 4
junction 4
jury 4
ken@@ 4
ker@@ 4
kingdom 4
kitchen@@ 4
kov@@ 4
ky 4
labels 4
lage 4
laim 4
laim@@ 4
lam@@ 4
lan 4
landing 4
lasted 4
launching 4
lea@@ 4
leg@@ 4
legendary 4
legislat@@ 4
legitimacy 4
les@@ 4
lesson 4
li 4
liabilities 4
liberation 4
lical 4
licences 4
licensed 4
lics 4
lifted 4
lig@@ 4
limitations 4
lingual 4
linking 4
liqui@@ 4
lish 4
lit 4
literally 4
lity 4
ller 4
loads 4
lodging 4
logi@@ 4
logistics 4
logy 4
lon@@ 4
longest 4
loop 4
loop@@ 4
lov@@ 4
loved 4
loves 4
lows 4
luck 4
luggage 4
lum@@ 4
lying 4
mach@@ 4
macroeconomic 4
magical 4
mails 4
mainstream 4
maj@@ 4
maker 4
mal 4
manually 4
margin@@ 4
matching 4
materi@@ 4
meadows 4
meaning@@ 4
meaningful 4
mechan@@ 4
mentary 4
mentation 4
mentions 4
merchan@@ 4
mercy 4
mes@@ 4
mies 4
mighty 4
migrants 4
mining 4
mins 4
mistaken 4
mit@@ 4
mixture 4
moder@@ 4
modernisation 4
modes 4
modular 4
monopolies 4
monthly 4
mot@@ 4
mountain@@ 4
mp 4
mul@@ 4
multiannual 4
multinational 4
narro@@ 4
navigation 4
neces@@ 4
neglected 4
negotiate 4
neo 4
ness@@ 4
nette 4
neuro@@ 4
nic@@ 4
nicht 4
nightlife 4
nis@@ 4
niture 4
noisy 4
none 4
notify 4
nowadays 4
nt 4
num@@ 4
nuts 4
obe@@ 4
objection 4
obligatory 4
obs@@ 4
observ@@ 4
occupied 4
occurring 4
oes 4
offences 4
offshore 4
okes 4
oli@@ 4
ologi@@ 4
ologists 4
oman 4
omas 4
omm@@ 4
onal 4
onder@@ 4
oned 4
ont 4
onwards 4
oo@@ 4
opp@@ 4
opposing 4
optimization 4
orchestra 4
ordin@@ 4
ords 4
organizational 4
organizing 4
organs 4
orials 4
oric 4
orient@@ 4
orientation 4
ough 4
ourable 4
oured 4
outline 4
outs@@ 4
oven 4
overlook 4
overlooked 4
owing 4
pack 4
packed 4
painful 4
palm 4
panels 4
partially 4
passion 4
patron@@ 4
pects 4
pedestrian 4
pelago 4
perceived 4
perform@@ 4
persist 4
person@@ 4
perspectives 4
persuade 4
ph 4
pharmaceutical 4
phases 4
phenomenon 4
philosophical 4
photograph 4
photographs 4
picking 4
pillars 4
pilot 4
pipe 4
pir@@ 4
pit 4
plane 4
plastic 4
plateau 4
playground 4
ple 4
pleas@@ 4
pledge 4
pler 4
poin@@ 4
polis 4
poly@@ 4
poorly 4
pop@@ 4
popularity 4
positively 4
pot 4
predic@@ 4
predicted 4
preference 4
premium 4
preparatory 4
prerequisite 4
prescribed 4
preserving 4
prestige 4
prev@@ 4
prevailing 4
preventive 4
prints 4
prisoners 4
prisons 4
probability 4
procurement 4
prof@@ 4
profitability 4
profitable 4
profound 4
projek@@ 4
proofed 4
propaganda 4
protective 4
protein 4
proximity 4
pru@@ 4
psych@@ 4
publications 4
pumps 4
punishment 4
purchaser 4
pursued 4
pushed 4
py@@ 4
q@@ 4
qualitative 4
quarters 4
quer@@ 4
ques 4
quet 4
rable 4
rac@@ 4
races 4
racist 4
rack 4
rad@@ 4
radiation 4
radic@@ 4
railways 4
rano 4
ration@@ 4
rationale 4
readily 4
realisation 4
reasoning 4
reassure 4
reconcile 4
reconciliation 4
recordings 4
rede@@ 4
reduces 4
reductions 4
reforming 4
refresh@@ 4
refurbished 4
refused 4
regain 4
regre@@ 4
regrettable 4
regulators 4
rein@@ 4
reiter@@ 4
relative 4
religions 4
relocation 4
remark 4
reme@@ 4
remedy 4
remembered 4
removing 4
render 4
repe@@ 4
replacing 4
repressive 4
requiring 4
responses 4
restore 4
restra@@ 4
resu@@ 4
ret 4
ret@@ 4
reti@@ 4
retri@@ 4
returning 4
returns 4
revealed 4
revel@@ 4
reverse 4
rewarded 4
rez 4
ria 4
richer 4
rid 4
rier 4
rin@@ 4
rises 4
roles 4
roll@@ 4
roller 4
root 4
rout@@ 4
rs 4
rupt 4
ruption 4
ré@@ 4
s.@@ 4
sab@@ 4
safer 4
sang 4
sarge 4
scar@@ 4
scep@@ 4
sch@@ 4
sciences 4
screens 4
secretariat 4
secular 4
seed 4
seekers 4
sei@@ 4
separ@@ 4
sequence 4
serial 4
sert 4
settle 4
severely 4
sex@@ 4
sey 4
shar@@ 4
share@@ 4
sheet 4
shell 4
shock 4
shore 4
shut 4
sibility 4
sighted 4
signat@@ 4
silver 4
simpl@@ 4
simplifying 4
sing@@ 4
singer 4
sity 4
skiing 4
slogan 4
smoke 4
snack 4
soccer 4
socially 4
socio 4
sof@@ 4
sorts 4
souven@@ 4
spatial 4
specify 4
spic@@ 4
spo@@ 4
sports@@ 4
spots 4
spr@@ 4
spra@@ 4
spreading 4
staff@@ 4
stake 4
stakeholders 4
static 4
stays 4
steep 4
steering 4
stell@@ 4
stence 4
stit@@ 4
stock@@ 4
stops 4
storing 4
storm 4
stra 4
stran@@ 4
stream@@ 4
streams 4
strengthens 4
strictly 4
stro@@ 4
strongest 4
structured 4
stu@@ 4
stuff 4
subjec@@ 4
subordin@@ 4
subsi@@ 4
subsidiarity 4
successes 4
successive 4
sufficiently 4
suit 4
sunny 4
supervisory 4
suppose 4
surplus 4
surpluses 4
surveillance 4
survive 4
sustain 4
sustained 4
swap 4
swing 4
symbols 4
sympath@@ 4
tabling 4
tags 4
tail 4
tains 4
take@@ 4
tang@@ 4
tariffs 4
tastefully 4
tat 4
tations 4
teau 4
teles@@ 4
tening 4
tera 4
terminology 4
tern@@ 4
terraces 4
terranean 4
terrible 4
territories 4
tex@@ 4
textiles 4
thanking 4
theatres 4
thei@@ 4
thematic 4
thi@@ 4
thir@@ 4
thof 4
threatens 4
tices 4
tide 4
tieth 4
tig@@ 4
tile 4
time@@ 4
timely 4
tioning 4
tired 4
titles 4
tolerate 4
tom 4
touring 4
tracks 4
traded 4
trademark 4
traffi@@ 4
translator 4
transnational 4
transported 4
treas@@ 4
trekking 4
tremendous 4
trig@@ 4
triggered 4
trium@@ 4
trop@@ 4
troub@@ 4
truck 4
tsch@@ 4
tt@@ 4
tter 4
tub 4
tus 4
twentieth 4
ue 4
uli 4
ulty 4
unci@@ 4
undeni@@ 4
undermine 4
undermines 4
unders 4
unic@@ 4
uniform 4
uniqu@@ 4
unite 4
univers@@ 4
unknown 4
unlike 4
unnecessary 4
urged 4
uro 4
urred 4
urt 4
usage 4
utility 4
utions 4
uty 4
vaccination 4
vage 4
vali@@ 4
validity 4
vals 4
vels 4
vely 4
verse 4
veter@@ 4
viability 4
viewpoint 4
vigilant 4
vil@@ 4
vine 4
vious 4
virtu@@ 4
visi@@ 4
visory 4
visual 4
vocation 4
voices 4
vot@@ 4
wal@@ 4
warn 4
warranty 4
wat@@ 4
weakened 4
weakening 4
wedding 4
weg 4
weigh@@ 4
wel@@ 4
wer@@ 4
wery 4
wholeheartedly 4
wil@@ 4
win@@ 4
winner 4
wireless 4
wis@@ 4
withstanding 4
wondering 4
woods 4
workable 4
worries 4
worthwhile 4
writers 4
you@@ 4
young@@ 4
younger 4
yourselves 4
za@@ 4
zen 4
zen@@ 4
zio 4
zo 4
× 4
ão 4
ä 4
å@@ 4
ées 4
és 4
ë@@ 4
í 4
ð@@ 4
ñ@@ 4
ó 4
ö 4
û@@ 4
ć 4
č 4
œ@@ 4
Ђ 4
д@@ 4
е@@ 4
и 4
ст@@ 4
у@@ 4
ь 4
ь@@ 4
# 3
&apos;d 3
&apos;m 3
.- 3
.ch 3
.jpg 3
0,00 3
07@@ 3
1.2 3
10,000 3
101 3
103 3
11.@@ 3
119 3
11@@ 3
12.00 3
12.@@ 3
12th 3
14.@@ 3
149 3
15.@@ 3
15th 3
175 3
1960s 3
1961 3
1976 3
1981 3
1987 3
1988 3
1989 3
2.0 3
2.1 3
2.2 3
20th 3
220 3
23rd 3
25.@@ 3
3,@@ 3
3000 3
360 3
38@@ 3
4,@@ 3
4.2 3
44 3
5.0 3
5.1 3
50,000 3
5th 3
60@@ 3
68@@ 3
72 3
77 3
78 3
80@@ 3
83 3
87 3
89 3
94 3
9th 3
AC 3
AI 3
AIDS 3
ALL@@ 3
AN 3
ART@@ 3
ASA 3
ASE 3
AU@@ 3
AVE 3
Adam@@ 3
Advanced 3
Afri@@ 3
Against 3
Air@@ 3
Airways 3
Alicante 3
All@@ 3
Alm@@ 3
Alt@@ 3
Alzheimer 3
Amon@@ 3
Andr@@ 3
André 3
Angela 3
Angola 3
Ann@@ 3
Anna 3
Apartment 3
Arafat 3
Arch@@ 3
Archi@@ 3
Arctic 3
Ari@@ 3
Armenia 3
Ass@@ 3
Assi@@ 3
Ast@@ 3
Ath@@ 3
Atlan@@ 3
Aut@@ 3
Automatic 3
Az@@ 3
Azur 3
B.@@ 3
B5 3
BE 3
BRA@@ 3
Back 3
Bahrain 3
Balkan 3
Band@@ 3
Bangemann 3
Barack 3
Barón 3
Battle 3
Beauty 3
Beh@@ 3
Behold 3
Bell 3
Below 3
Bene@@ 3
Bet@@ 3
Bike 3
Bin@@ 3
Blizzard 3
Boli@@ 3
Books 3
Boutique 3
Brava 3
Bs 3
Bug 3
Buil@@ 3
Bul@@ 3
Burundi 3
But@@ 3
C5 3
C6 3
CA 3
CAMBRIDGE 3
CF@@ 3
CMS 3
CNC 3
COD 3
COM@@ 3
CPU 3
CS@@ 3
CV@@ 3
Cache 3
Cali@@ 3
Cambodia 3
Camp 3
Cape 3
Car 3
Cardiff 3
Caribbean 3
Castro 3
Category 3
Caucasus 3
Cent@@ 3
Cer@@ 3
Champ@@ 3
Championship 3
Chan@@ 3
Change 3
Channel 3
Chap@@ 3
Chat 3
Che@@ 3
Cher@@ 3
Child 3
Cho@@ 3
Christ 3
Christoph 3
Citizens 3
Classi@@ 3
Cleaning 3
Clinton 3
Cohesion 3
Coll@@ 3
Come 3
Comfortable 3
Commerce 3
Commun@@ 3
Computer 3
Concerning 3
Conciliation 3
Conil 3
Conservative 3
Construction 3
Consul@@ 3
Contemporary 3
Continental 3
Cookies 3
Copy 3
Corporation 3
Cost 3
Cot@@ 3
Cotonou 3
Cour@@ 3
Cox 3
Crespo 3
Cruz 3
Cs 3
Cu@@ 3
Cuba 3
Cube 3
Cul@@ 3
Culture 3
Cus@@ 3
DG 3
DI 3
DM@@ 3
Dalmati@@ 3
Dam@@ 3
Daniel 3
Dar@@ 3
Das@@ 3
Dat@@ 3
Dau@@ 3
Deb@@ 3
Declaration 3
Deep 3
Demand 3
Democrat 3
Design@@ 3
Designed 3
Dhabi 3
Diagno@@ 3
Direc@@ 3
Direct 3
Directorate 3
Disney 3
Division 3
Domain 3
Dream 3
EP 3
ERS 3
ESS 3
EST 3
EU@@ 3
Easy@@ 3
Education 3
Eisen@@ 3
Either 3
Eli@@ 3
Elizabeth 3
Em@@ 3
Emis@@ 3
Eng@@ 3
Era@@ 3
Erika 3
Establi@@ 3
Estonia 3
Eu@@ 3
Events 3
Excel 3
Excellent 3
Exclu@@ 3
Exhibition 3
Exp@@ 3
Expl@@ 3
Expo 3
Extre@@ 3
Eye 3
FA@@ 3
FF@@ 3
FIL@@ 3
FREE 3
FT@@ 3
FTP 3
Fair 3
Fam@@ 3
Famili@@ 3
Far 3
Fas@@ 3
Fat@@ 3
Fel@@ 3
Ferdin@@ 3
Ferrari 3
Ferrero 3
Film 3
Fir@@ 3
Fire 3
Fis@@ 3
Fla@@ 3
Florenz 3
Florida 3
Fly 3
Fol@@ 3
Forex 3
Form 3
Fort@@ 3
Four@@ 3
Franc@@ 3
Francis 3
Francisco 3
Frank@@ 3
Frattini 3
Freder@@ 3
Fron@@ 3
Frontera 3
Func@@ 3
G8 3
GAR@@ 3
GBP 3
GI 3
GT 3
GUE 3
Gab@@ 3
Gall@@ 3
Generation 3
Giovanni 3
Gl@@ 3
Go 3
Gold@@ 3
Granada 3
Greg@@ 3
Grill 3
Groups 3
Gul@@ 3
Gy@@ 3
H. 3
H.@@ 3
HA@@ 3
HD@@ 3
HO@@ 3
Hab@@ 3
Half 3
Halle 3
Harv@@ 3
Hat 3
Hat@@ 3
Hau@@ 3
Hen@@ 3
Heritage 3
Hier@@ 3
Hin@@ 3
Hitler 3
Hotel@@ 3
Hou@@ 3
Hul@@ 3
Hyp@@ 3
IE 3
IL@@ 3
ILL 3
ION@@ 3
IR 3
IV@@ 3
Ice 3
Iceland 3
Identi@@ 3
Independent 3
Industries 3
Industry 3
Initiative 3
Innovative 3
Installation 3
Institution 3
Instruments 3
Integrated 3
Integration 3
Intel@@ 3
Intelligence 3
Interior 3
Isol@@ 3
Itali@@ 3
Ivoire 3
Iz@@ 3
JO@@ 3
Jacques 3
Jan 3
Jav@@ 3
Jazz 3
Johann 3
Johannes 3
Journal 3
KA 3
KUKA 3
Karl 3
Kas@@ 3
Kau@@ 3
Keep 3
Key@@ 3
Kh@@ 3
Kha@@ 3
Ki@@ 3
Kin@@ 3
Kinnock 3
Kirk 3
Kit@@ 3
Kur@@ 3
LIM@@ 3
LL@@ 3
LT 3
LU@@ 3
LY 3
Lad@@ 3
Laos 3
Lau@@ 3
Laundry 3
Lav@@ 3
Learn 3
Learning 3
Leg@@ 3
Lei@@ 3
Leipzig 3
Lic@@ 3
Lieutenant 3
Ligh@@ 3
Likewise 3
Lin@@ 3
Line 3
Lloyd 3
Local 3
Log@@ 3
Logistics 3
Ls 3
Ltd 3
Lulu 3
Lum@@ 3
Lun@@ 3
Lux@@ 3
Lyon 3
Lé@@ 3
Lö@@ 3
M. 3
MAN 3
MI 3
MR@@ 3
Magazine 3
Maghreb 3
Mah@@ 3
Mail 3
Majorca 3
Mandelson 3
Manual 3
Manufac@@ 3
Marathon 3
Marbella 3
Mare 3
Margare@@ 3
Markets 3
Marshall 3
Mass@@ 3
Matthe@@ 3
May@@ 3
Medical 3
Medicine 3
Medina 3
Men 3
Men@@ 3
Mer@@ 3
Mes@@ 3
Michel 3
Micro@@ 3
Mill@@ 3
Ministry 3
Mode 3
Moder@@ 3
Monte@@ 3
Monter@@ 3
Monum@@ 3
Mos@@ 3
Mozilla 3
Mr@@ 3
Multi@@ 3
Musharraf 3
Mut@@ 3
NGL 3
NO@@ 3
NT 3
Namibia 3
Nav@@ 3
Naz@@ 3
Nazi 3
Near 3
News 3
Next 3
Nicol@@ 3
Night 3
Nokia 3
None 3
Nord@@ 3
Norm@@ 3
Norman 3
Nu@@ 3
Nuremberg 3
OC@@ 3
OK 3
OT@@ 3
OTE 3
Ok@@ 3
Ol@@ 3
Oliver 3
Om@@ 3
On@@ 3
Orchestra 3
Others 3
Ott@@ 3
Oxford 3
PA@@ 3
PO 3
POR@@ 3
PT@@ 3
Pack@@ 3
Partner 3
Pass@@ 3
Pau@@ 3
Pay 3
Payment 3
Pe@@ 3
Pei@@ 3
Personal 3
Phot@@ 3
Photos 3
Physi@@ 3
Pisa 3
Pit@@ 3
Pla@@ 3
Play 3
Player 3
Point 3
Police 3
Polo 3
Pre 3
Premier 3
Premium 3
Pres@@ 3
Price 3
Prince 3
Proce@@ 3
Produc@@ 3
Professor 3
Program@@ 3
Prote@@ 3
Psych@@ 3
Pul@@ 3
QuarkXPress 3
Quarter 3
RI 3
RT@@ 3
Race 3
Rag@@ 3
Rail 3
Rating 3
Rational 3
Re 3
Recently 3
Reding 3
Reform 3
Reg@@ 3
Regar@@ 3
Registration 3
Rel@@ 3
Remember 3
Rental 3
Residence 3
Resolution 3
Ret@@ 3
Return 3
Rica 3
Rin@@ 3
Rom@@ 3
Roman@@ 3
Romp@@ 3
Roth 3
Rotterdam 3
Rum@@ 3
Rural 3
Russians 3
SAR 3
SAT 3
SDL 3
SIS 3
SK@@ 3
SL@@ 3
SM@@ 3
SO 3
SOFTWARE 3
SP 3
SR 3
SSL 3
STE@@ 3
Sa 3
Sad@@ 3
Saharan 3
Salaf@@ 3
Sand@@ 3
Santer 3
Sat@@ 3
Schulz 3
Schw@@ 3
Schwa@@ 3
Schwar@@ 3
Sciences 3
Scottish 3
Seattle 3
Sebas@@ 3
Securities 3
Seoul 3
Several 3
Share 3
Share@@ 3
Sheraton 3
Shops 3
Shot 3
Si 3
Sici@@ 3
Sig@@ 3
Sil@@ 3
Sim@@ 3
Simply 3
Sir 3
Ski 3
Sky@@ 3
Smith 3
Sofia 3
Sou@@ 3
Spr@@ 3
Spre@@ 3
Stal@@ 3
Standards 3
Steinberg 3
Stop 3
Strip 3
Stu@@ 3
Students 3
Studies 3
Sty@@ 3
Suite 3
Summer 3
Surely 3
Sustainable 3
Swe@@ 3
Swi@@ 3
Syn@@ 3
TA 3
TA@@ 3
TB 3
TC 3
TE@@ 3
THIS 3
TM 3
TNG 3
TRA@@ 3
TY 3
Taliban 3
Tam@@ 3
Tan@@ 3
Tanz@@ 3
Team 3
Tech 3
Technologies 3
Termini 3
Terrain 3
Thai 3
Thailand 3
Thomas 3
Timor 3
Tom@@ 3
Toronto 3
Torre 3
Tours 3
Trail 3
Treas@@ 3
Tropez 3
Turn 3
Ty@@ 3
Typ@@ 3
UNESCO 3
URL 3
USD 3
UT 3
UT@@ 3
Under@@ 3
Up@@ 3
Update 3
VP 3
Val 3
Valen@@ 3
Value 3
Vati@@ 3
Veget@@ 3
Ven@@ 3
Venezuela 3
Video 3
Vigo 3
Villas 3
Viol@@ 3
Vis@@ 3
Visual 3
W. 3
WAV 3
WS 3
Wag@@ 3
Waldner 3
Want 3
Was 3
Water 3
Way 3
WiFi 3
Wiki@@ 3
William 3
Works 3
Worldwide 3
XML 3
YORK 3
Yam@@ 3
YouTube 3
Your@@ 3
Yugoslav 3
Zagreb 3
Zap@@ 3
Zurich 3
^ 3
abili@@ 3
abolition 3
abor@@ 3
abri@@ 3
absorption 3
abstained 3
absurd 3
abulary 3
academic 3
accessed 3
accom@@ 3
accompanying 3
accompli@@ 3
accomplished 3
accountability 3
aches 3
aciones 3
acious 3
acity 3
ación 3
acou@@ 3
acqu@@ 3
acre 3
activated 3
aculture 3
acute 3
adapting 3
additions 3
adequ@@ 3
adidas 3
adjustable 3
administrations 3
admissible 3
admission 3
admitted 3
adop@@ 3
advent@@ 3
adventure 3
adver@@ 3
adverse 3
adverti@@ 3
advisable 3
aeus 3
affair 3
afraid 3
aftermath 3
ag 3
age@@ 3
ager 3
agi@@ 3
ago@@ 3
ailed 3
ailing 3
ails 3
aiming 3
aired 3
aise 3
aison 3
alarm 3
alcohol 3
ald 3
aler@@ 3
alig@@ 3
alistic 3
alizing 3
alla 3
alle 3
alles 3
allevi@@ 3
alog@@ 3
alogue 3
alongside 3
alt 3
alter@@ 3
alternate 3
amaz@@ 3
ambiance 3
ament@@ 3
ames 3
ami 3
amidst 3
amper 3
amt 3
analog 3
anc@@ 3
anci@@ 3
anda 3
ander@@ 3
anders 3
anding 3
ane@@ 3
anger 3
angered 3
anian 3
anic 3
anim@@ 3
ann 3
anten@@ 3
anticipated 3
anymore 3
anyway 3
apar@@ 3
aph@@ 3
appeals 3
appearances 3
apped 3
applaud 3
applicants 3
appoin@@ 3
appreciated 3
apt 3
aqu@@ 3
architect 3
architectural 3
archives 3
arded 3
ardi 3
argued 3
arities 3
arm@@ 3
aro@@ 3
asa 3
ases 3
ashed 3
asi 3
asses 3
assessments 3
assignment 3
assimil@@ 3
assistant 3
assistants 3
assisting 3
assu@@ 3
assumed 3
aters 3
ather 3
atmospheric 3
atoes 3
attendance 3
attentive 3
ature 3
audit 3
auer 3
authorisation 3
ava 3
avant 3
avast 3
avec 3
aves 3
avian 3
aw 3
awaits 3
ax 3
bach 3
backgrounds 3
backup 3
bad@@ 3
bags 3
balances 3
balancing 3
ball 3
bandwidth 3
bankers 3
bankrupt@@ 3
banqu@@ 3
barely 3
battle@@ 3
battles 3
bau@@ 3
beam 3
beau@@ 3
beginn@@ 3
belie@@ 3
beliefs 3
bell 3
belonged 3
benefici@@ 3
benefiting 3
betra@@ 3
bian 3
bicycle 3
bil@@ 3
bili@@ 3
binary 3
birthday 3
bis@@ 3
bited 3
bits 3
blan@@ 3
bloc 3
block@@ 3
blogs 3
blow 3
bonus 3
boot@@ 3
bor@@ 3
borne 3
borro@@ 3
bottle 3
bou@@ 3
boundaries 3
boy 3
bration 3
bread 3
break@@ 3
breakdown 3
bree@@ 3
brilliant 3
broadcast@@ 3
browsers 3
bru@@ 3
brush 3
brutal 3
bub@@ 3
bugs 3
buil@@ 3
burdens 3
burn 3
bus@@ 3
business@@ 3
buyers 3
buying 3
by@@ 3
c. 3
cached 3
cafe 3
calculate 3
camps 3
cans 3
cant@@ 3
cap 3
capacities 3
captain 3
cargo 3
carri@@ 3
carriers 3
carries 3
cart 3
carte 3
cas 3
casa 3
cast 3
castles 3
casts 3
catastrophic 3
catches 3
catching 3
cated 3
categor@@ 3
cater 3
cautious 3
cave 3
cc 3
cements 3
centrally 3
cep@@ 3
cereals 3
cers 3
chal@@ 3
championship 3
chant 3
chapters 3
chas@@ 3
check@@ 3
cher 3
chrome 3
cide 3
cinem@@ 3
ciples 3
cir@@ 3
circul@@ 3
circum@@ 3
cit@@ 3
civi@@ 3
civilisation 3
ción 3
cla@@ 3
claiming 3
cle@@ 3
clu@@ 3
coa 3
coal 3
cod 3
codes 3
coins 3
colli@@ 3
colo@@ 3
colourful 3
combinations 3
combustion 3
commander 3
commemor@@ 3
commented 3
commissioned 3
commodities 3
communicated 3
communicating 3
communism 3
compatibility 3
compensate 3
competitions 3
compromising 3
conceivable 3
concentrating 3
concerted 3
conci@@ 3
condem@@ 3
condemning 3
conduc@@ 3
conf 3
confirms 3
conformity 3
confortable 3
consequ@@ 3
consequently 3
conservative 3
consist 3
constra@@ 3
construct 3
consultancy 3
consumed 3
containers 3
contaminated 3
conten@@ 3
continuation 3
conve@@ 3
conveni@@ 3
convenience 3
converted 3
convey 3
cook 3
cooling 3
cooperative 3
coordin@@ 3
coordinating 3
correc@@ 3
correspond 3
cost@@ 3
cot 3
counting 3
county 3
courageous 3
courtesy 3
cover@@ 3
crafted 3
cream 3
credited 3
credits 3
crew 3
critici@@ 3
crowd 3
cruise 3
cry 3
cultivated 3
cup 3
custom@@ 3
cyclo@@ 3
dak@@ 3
dal 3
dans 3
dating 3
dding 3
dead@@ 3
deadlines 3
dealer 3
debating 3
decentrali@@ 3
decides 3
declining 3
decoration 3
decorative 3
decreased 3
dedication 3
deeper 3
defen@@ 3
defici@@ 3
degra@@ 3
deliberate 3
della 3
demonstration 3
dense 3
density 3
dent@@ 3
dentally 3
denti@@ 3
departments 3
deployment 3
deposi@@ 3
deposits 3
depression 3
dere 3
dered 3
derivatives 3
derogation 3
derogations 3
describing 3
desert 3
design@@ 3
desktop 3
desper@@ 3
desperately 3
dest@@ 3
det 3
deta@@ 3
detect 3
deter 3
determin@@ 3
dev 3
devi@@ 3
diagnosti@@ 3
diagnostic 3
dial 3
dian 3
dic 3
dictator@@ 3
differ@@ 3
differs 3
digi@@ 3
dilemma 3
dine 3
disappeared 3
disappointing 3
disarmament 3
discounts 3
discovery 3
dish@@ 3
disman@@ 3
distinguish 3
distra@@ 3
distribute 3
distributing 3
distributor 3
divisions 3
dless 3
doch 3
doctor 3
doctors 3
docum@@ 3
dog 3
dogs 3
donated 3
dos 3
doubled 3
doubts 3
dramatically 3
drastic 3
drawings 3
draws 3
dread@@ 3
dress 3
dressing 3
drinks 3
dt 3
dual 3
ducing 3
duction 3
dul@@ 3
décor 3
e.@@ 3
e.com 3
e.g 3
e.org 3
eager 3
earth@@ 3
easiest 3
east 3
eau 3
ech 3
echo@@ 3
ecting 3
ective 3
ector 3
eden 3
eder@@ 3
edges 3
editions 3
edo 3
een 3
eff@@ 3
eg 3
eil 3
eit 3
ekeeping 3
elabor@@ 3
elect 3
electro@@ 3
electronically 3
eleven 3
eliminating 3
eling 3
elle 3
elo@@ 3
embar@@ 3
embark 3
embark@@ 3
embo@@ 3
eme@@ 3
emo@@ 3
enced 3
endeavour 3
endeavours 3
enemies 3
enemy 3
energe@@ 3
eness 3
engaging 3
enger 3
engineer 3
eni@@ 3
enjoyable 3
eno 3
enquiry 3
ensemble 3
enshr@@ 3
ensu@@ 3
enta 3
entail 3
entails 3
entary 3
ented 3
enters 3
enth@@ 3
enthusiasm 3
entin 3
entities 3
envel@@ 3
eo 3
epide@@ 3
epidemic 3
eping 3
episode 3
ept 3
erdo 3
ergy 3
essed 3
esses 3
essly 3
essors 3
estim@@ 3
estimates 3
ests 3
etary 3
ethanol 3
etric 3
etto 3
eu 3
euro@@ 3
eval 3
evalu@@ 3
even@@ 3
eventual 3
ever@@ 3
eves 3
exchanged 3
excursions 3
executives 3
exemp@@ 3
exercising 3
exhaus@@ 3
exhi@@ 3
exhibitions 3
expecting 3
experimental 3
explaining 3
exploited 3
exploring 3
explosive 3
exported 3
expresses 3
ext@@ 3
extensively 3
extract 3
fa 3
faire 3
fairer 3
fairness 3
fairs 3
famili@@ 3
far@@ 3
fashi@@ 3
fat@@ 3
favorable 3
favou@@ 3
fe 3
feeding 3
feeds 3
fei@@ 3
fertile 3
festivals 3
fet@@ 3
ffs 3
fications 3
fif@@ 3
fifteen 3
fig@@ 3
fighters 3
filling 3
filtration 3
fines 3
fishery 3
flags 3
flat@@ 3
flats 3
flooding 3
flora 3
flower 3
fluctuations 3
fluid 3
footing 3
foreigners 3
forge 3
formul@@ 3
formulate 3
foster 3
found@@ 3
four@@ 3
fr@@ 3
frameworks 3
fran@@ 3
freeze 3
frequ@@ 3
fruitful 3
fs@@ 3
ft@@ 3
ful@@ 3
fun@@ 3
fundamentalism 3
gaming 3
gangs 3
garage 3
gasse 3
gather 3
gay 3
gence 3
gencies 3
gency 3
genes 3
gering 3
gher 3
gible 3
gical 3
gla@@ 3
gnment 3
goo@@ 3
gor@@ 3
grade 3
grain 3
gram 3
graphy 3
grass 3
grass@@ 3
grew 3
grey 3
ground@@ 3
gst 3
guardian 3
guer@@ 3
gues 3
guil@@ 3
gy 3
gy@@ 3
hab@@ 3
half@@ 3
hall@@ 3
handed 3
handi@@ 3
handled 3
handy 3
hang 3
harder 3
harm@@ 3
harmon@@ 3
harv@@ 3
hau@@ 3
headed 3
hearings 3
hearts 3
heik@@ 3
hen@@ 3
herd 3
hetero@@ 3
hike 3
hir 3
hist@@ 3
hn 3
hne 3
hof 3
holy 3
honoured 3
horizon 3
horri@@ 3
hosted 3
households 3
hr 3
html 3
htt@@ 3
humane 3
humili@@ 3
hygien@@ 3
hygiene 3
hyp@@ 3
häuser 3
iPod 3
identical 3
identifying 3
ido 3
iel@@ 3
ign@@ 3
ih@@ 3
iler 3
ili 3
illed 3
illness 3
illum@@ 3
illusion 3
illustrated 3
ima@@ 3
imbalances 3
immune 3
implied 3
importing 3
impro@@ 3
impul@@ 3
inability 3
inch 3
inciner@@ 3
incomprehensible 3
indigenous 3
indul@@ 3
inee 3
inequalities 3
inequality 3
inflic@@ 3
infring@@ 3
infringements 3
inher@@ 3
inned 3
innocent 3
innov@@ 3
innovations 3
ino@@ 3
insp@@ 3
installations 3
instant 3
institute 3
institutes 3
institution@@ 3
instruction 3
insulation 3
insur@@ 3
inte@@ 3
intellec@@ 3
intensify 3
interactive 3
interfaces 3
intermediate 3
interpreters 3
inters 3
intimate 3
intuitive 3
invasion 3
investig@@ 3
ique 3
ires 3
irrelevant 3
isn 3
ist@@ 3
ition 3
itly 3
ium 3
iz 3
izz@@ 3
jam@@ 3
jects 3
jets 3
journalist 3
journeys 3
js 3
judgment 3
juice 3
keen 3
kel@@ 3
ken 3
kern@@ 3
kes 3
ket 3
kets 3
kil@@ 3
kilometers 3
kindly 3
ku 3
ku@@ 3
kur@@ 3
laboratory 3
lag 3
lash 3
lasts 3
lays 3
lean 3
lease 3
lectures 3
leges 3
ler@@ 3
lers 3
lessness 3
lian 3
liberalization 3
liberties 3
licit 3
lier 3
lieu 3
lifelong 3
lifting 3
lifts 3
lighting 3
lihood 3
likelihood 3
limitation 3
limp@@ 3
linear 3
lingu@@ 3
linguistic 3
lips 3
listing 3
liv@@ 3
live@@ 3
lle 3
lobby@@ 3
locked 3
logged 3
logs 3
long@@ 3
loose 3
los@@ 3
loses 3
lot@@ 3
lou@@ 3
loy@@ 3
lucky 3
lun@@ 3
lung 3
machining 3
mad 3
magnitude 3
mainland 3
maintains 3
malaria 3
mali@@ 3
mandatory 3
manifest@@ 3
mans 3
manu@@ 3
manufactures 3
march 3
mare 3
margins 3
mas 3
masses 3
master@@ 3
mat 3
mat@@ 3
maternity 3
matic 3
mature 3
maxim@@ 3
maybe 3
measurements 3
med@@ 3
medicinal 3
memb@@ 3
memories 3
mentioning 3
mers 3
method@@ 3
metro@@ 3
mi 3
micro 3
mile 3
mill 3
millennium 3
minbi 3
minerals 3
mines 3
mini@@ 3
minibar 3
missi@@ 3
missile 3
mitt@@ 3
mix@@ 3
mm@@ 3
mod@@ 3
modern@@ 3
modernis@@ 3
moist@@ 3
mol@@ 3
moments 3
momentum 3
mon 3
mont 3
monument 3
mood 3
moon 3
moratorium 3
mort@@ 3
mortality 3
mos@@ 3
motivation 3
motto 3
mou@@ 3
moun@@ 3
mount 3
mp3 3
mption 3
multilater@@ 3
multitude 3
mund 3
municipal 3
municipality 3
murder 3
musician 3
mut@@ 3
muy 3
mware 3
myst@@ 3
más 3
nai@@ 3
nat@@ 3
nationalist 3
natur@@ 3
navig@@ 3
neglec@@ 3
negli@@ 3
nen 3
nets 3
new@@ 3
newest 3
ni 3
nick@@ 3
nier 3
node 3
nois@@ 3
nominated 3
norms 3
nos 3
noti@@ 3
notification 3
nowhere 3
observations 3
obstacle 3
occasionally 3
occup@@ 3
od 3
odd 3
offer@@ 3
officers 3
ographic 3
oils 3
ok 3
oli 3
olo@@ 3
omed 3
oming 3
omis@@ 3
oms 3
ood 3
ool 3
ops 3
opt 3
optical 3
optimize 3
orca 3
ored 3
organisational 3
organiz@@ 3
oria 3
orts 3
ose 3
otic 3
oun@@ 3
ousness 3
outcomes 3
outlook 3
outs 3
ove 3
overla@@ 3
overwhelming 3
ovoga 3
ow@@ 3
owski 3
pa 3
packing 3
pad 3
painted 3
pan 3
panel 3
parameter 3
paramilit@@ 3
partial 3
particip@@ 3
pass@@ 3
passes 3
passport 3
path@@ 3
patri@@ 3
pause 3
pav@@ 3
peak 3
peaks 3
pear@@ 3
peculi@@ 3
penalties 3
penet@@ 3
pent@@ 3
perf@@ 3
peripheral 3
perpet@@ 3
persecution 3
persistent 3
personalized 3
persu@@ 3
pesticides 3
pet 3
petrol 3
pets 3
pharmac@@ 3
philosoph@@ 3
photography 3
physically 3
pi 3
picked 3
ping 3
pipes 3
pist@@ 3
plat@@ 3
ple@@ 3
plen@@ 3
plot 3
plugin 3
plugins 3
pneum@@ 3
po 3
pockets 3
poetry 3
pop 3
populated 3
populist 3
pornography 3
portal 3
posing 3
positioning 3
posium 3
possess 3
possesses 3
pour 3
powered 3
precau@@ 3
preci@@ 3
prefer@@ 3
prem@@ 3
premier 3
prerog@@ 3
prescri@@ 3
presidents 3
pressures 3
prevail 3
preview 3
prim@@ 3
prin@@ 3
printer 3
printers 3
priori@@ 3
privately 3
privilege 3
privileges 3
prizes 3
prob@@ 3
problematic 3
processors 3
profession 3
professionalism 3
program@@ 3
prohi@@ 3
prohibition 3
promotional 3
promotions 3
pronounced 3
prop@@ 3
proportional 3
prosec@@ 3
prosperous 3
prov@@ 3
province 3
provinces 3
proving 3
provisional 3
psycho@@ 3
publi@@ 3
publicity 3
publisher 3
publishers 3
pubs 3
punished 3
purchased 3
pursuit 3
pushing 3
qualities 3
quer 3
question@@ 3
quot@@ 3
quota 3
quoted 3
rability 3
racle 3
radically 3
rage 3
rarely 3
ras 3
rated 3
ratification 3
ratify 3
rative 3
reaches 3
readiness 3
realization 3
reasonably 3
reb@@ 3
receipt 3
receives 3
recep@@ 3
reck 3
reco@@ 3
recommends 3
recovered 3
recreation 3
recti@@ 3
recy@@ 3
reds 3
redundant 3
references 3
reflec@@ 3
reformed 3
refreshing 3
refugee 3
refurb@@ 3
reg@@ 3
regulate 3
regulating 3
reinforced 3
rel 3
relevance 3
relie@@ 3
reluct@@ 3
reluctant 3
relying 3
remark@@ 3
remarkable 3
reminder 3
reminds 3
rendered 3
renew 3
rentals 3
repeating 3
replied 3
republi@@ 3
researchers 3
resolving 3
resorts 3
resp@@ 3
respon@@ 3
responded 3
responding 3
responds 3
ressed 3
retariat 3
reunification 3
reve@@ 3
revol@@ 3
revolution 3
rey 3
rings 3
road@@ 3
rocks 3
rocky 3
rogen 3
rolled 3
ront 3
rooftop 3
ror 3
rors 3
rot@@ 3
rough 3
rous 3
routine 3
routing 3
rue 3
rum 3
rupted 3
rus 3
safely 3
sail 3
sailing 3
salon 3
samples 3
san@@ 3
sand@@ 3
sanitary 3
sar@@ 3
sav@@ 3
scarcely 3
sch 3
scores 3
screening 3
scrip@@ 3
scripts 3
scrut@@ 3
seaf@@ 3
seal 3
seas 3
secured 3
seeds 3
sein 3
selec@@ 3
sement 3
seminar 3
senses 3
sensitivity 3
sensus 3
sentence 3
sep@@ 3
separation 3
serv@@ 3
servatory 3
servi@@ 3
sessions 3
set@@ 3
setup 3
shame@@ 3
shapes 3
sharply 3
sheep 3
sher 3
shi 3
shifts 3
shing 3
shirt 3
shoes 3
short@@ 3
shortage 3
sibly 3
sic 3
side@@ 3
sidi@@ 3
silent 3
simpler 3
simplicity 3
sin@@ 3
sits 3
skiers 3
skis 3
slavery 3
sligh@@ 3
slight 3
slope 3
slot 3
slowly 3
sofa 3
sol 3
solic@@ 3
solvency 3
solving 3
somebody 3
sont 3
sos 3
sourcing 3
specialties 3
spect@@ 3
spices 3
spin 3
sponsored 3
sqm 3
squee@@ 3
sse 3
sses 3
ssi 3
stadt 3
standardisation 3
station@@ 3
steady 3
stipul@@ 3
stir@@ 3
stom@@ 3
stor@@ 3
strasse 3
strengths 3
stric@@ 3
stries 3
strip 3
striving 3
struck 3
struggling 3
strust 3
stry 3
studied 3
studios 3
stup@@ 3
sty 3
subjected 3
substantive 3
substitute 3
subway 3
successor 3
suici@@ 3
summary 3
supplement 3
surfaces 3
surgery 3
surprises 3
surveys 3
survi@@ 3
suspend 3
suspi@@ 3
suspicion 3
sv@@ 3
sweet 3
swift 3
sym@@ 3
symp@@ 3
sync 3
synthesis 3
sé 3
tac@@ 3
tackling 3
tailor 3
tain@@ 3
taining 3
tali@@ 3
tall 3
tan 3
tap 3
tar 3
targeting 3
tari@@ 3
tasi@@ 3
tastes 3
tedly 3
teen@@ 3
tely 3
temple 3
tended 3
tending 3
terly 3
terror 3
than@@ 3
theoretical 3
ther 3
there@@ 3
thick 3
thirty 3
thor@@ 3
threatening 3
thrown 3
thwest 3
tica 3
tight 3
til@@ 3
tiles 3
tili@@ 3
timing 3
tin@@ 3
tioner 3
tioners 3
tise 3
tism 3
tite 3
tives 3
tivi@@ 3
tiz@@ 3
tle 3
tles 3
tober@@ 3
toilet 3
toilets 3
token 3
tol@@ 3
tones 3
tonight 3
tons 3
toral 3
tory 3
tos 3
touched 3
tournament 3
towels 3
toxic 3
tr 3
tracking 3
traditionally 3
trail 3
tran@@ 3
tranet 3
tranquil 3
transaction 3
transferring 3
transform@@ 3
translators 3
travelers 3
traveller 3
tre@@ 3
treasures 3
treating 3
trendy 3
trigger 3
tte 3
tural 3
tut@@ 3
twin 3
tz@@ 3
té@@ 3
uble 3
uk@@ 3
unanimity 3
undergoing 3
underline 3
underlying 3
undermining 3
understand@@ 3
unfortunate 3
universe 3
unlawful 3
unspo@@ 3
unting 3
unwilling 3
uous 3
upgraded 3
uphol@@ 3
uphold 3
ups 3
ura 3
uranium 3
ure@@ 3
urer 3
urs 3
use@@ 3
ust 3
ut 3
uta 3
utilisation 3
utt@@ 3
uum 3
vague 3
valu@@ 3
valuation 3
varying 3
vation 3
vente 3
venti@@ 3
versa 3
versal 3
versus 3
vessel 3
veto 3
vibrant 3
vies 3
viewer 3
vigorous 3
virtue 3
vised 3
vising 3
visions 3
vivi@@ 3
vocal 3
voir 3
volatile 3
volcano 3
volunteers 3
vulner@@ 3
vulnerability 3
wag@@ 3
wai@@ 3
wand@@ 3
warmth 3
warp 3
was@@ 3
wasted 3
weak@@ 3
wealthy 3
wearing 3
week@@ 3
wellbeing 3
werden 3
werk 3
whis@@ 3
wich 3
wick 3
wie@@ 3
wildlife 3
winding 3
wins 3
wir 3
wit@@ 3
withdrawn 3
witnessing 3
wled@@ 3
wned 3
wonder@@ 3
woo@@ 3
wood@@ 3
workforce 3
workplace 3
wr@@ 3
wri@@ 3
xing 3
yacht 3
yellow 3
yen 3
yl@@ 3
yn 3
yours 3
ype 3
zah@@ 3
zer 3
zia 3
zin 3
zzle 3
zzo 3
§ 3
³ 3
Å@@ 3
án@@ 3
â@@ 3
ères 3
ée 3
õ@@ 3
ön@@ 3
ø@@ 3
û 3
ü@@ 3
ý 3
ń 3
Š@@ 3
В 3
в@@ 3
ер@@ 3
ж@@ 3
й 3
к@@ 3
о 3
ы 3
ﬁ@@ 3
.000 2
.The 2
.exe 2
0,@@ 2
0.00 2
02.@@ 2
020@@ 2
1,000 2
1.1 2
1.3 2
1.6 2
1000@@ 2
105 2
106 2
11. 2
11.30 2
110 2
113 2
120@@ 2
123 2
125 2
126 2
127 2
129 2
130 2
131 2
138 2
144 2
145 2
14th 2
1500 2
152 2
166 2
170 2
1924 2
1929 2
1930 2
1935 2
1946 2
1962 2
1973 2
1974 2
1985 2
1986 2
198@@ 2
2. 2
20,000 2
2014 2
2030 2
22.@@ 2
22@@ 2
23.@@ 2
230 2
26.@@ 2
27.@@ 2
3.5 2
30th 2
33@@ 2
35@@ 2
365 2
4000 2
45@@ 2
48@@ 2
5,000 2
5.000 2
500@@ 2
550 2
65@@ 2
69 2
6th 2
70@@ 2
750 2
7th 2
8,@@ 2
850 2
9001 2
90@@ 2
92 2
AB 2
ACH 2
AK@@ 2
AMP@@ 2
ANT@@ 2
AR 2
ARE 2
ARS 2
ASEAN 2
Aachen 2
Abbas 2
Abe 2
Accommodation 2
Across 2
Adam 2
Additional 2
Adri@@ 2
Adverti@@ 2
Ag@@ 2
Agr@@ 2
Agu@@ 2
Aid 2
Aids 2
Airpass 2
Aj@@ 2
Ala@@ 2
Alarm 2
Albert 2
Alexanderplatz 2
Algeria 2
Ali 2
Alle@@ 2
Alternative 2
Alternatively 2
Amazon 2
Ambassador 2
Analy@@ 2
Analysis 2
Andrew 2
Andy 2
Ang@@ 2
Ange@@ 2
Angeles 2
Ankara 2
Any@@ 2
Apartamentos 2
Apo@@ 2
Appar@@ 2
Applic@@ 2
Application 2
Appro@@ 2
Arabia 2
Arbeit@@ 2
Arc 2
Archer 2
Are@@ 2
Armen@@ 2
Army 2
Ash@@ 2
Ask 2
Assad 2
Associ@@ 2
Astrium 2
Atlas 2
Au 2
Auf 2
Australia 2
Australian 2
Autom@@ 2
Automotive 2
Autor@@ 2
Avenue 2
Aviation 2
Aznar 2
B6 2
BG 2
BIL@@ 2
BM@@ 2
Back@@ 2
Bahn 2
Ball 2
Bangladesh 2
Banking 2
Banquet 2
Barcel@@ 2
Baringdorf 2
Barri@@ 2
Basel 2
Basi@@ 2
Bath 2
Bau@@ 2
Baum@@ 2
Behr@@ 2
Behrendt 2
Bei 2
Being 2
Belar@@ 2
Belfast 2
Belgrade 2
Ben 2
Bendit 2
Berg 2
Berlusconi 2
Bern@@ 2
Bernhard 2
Bes@@ 2
Beta 2
Between 2
Bible 2
Bill 2
Bit 2
Ble@@ 2
Blokland 2
Blu@@ 2
Bluetooth 2
Boeing 2
Bologna 2
Bonino 2
Bonn 2
Boo@@ 2
Bordeaux 2
Born 2
Boulevard 2
Bourdieu 2
Bourlanges 2
Bow@@ 2
Bran@@ 2
Brand 2
Brazilian 2
Brenner 2
Bres@@ 2
Brett@@ 2
Brexit 2
Brown 2
Brun@@ 2
Buch@@ 2
Bud@@ 2
Buffet 2
Building 2
Built 2
Bulgarian 2
Burning 2
CAD 2
CE 2
CER@@ 2
CM 2
CO 2
CR@@ 2
Campan@@ 2
Cancun 2
Cancún 2
Cannes 2
Capit@@ 2
Capp@@ 2
Captain 2
Carl 2
Carl@@ 2
Carmen 2
Casino@@ 2
Casinos 2
Cast@@ 2
Catal@@ 2
Catalonia 2
Catania 2
Century 2
Certi@@ 2
Certific@@ 2
Chair@@ 2
Cham@@ 2
Champion 2
Champions 2
Chapter 2
Chef 2
Chianti 2
Chief 2
Chirac 2
Chr@@ 2
Chris 2
Chro@@ 2
Châ@@ 2
Circle 2
Cit@@ 2
Cl@@ 2
Clau@@ 2
Claude 2
Clean 2
Clear@@ 2
Clin@@ 2
Clo@@ 2
Cob@@ 2
Cohn 2
Collins 2
Colombia 2
Com 2
Combin@@ 2
Coming 2
Commander 2
Communities 2
Competition 2
Conditions 2
Connec@@ 2
Consider 2
Consumers 2
Cont@@ 2
ContiTech 2
Contin@@ 2
Contr@@ 2
Conven@@ 2
Conver@@ 2
Cook 2
Coordin@@ 2
Copyright 2
Core 2
Corn@@ 2
Costasur 2
Cou@@ 2
Councils 2
Create 2
Credi@@ 2
Crete 2
Crow@@ 2
Crown 2
Crystal 2
Cun@@ 2
Cur@@ 2
Currency 2
Cust@@ 2
Cypriot 2
D. 2
DEN@@ 2
DER@@ 2
DJ 2
DNA 2
DOS 2
DU@@ 2
Da 2
Da@@ 2
Dal@@ 2
Daphne 2
Darfur 2
Dark 2
Date 2
Davis 2
Defin@@ 2
Definition 2
Delegation 2
Delivery 2
Dell 2
Demo@@ 2
Den@@ 2
Depression 2
Der 2
Dest@@ 2
Details 2
Deutsch@@ 2
Deutschland 2
Dev@@ 2
Dezember 2
Dic@@ 2
Did 2
Diego 2
Disk 2
Distribution 2
Divi@@ 2
Docum@@ 2
Document 2
Does 2
Doha 2
Dolomites 2
Dominion 2
Donald 2
Double 2
Down 2
Downlo@@ 2
Dr 2
Drive 2
Duke 2
Dup@@ 2
Dur@@ 2
Dy@@ 2
E. 2
E.@@ 2
EBIT 2
EG@@ 2
ELDR 2
ELL@@ 2
ENCE 2
EO 2
EOS 2
ESA 2
ESF 2
EW 2
Ech@@ 2
Economics 2
Economy 2
Ecuador 2
Edi@@ 2
Edit 2
Editor 2
Educ@@ 2
Ei@@ 2
Electric 2
Electronic 2
Electronics 2
Elles 2
Email 2
Emer@@ 2
Emma 2
Emp@@ 2
En 2
Enhan@@ 2
Epide@@ 2
Equ@@ 2
Eric 2
Es@@ 2
Essen 2
Estate 2
Eth@@ 2
Ethernet 2
Eurojust 2
Europ@@ 2
Event 2
Everest 2
Exam@@ 2
Experi@@ 2
Extrem@@ 2
FAO 2
FC 2
FI 2
FROM 2
FS 2
Fab@@ 2
Facebook 2
Fair@@ 2
Fant@@ 2
Farm 2
Father 2
Fau@@ 2
Fax 2
Felix 2
Festivals 2
Fig@@ 2
Fil@@ 2
Final 2
Finan@@ 2
Fine 2
Fire@@ 2
Fitness 2
Five 2
Fl@@ 2
Flam@@ 2
Fli@@ 2
Follow 2
Fon@@ 2
Football 2
Force 2
Fore@@ 2
Form@@ 2
Formen@@ 2
Former 2
Forum 2
Free@@ 2
Freedoms 2
Frei@@ 2
Frequ@@ 2
Friends 2
Fru@@ 2
Fun@@ 2
Further 2
G. 2
G7 2
GE 2
GEN 2
GH 2
GIMP 2
GP 2
GU@@ 2
Gabri@@ 2
Gardena 2
Gare 2
Gast@@ 2
Gau@@ 2
Gaz@@ 2
Gender 2
General@@ 2
Generator 2
Genoa 2
George 2
German@@ 2
Ges@@ 2
Gest@@ 2
Ghana 2
Gir@@ 2
Girona 2
Giuli@@ 2
Glass 2
Glo@@ 2
Glob@@ 2
Gob@@ 2
González 2
Governance 2
Governor 2
Grab 2
Grant 2
Graphi@@ 2
Graz 2
Grou@@ 2
Gründen 2
Gui@@ 2
HE@@ 2
HI 2
HOT@@ 2
HS 2
Hague 2
Hai@@ 2
Hall@@ 2
Hand 2
Hand@@ 2
Hann@@ 2
Hap@@ 2
Harbour 2
Harris 2
Haus@@ 2
Hav@@ 2
Hear@@ 2
Heathrow 2
Heav@@ 2
Heb@@ 2
Heidelberg 2
Hell@@ 2
Hem@@ 2
Herb@@ 2
Hi 2
Hill 2
Hir@@ 2
Hist@@ 2
Histor@@ 2
Hoch@@ 2
Hoff@@ 2
Hoh@@ 2
Holding 2
Holi@@ 2
Hong@@ 2
How@@ 2
Hugo 2
Hum@@ 2
Hung@@ 2
Hy@@ 2
Hygiene 2
Hyper@@ 2
Hz 2
Hän@@ 2
I.@@ 2
ICA 2
ICE 2
ICT 2
IEC 2
IF 2
IG@@ 2
II@@ 2
III 2
IK 2
IMMOBILIER 2
ING@@ 2
INI 2
IO@@ 2
IRC 2
ISS 2
IVE 2
IZ@@ 2
Iber@@ 2
Ideal 2
Ign@@ 2
Il 2
Il@@ 2
Imagine 2
Inc 2
Inci@@ 2
Indi@@ 2
Individu@@ 2
Industrial 2
Ine@@ 2
Infra@@ 2
Initi@@ 2
Innov@@ 2
Inspec@@ 2
Install@@ 2
Institu@@ 2
Integr@@ 2
Inten@@ 2
Interface 2
Internationale 2
Interpre@@ 2
Intro@@ 2
Inv@@ 2
Invent@@ 2
Invest@@ 2
Iraq@@ 2
Ironing 2
Isch@@ 2
Istanbul 2
JPEG 2
Jam@@ 2
Je@@ 2
Jes@@ 2
Jesus 2
Job 2
Job@@ 2
Jobs 2
John@@ 2
Joint 2
Jon@@ 2
Jordan 2
Jose 2
Juan 2
Juli@@ 2
Julian 2
Jun@@ 2
Jungfrau 2
Junior 2
Jus@@ 2
KDE 2
KO@@ 2
Kab@@ 2
Kabul 2
Kam@@ 2
Karlsruhe 2
Kenn@@ 2
Kennedy 2
Kenya 2
Ker@@ 2
Kernel 2
Kiev 2
King@@ 2
Kis@@ 2
Kl@@ 2
Kling@@ 2
Klingon 2
Klo@@ 2
Km 2
Kom@@ 2
Komit@@ 2
Kon@@ 2
Konrad 2
Kr@@ 2
Kre@@ 2
Kremlin 2
Kro@@ 2
Kurfürstendamm 2
L.@@ 2
LAN 2
LIFE 2
LIN 2
LONDON 2
LT@@ 2
LabVIEW 2
Labor@@ 2
Laeken 2
Lage 2
Lah@@ 2
Lamfalussy 2
Lamy 2
Lan@@ 2
Lange 2
Langen 2
Lap@@ 2
Laz@@ 2
Leban@@ 2
Lec@@ 2
Lee 2
Les 2
Let@@ 2
Lev@@ 2
Liberties 2
Library 2
Liby@@ 2
Lich@@ 2
Lido 2
Liechtenstein 2
Liefer@@ 2
Lima 2
Limited 2
Ling@@ 2
Liqui@@ 2
Lis@@ 2
Lisboa 2
Lit@@ 2
Lithu@@ 2
Little 2
Live@@ 2
Living 2
Lok@@ 2
Long 2
Looking 2
Lop@@ 2
Love 2
Lucerne 2
Lud@@ 2
Lufthansa 2
Lulling 2
Luxury 2
Lyn@@ 2
M.@@ 2
MB@@ 2
MEDA 2
MIN@@ 2
ML 2
MSN 2
MT 2
Mach@@ 2
Made 2
Making 2
Malaga 2
Malaria 2
Mam@@ 2
Managing 2
Mandriva 2
Manuel 2
Maps 2
Marc 2
Marg@@ 2
Marin@@ 2
Mark 2
Marri@@ 2
Marx 2
Mass 2
Master@@ 2
Masters 2
Matt 2
Matthias 2
Mauritius 2
Max 2
Maxim@@ 2
Maybe 2
Mayor 2
Media@@ 2
Membership 2
Memory 2
Mercosur 2
Mercure 2
Metho@@ 2
Mexican 2
Mich@@ 2
Michelin 2
Mid@@ 2
Milano 2
Military 2
Minimum 2
Minsk 2
Minute 2
Mission 2
Mitte 2
Mix 2
Mo 2
Model 2
Mohammed 2
Moldo@@ 2
Monaco 2
Mongo@@ 2
Monta@@ 2
Monte 2
Monti 2
Montparnasse 2
Morgen 2
Moritz 2
Movement 2
Mozart 2
Mul@@ 2
Mulder 2
Multi 2
Mum@@ 2
Municip@@ 2
Mus@@ 2
NA@@ 2
NE 2
NGO 2
NH 2
NO 2
NX 2
Na 2
Name 2
Napole@@ 2
Nar@@ 2
Nass@@ 2
Nat@@ 2
Nation 2
Natural 2
Nature 2
Neo@@ 2
Nepal 2
Nephi 2
Net 2
Networks 2
Never 2
Newsletter 2
Nic@@ 2
Nike 2
Nikol@@ 2
Nit@@ 2
Norway 2
Nothing 2
Novotel 2
Nuevo 2
Num@@ 2
ONE 2
ORE 2
OS@@ 2
Objec@@ 2
Od@@ 2
Often 2
Oostlander 2
OpenCms 2
Optim@@ 2
Oran@@ 2
Original 2
Orthodo@@ 2
Oslo 2
Ost@@ 2
Overall 2
PADI 2
PE 2
PE@@ 2
PER 2
PER@@ 2
PG 2
POL 2
PROD@@ 2
PS@@ 2
PT 2
PXI 2
Pad 2
Pad@@ 2
Pakist@@ 2
Palais 2
Palma 2
Pan@@ 2
Panel 2
Parc 2
Parking 2
Parliamentary 2
Part 2
Particip@@ 2
Partners 2
Patent 2
Patrick 2
Peace 2
Per 2
Perugia 2
Petersburg 2
Petitions 2
Phili@@ 2
Philippines 2
Philosoph@@ 2
Photo 2
Photocopying 2
Photoshop 2
Pic@@ 2
Picture 2
Pierre 2
Pil@@ 2
Pir@@ 2
Pis@@ 2
Plan 2
Platform 2
Plath 2
Play@@ 2
Playa 2
Plug 2
Pod@@ 2
Points 2
Political 2
Poly@@ 2
Pom@@ 2
Pon@@ 2
Pope 2
Popular 2
Portage 2
Portal 2
Portra@@ 2
Posselt 2
Prac@@ 2
Prec@@ 2
Prices 2
Princ@@ 2
Princip@@ 2
Print 2
Proc@@ 2
Production 2
Progress 2
Progressive 2
Promenade 2
Promotion 2
Property 2
Provin@@ 2
Province 2
Prus@@ 2
Pé@@ 2
Qaeda 2
Quanti@@ 2
Quartet 2
Que@@ 2
Queen 2
RAM 2
REACH 2
RF@@ 2
RSS 2
Ral@@ 2
Rand 2
Rand@@ 2
Randzio 2
Range 2
Ras@@ 2
Rate 2
Real@@ 2
Reception 2
Recomm@@ 2
Red@@ 2
Refer@@ 2
Regul@@ 2
Rehn 2
Relax 2
Rem@@ 2
Renault 2
Renn@@ 2
Reserv@@ 2
Reserve 2
Resources 2
Retur@@ 2
Review 2
Rich@@ 2
Riga 2
Rio 2
Rock@@ 2
Romagna 2
Romans 2
Rompuy 2
Ros@@ 2
Route 2
Roy@@ 2
Rudol@@ 2
Run@@ 2
Runde 2
Rö@@ 2
S.A. 2
SD 2
SEC 2
SERV@@ 2
SHO@@ 2
SITE 2
SN@@ 2
SOL@@ 2
STR@@ 2
SV@@ 2
SWIFT 2
Sab@@ 2
Sak@@ 2
Sakharov 2
Sale 2
Sanc@@ 2
Sant 2
Santiago 2
Sarkozy 2
Sau@@ 2
Saudi 2
Scandin@@ 2
Schauspiel@@ 2
Schnell@@ 2
Schro@@ 2
Schröder 2
Schu@@ 2
Schutz@@ 2
Schwei@@ 2
Schä@@ 2
Secure 2
See@@ 2
Seg@@ 2
Segment 2
Sel@@ 2
Select 2
Senate 2
Sender 2
Sequ@@ 2
Serbian 2
Serbs 2
Sever@@ 2
Seville 2
Sey@@ 2
She@@ 2
Shin@@ 2
Show 2
Show@@ 2
Shows 2
Sid 2
Sieg@@ 2
SilverFast 2
Simil@@ 2
Simple 2
Simul@@ 2
Sin@@ 2
Sing@@ 2
Sit@@ 2
Sixth 2
Sla@@ 2
Sloven@@ 2
Smart 2
Snow 2
Soci@@ 2
Solutions 2
Spe@@ 2
Spirit 2
Split 2
Spock 2
Sports 2
Spy@@ 2
St.@@ 2
Stadt@@ 2
Stalin 2
Stan@@ 2
Stars 2
Status 2
Stay 2
Stefan@@ 2
Stein@@ 2
Step 2
Stephen 2
Sti@@ 2
Sto@@ 2
Stock 2
Stone 2
Stor@@ 2
Straße 2
Sub 2
Succ@@ 2
Suisse 2
Sum@@ 2
Summary 2
Super@@ 2
Sw@@ 2
Sy@@ 2
Sydney 2
Symphony 2
System@@ 2
Sánchez 2
TEC 2
TER 2
TP 2
TVs 2
Tags 2
Tal@@ 2
Tap@@ 2
Tarifa 2
Tat@@ 2
Tatatabot 2
Tax 2
Tea 2
Team@@ 2
Techni@@ 2
Tee 2
Teh@@ 2
Tel 2
Telec@@ 2
Temp@@ 2
Tenerife 2
Tennis 2
Tep@@ 2
Terra@@ 2
Tet@@ 2
Text 2
Theatre 2
Them@@ 2
Thir@@ 2
Tibet 2
Titan 2
Titley 2
Tob@@ 2
Tokyo 2
Ton@@ 2
Top@@ 2
Total 2
Tou@@ 2
Toulouse 2
Tourist 2
Toyota 2
Trading 2
Traditional 2
Tran@@ 2
Transfer 2
Translation 2
Transpar@@ 2
Travel 2
Treasury 2
Trieste 2
Troika 2
Trump 2
Trust 2
Try 2
Tube 2
Tuber@@ 2
Tuesday 2
Tun@@ 2
Tunnel 2
Tut@@ 2
Tyrolean 2
U.@@ 2
UEN 2
UNO 2
UR 2
USE 2
USS 2
UV 2
Ultimately 2
Umbri@@ 2
Universi@@ 2
Upper 2
Us 2
Users 2
Usually 2
Utili@@ 2
Uz@@ 2
V. 2
VER@@ 2
VII 2
VIP 2
VIT 2
VM@@ 2
VW 2
Va@@ 2
Valencia 2
Vali@@ 2
Van@@ 2
Var 2
Vari@@ 2
Vegas 2
Veh@@ 2
Vel@@ 2
Venezia 2
Verb@@ 2
Verband 2
Verhofstadt 2
Verona 2
Verts 2
Veter@@ 2
Victoria 2
Vietnam@@ 2
Vin@@ 2
Visi@@ 2
Vision 2
Visit 2
Vitorino 2
Vor@@ 2
Vot@@ 2
Voyager 2
WA 2
WE@@ 2
WH@@ 2
WIT@@ 2
WITH 2
WLAN 2
WN 2
WOR@@ 2
Wales 2
Walk 2
Wall@@ 2
Wallis 2
Wan@@ 2
Warsaw 2
Watch 2
Wave 2
Wed@@ 2
Wer 2
Werk 2
Whilst 2
Wie@@ 2
Wien 2
Wikicars 2
Willi@@ 2
Wind 2
Wind@@ 2
Wizard 2
Wol@@ 2
Woods 2
Wur@@ 2
XT 2
YER 2
Yahoo 2
Yan@@ 2
Yemen 2
Yo@@ 2
Yugoslavia 2
ZE 2
ZE@@ 2
ZF 2
Za@@ 2
Zak@@ 2
Zin@@ 2
Zu@@ 2
Zur 2
a. 2
aan 2
ab 2
absor@@ 2
absta@@ 2
abstain 2
abund@@ 2
aca 2
academ@@ 2
access@@ 2
acci@@ 2
accomodation 2
accompan@@ 2
accomplish 2
accord@@ 2
accredi@@ 2
accu@@ 2
accum@@ 2
accumulation 2
accurately 2
ache 2
acher 2
achiev@@ 2
acies 2
acking 2
acks 2
aco 2
acoustic 2
acquiring 2
acres 2
act@@ 2
activate 2
activation 2
acu@@ 2
adapter 2
adas 2
addic@@ 2
addington 2
additives 2
adem@@ 2
aden@@ 2
ades@@ 2
adjust 2
admi@@ 2
ado@@ 2
ados 2
advantageous 2
adventures 2
advertisement 2
ady 2
ae 2
aesthe@@ 2
affiliated 2
afflic@@ 2
afield 2
aforementioned 2
after@@ 2
agers 2
aggregate 2
aggres@@ 2
agn@@ 2
agra@@ 2
ahl 2
ahn 2
ake 2
aki 2
akt 2
alarming 2
alcoholic 2
alen 2
alert 2
alien 2
alien@@ 2
alin 2
alis 2
allas 2
alleg@@ 2
allegedly 2
allen 2
aller@@ 2
alleviate 2
allo 2
allowance 2
allowances 2
alog 2
alogs 2
alphabe@@ 2
alt@@ 2
altern@@ 2
alties 2
alty 2
aly 2
ambience 2
amend 2
amendo 2
ameri@@ 2
amins 2
amp 2
ancest@@ 2
anche 2
anded 2
andere 2
andro 2
ane 2
angel@@ 2
anism 2
anist 2
anony@@ 2
anonymous 2
ans@@ 2
answering 2
ante 2
anxiety 2
anxious 2
anybody 2
anytime 2
anza 2
apologi@@ 2
apos@@ 2
app 2
appalling 2
applic@@ 2
appoint 2
appreci@@ 2
appropri@@ 2
appropriately 2
approx 2
aran 2
arance 2
arch 2
architec@@ 2
ardi@@ 2
arding 2
ares 2
arest 2
arguing 2
arians 2
arily 2
ark 2
arks 2
arom@@ 2
aroma 2
array 2
arta 2
artificial 2
ase@@ 2
asp@@ 2
aspi@@ 2
assador 2
asse 2
assent 2
assert 2
assessed 2
assign@@ 2
assing 2
assuming 2
aster 2
astery 2
atan 2
atar 2
ateau 2
athle@@ 2
athletes 2
athon 2
atics 2
atively 2
atro@@ 2
atta@@ 2
attain 2
attempted 2
attracted 2
attri@@ 2
attributed 2
audiovisual 2
aug@@ 2
aults 2
aut 2
aut@@ 2
authentic@@ 2
authori@@ 2
authorization 2
avoidable 2
awa 2
awa@@ 2
awaiting 2
awak@@ 2
awar@@ 2
awes@@ 2
azione 2
babies 2
bacteria 2
bag@@ 2
bananas 2
bans 2
barbecue 2
baroque 2
barri@@ 2
barrier 2
bass 2
baths 2
batteries 2
battery 2
bedding 2
behavi@@ 2
behold 2
bei 2
belt 2
bem 2
beneficiaries 2
benefited 2
berger 2
berries 2
bert 2
beside 2
best@@ 2
big@@ 2
bine 2
birds 2
bla@@ 2
blend 2
blind 2
bn 2
boar@@ 2
boarding 2
boast 2
bold 2
bomb 2
bombar@@ 2
bots 2
bottles 2
boulevard 2
boundary 2
bourg 2
boutique 2
boys 2
breakfast@@ 2
breakthrough 2
breast 2
breath@@ 2
brevi@@ 2
brie@@ 2
brochure 2
brochures 2
browsing 2
bubble 2
builds 2
burning 2
bury 2
busin@@ 2
busy 2
buyer 2
cabin 2
cabinet 2
cables 2
cafes 2
calculations 2
cali@@ 2
campa@@ 2
campaign@@ 2
camping 2
cancell@@ 2
cann@@ 2
capitali@@ 2
capitalist 2
cast@@ 2
cataly@@ 2
cats 2
cau@@ 2
caught 2
celebrating 2
celebration 2
cer@@ 2
ceremony 2
certainties 2
change@@ 2
chap@@ 2
charts 2
chef 2
chers 2
chic 2
chie@@ 2
chil@@ 2
chron@@ 2
chronic 2
cht 2
cians 2
cides 2
cigarette 2
cil 2
cils 2
cine 2
ciones 2
cipl@@ 2
cited 2
cke 2
ckens 2
claim@@ 2
clar@@ 2
class@@ 2
cleaned 2
cled 2
climatic 2
clin@@ 2
cling 2
clinic 2
cloud 2
coalition 2
coat 2
cock 2
cocktail 2
cocktails 2
coexistence 2
cofinancing 2
cohe@@ 2
college 2
colony 2
colour@@ 2
comfortably 2
commer@@ 2
commerci@@ 2
communautaire 2
como 2
compelling 2
competi@@ 2
competing 2
compliant 2
complying 2
compo@@ 2
composed 2
compositions 2
comprehen@@ 2
comprise 2
computer@@ 2
computing 2
conce@@ 2
concent@@ 2
concep@@ 2
conception 2
concessions 2
conductor 2
confidential 2
confron@@ 2
confrontation 2
connecting 2
connects 2
consciousness 2
consecutive 2
consisting 2
console 2
consolidating 2
constituency 2
construc@@ 2
consume 2
consuming 2
contacted 2
contam@@ 2
contamination 2
contest 2
contexts 2
contin@@ 2
contrac@@ 2
contractors 2
contradic@@ 2
contradictions 2
controllers 2
controversy 2
conv@@ 2
converting 2
conviction 2
cooked 2
cooperating 2
corner@@ 2
corpor@@ 2
corporation 2
corrected 2
correction 2
corrupt 2
counted 2
counterparts 2
counters 2
cour@@ 2
courtyard 2
crafts 2
crats 2
creations 2
credi@@ 2
crimin@@ 2
critically 2
criticise 2
criticised 2
cross@@ 2
cryp@@ 2
ctions 2
culosis 2
cultiv@@ 2
cure 2
curi@@ 2
curious 2
curricul@@ 2
custo@@ 2
cycli@@ 2
cz 2
d.@@ 2
dable 2
dafi 2
dam 2
damaging 2
damp@@ 2
dann 2
dd@@ 2
dden 2
ddle 2
debut 2
defeated 2
defensive 2
deficiencies 2
definitive 2
deli@@ 2
deliberately 2
delicate 2
delines 2
dell 2
demark 2
democra@@ 2
democrats 2
demonstr@@ 2
demonstrating 2
demonstrations 2
denial 2
dens 2
depend@@ 2
dependency 2
depic@@ 2
deplo@@ 2
deployed 2
derly 2
descriptions 2
designers 2
destiny 2
destroying 2
detained 2
detention 2
detriment 2
devast@@ 2
dez 2
dg@@ 2
dged 2
dh@@ 2
dice 2
diction 2
did@@ 2
dient 2
dies@@ 2
diesel 2
dieser 2
dieses 2
diet 2
dikt@@ 2
dimensional 2
dinners 2
directories 2
directors 2
disability 2
disadvantage 2
dischar@@ 2
discipl@@ 2
discre@@ 2
dise@@ 2
disorders 2
disparities 2
dispat@@ 2
displac@@ 2
displaced 2
displaying 2
dissemin@@ 2
distan@@ 2
distances 2
distinct 2
distinctive 2
distortion 2
distri@@ 2
distribut@@ 2
distur@@ 2
dit 2
dium 2
diversi@@ 2
divi@@ 2
dividing 2
divor@@ 2
documented 2
dom 2
donations 2
donors 2
door@@ 2
doorstep 2
dorf 2
dou@@ 2
downloads 2
dows 2
dozens 2
dra 2
draftsman 2
dre@@ 2
dres@@ 2
drome 2
drops 2
ds@@ 2
dubious 2
durable 2
durch 2
dv@@ 2
dying 2
dynam@@ 2
dynamics 2
dys@@ 2
dé@@ 2
eable 2
eag@@ 2
earliest 2
ears 2
ec 2
ech@@ 2
echo 2
eck 2
ecker 2
eco@@ 2
ecommerce 2
economical 2
economist 2
ected 2
ede 2
eder 2
edo@@ 2
educ@@ 2
educated 2
ee@@ 2
ees 2
ef 2
efore 2
eful 2
ege 2
ege@@ 2
eggs 2
ego 2
egu@@ 2
eig@@ 2
eks 2
elderly 2
electronics 2
elegantly 2
elem@@ 2
elen 2
eli 2
eliminated 2
elin 2
elite 2
ellen@@ 2
eller 2
elles 2
elli 2
elli@@ 2
elu@@ 2
emails 2
ember@@ 2
eme 2
emer@@ 2
emergence 2
emia 2
emin@@ 2
emotions 2
emphasises 2
employs 2
enchan@@ 2
encia 2
encies 2
enco@@ 2
encryption 2
endar 2
ende@@ 2
endo@@ 2
endorsed 2
ened 2
ener 2
energ@@ 2
energi@@ 2
energies 2
enness 2
enny 2
enon 2
enriched 2
ense 2
enses 2
enshrined 2
enst@@ 2
ente 2
enter@@ 2
entes 2
entially 2
entic@@ 2
entity 2
ento 2
entran@@ 2
entrepren@@ 2
entrepreneurship 2
eph@@ 2
eps 2
eption 2
erable 2
eradicate 2
eras 2
erc@@ 2
erg@@ 2
erk@@ 2
escap@@ 2
eso 2
este 2
ester 2
ester@@ 2
esti@@ 2
esting 2
estu@@ 2
está 2
etas 2
etings 2
etri@@ 2
etz@@ 2
eur 2
eva 2
evol@@ 2
evolving 2
examining 2
excell@@ 2
excess 2
excited 2
excursion 2
exercises 2
exert 2
exhibit 2
existed 2
expan@@ 2
expanded 2
expl@@ 2
exploit 2
explosion 2
expon@@ 2
exporting 2
expressing 2
extends 2
extensions 2
exterior 2
extra@@ 2
extradition 2
ey@@ 2
fabrics 2
fabulous 2
faction 2
fait 2
fak@@ 2
fantasy 2
farm@@ 2
farmhouse 2
fas@@ 2
fascin@@ 2
fastest 2
fat 2
fatal 2
favor 2
favor@@ 2
feared 2
featured 2
federation 2
ferred 2
fes@@ 2
feu@@ 2
fiber 2
fiction 2
fier 2
fiers 2
fik@@ 2
fills 2
fing 2
fire@@ 2
fires 2
fixes 2
flav@@ 2
flavour 2
flavours 2
flour@@ 2
fluctu@@ 2
fo 2
focal 2
focus@@ 2
folders 2
folding 2
foli@@ 2
folk 2
follo@@ 2
foodstuffs 2
forbi@@ 2
forbidden 2
forcing 2
fore 2
formally 2
format@@ 2
formulation 2
fort@@ 2
forth 2
fortunate 2
forwarding 2
fossi@@ 2
fotogra@@ 2
fountain 2
fr 2
frank 2
fresh@@ 2
freshly 2
freu@@ 2
fridge 2
fried 2
friend@@ 2
friendliness 2
frigh@@ 2
fro@@ 2
frozen 2
fru@@ 2
fted 2
fting 2
fts 2
fu 2
fuels 2
fulfil@@ 2
fulfilment 2
fund@@ 2
fundamentally 2
furnis@@ 2
furnishings 2
furt 2
fut@@ 2
gab@@ 2
gal@@ 2
gambling 2
gans 2
gast@@ 2
gathered 2
gathering 2
geable 2
gene 2
gene@@ 2
generates 2
genre 2
gente 2
gently 2
genu@@ 2
geo@@ 2
geographi@@ 2
geographic 2
geom@@ 2
ges@@ 2
gest@@ 2
gestion 2
gged 2
ggle 2
gic 2
gir 2
gladly 2
glia 2
glory 2
gno@@ 2
governmental 2
governor 2
gra 2
grades 2
graduated 2
grande 2
grapes 2
grat@@ 2
grave 2
green@@ 2
grip 2
group@@ 2
gry 2
gt 2
guards 2
guess 2
guest@@ 2
guesthouse 2
gui@@ 2
guilty 2
gym 2
halt 2
happ@@ 2
harassment 2
harmonious 2
harmonization 2
harvest 2
haz@@ 2
header 2
healing 2
hegemon@@ 2
hel@@ 2
helicopters 2
herbs 2
here@@ 2
hero@@ 2
herself 2
hesi@@ 2
het 2
hierarchy 2
highway 2
hinter@@ 2
hio 2
hit@@ 2
hits 2
ho 2
hoc 2
hol 2
honest@@ 2
hoo@@ 2
hoods 2
hop 2
hormon@@ 2
horror 2
hosts 2
human@@ 2
hysi@@ 2
höheren 2
i.@@ 2
iTunes 2
ians 2
ide 2
iden 2
identi@@ 2
identification 2
ien 2
ier 2
ignor@@ 2
ignoring 2
ik@@ 2
ila 2
ilation 2
illar 2
illu@@ 2
illustrates 2
illustration 2
ils 2
ima 2
imag@@ 2
immen@@ 2
immigrant 2
imper@@ 2
imperi@@ 2
imply 2
impor@@ 2
imposition 2
impressed 2
impressions 2
inate 2
incl 2
incompatible 2
incorporates 2
incorrec@@ 2
incre@@ 2
incredibly 2
independently 2
indicator 2
ineffective 2
inely 2
iners 2
iness 2
inet 2
infected 2
infections 2
influential 2
infra@@ 2
ingham 2
ingu@@ 2
inhabited 2
inhi@@ 2
injection 2
injuries 2
injustice 2
inos 2
inquiries 2
inspec@@ 2
inspections 2
inspi@@ 2
inspiration 2
install@@ 2
instances 2
instructors 2
intake 2
integr@@ 2
integrating 2
intelligence 2
interact 2
interfere 2
intergovernmental 2
interiors 2
internally 2
interpreting 2
intolerable 2
introduc@@ 2
invention 2
investigating 2
ions 2
iri@@ 2
irrit@@ 2
isco 2
iser 2
isi@@ 2
ison 2
isons 2
issuing 2
itali@@ 2
itations 2
ius 2
izer 2
izes 2
ja@@ 2
jacket 2
jek@@ 2
jeop@@ 2
jeopardi@@ 2
jer 2
jer@@ 2
jon 2
jos 2
judgement 2
junior 2
jus@@ 2
justify 2
ka@@ 2
kam@@ 2
kan 2
kat@@ 2
keeper 2
kel 2
keyboard 2
kill@@ 2
killing 2
kin 2
kins 2
kits 2
klore 2
kni@@ 2
kol@@ 2
kon 2
kon@@ 2
kop 2
kos 2
ks@@ 2
kämp@@ 2
labelled 2
laboratories 2
lacks 2
lain 2
lane 2
langen 2
langu@@ 2
lanka 2
las@@ 2
lash@@ 2
lator 2
laun@@ 2
laundering 2
lava 2
lawyer 2
lberg 2
ldn 2
lds 2
leap 2
lear@@ 2
legacy 2
legality 2
legislators 2
lei@@ 2
lements 2
lends 2
leng@@ 2
lengthy 2
lesser 2
let@@ 2
libraries 2
lica 2
licenses 2
lid 2
lie@@ 2
lifetime 2
lige 2
ligent 2
lightweight 2
likewise 2
limiting 2
ling@@ 2
lion 2
lip@@ 2
liquidity 2
listen@@ 2
lit@@ 2
liter@@ 2
lively 2
lled 2
lli@@ 2
lobby 2
locking 2
logos 2
loh@@ 2
lood 2
loud 2
loung@@ 2
lover 2
lowering 2
loyal 2
lug@@ 2
lush 2
lv@@ 2
macro 2
magic 2
mail@@ 2
manag@@ 2
mand@@ 2
mari@@ 2
marina 2
marri@@ 2
masters 2
matched 2
matches 2
mathematical 2
maturity 2
mb@@ 2
meanwhile 2
meas@@ 2
mediation 2
medic@@ 2
medication 2
mee 2
memor@@ 2
mente 2
menus 2
mercury 2
merge 2
merged 2
merger 2
metre 2
mic 2
mic@@ 2
microwave 2
midst 2
migrant 2
milestone 2
militar@@ 2
mills 2
mina 2
mind@@ 2
minded 2
miner@@ 2
minim@@ 2
minimize 2
ministerial 2
minors 2
minus 2
missible 2
mist@@ 2
mitting 2
mmer 2
mobilisation 2
modal 2
model@@ 2
modem 2
moderni@@ 2
molec@@ 2
mom@@ 2
monumental 2
mortgage 2
mothers 2
motivated 2
motors 2
moul@@ 2
mously 2
movies 2
mud 2
multilingual 2
multinationals 2
murdered 2
muscle 2
muscles 2
mysq@@ 2
mü@@ 2
nach 2
nad 2
nam 2
nament 2
nan@@ 2
nasty 2
nau@@ 2
nbsp 2
neck 2
neighb@@ 2
nel 2
neoliberal 2
neu@@ 2
neut@@ 2
neutrali@@ 2
newer 2
news@@ 2
nia 2
nic 2
nica 2
nich@@ 2
nie@@ 2
night@@ 2
nin@@ 2
nineteenth 2
nity 2
nius 2
nom 2
norm 2
normali@@ 2
nos@@ 2
notic@@ 2
notion 2
nun@@ 2
ní 2
oblig@@ 2
observing 2
obsolete 2
obstruc@@ 2
occasional 2
occupies 2
occupy 2
ocean 2
odi@@ 2
odic 2
offline 2
og@@ 2
oked 2
olds 2
oll 2
olo 2
ologies 2
ols 2
ommis@@ 2
one@@ 2
onen 2
onial 2
onies 2
onn@@ 2
onom@@ 2
ons@@ 2
oods 2
operative 2
oph@@ 2
ophi@@ 2
opho@@ 2
ophobia 2
ople 2
opponent 2
opport@@ 2
oppression 2
opted 2
optimum 2
orable 2
orange 2
ore@@ 2
orer 2
organis@@ 2
organisms 2
orie 2
orig@@ 2
orities 2
oriz@@ 2
oro 2
orous 2
orthodo@@ 2
osity 2
ost@@ 2
ote 2
oth@@ 2
oting 2
otte 2
otyp@@ 2
ounced 2
oura 2
ourcing 2
ouri 2
ourn@@ 2
ouse 2
ouses 2
outbreak 2
outermost 2
outh 2
outlets 2
overcoming 2
overseas 2
oxi@@ 2
oxygen 2
p.@@ 2
paint 2
palace 2
pam@@ 2
panorama 2
par 2
paradig@@ 2
paradox@@ 2
param@@ 2
parish 2
parliament@@ 2
part@@ 2
particles 2
partition 2
passage 2
passive 2
pasta 2
patch 2
patience 2
patio 2
pay@@ 2
pdf 2
peac@@ 2
pec@@ 2
pedia 2
pedition 2
pel 2
peng@@ 2
pensioners 2
percus@@ 2
pered 2
peri@@ 2
pero 2
personalised 2
personality 2
pertoire 2
pes 2
pessimis@@ 2
pesti@@ 2
petition 2
petitions 2
petro@@ 2
pharmaceu@@ 2
phi@@ 2
photo@@ 2
photographers 2
php 2
phra@@ 2
pig@@ 2
pin@@ 2
pine 2
pink 2
pixels 2
placement 2
plant@@ 2
plex 2
plu@@ 2
poet 2
pol 2
polar@@ 2
politan 2
polite 2
polls 2
polo 2
pon 2
poorer 2
popul@@ 2
populi@@ 2
portals 2
porteur 2
portrait 2
pos 2
possession 2
poster 2
postpone 2
potato 2
potenti@@ 2
pots 2
pover@@ 2
precedence 2
precedent 2
precision 2
predictable 2
preferably 2
pregn@@ 2
premature 2
preme 2
premi@@ 2
presidential 2
presses 2
pression 2
presum@@ 2
priced 2
princip@@ 2
proble@@ 2
proce@@ 2
proceeds 2
processor 2
proclaimed 2
produc@@ 2
professor 2
prohibited 2
projec@@ 2
promenade 2
promin@@ 2
prominent 2
promp@@ 2
prompted 2
promptly 2
pron@@ 2
proo@@ 2
proportion@@ 2
proportionate 2
propri@@ 2
propriet@@ 2
prostitution 2
prot@@ 2
protagon@@ 2
prote@@ 2
prou@@ 2
provincial 2
provo@@ 2
proxim@@ 2
prozess 2
psy@@ 2
ptions 2
pts 2
puede 2
pulled 2
pup@@ 2
purchases 2
puri@@ 2
pus@@ 2
pä@@ 2
quali@@ 2
que@@ 2
queen 2
questionable 2
questioned 2
qui 2
quiet@@ 2
quin 2
racial 2
rad 2
raff@@ 2
rain@@ 2
rais@@ 2
rali@@ 2
rally 2
rance 2
rane 2
ranks 2
rap@@ 2
rapi@@ 2
ras@@ 2
rati@@ 2
rations 2
rau@@ 2
rav@@ 2
ravel 2
rea 2
reactors 2
real@@ 2
realised 2
realm 2
rear 2
rech@@ 2
recht 2
recipes 2
recipients 2
reciproc@@ 2
reconsider 2
recover@@ 2
recre@@ 2
recur@@ 2
redress 2
ree 2
referendums 2
refle@@ 2
refrain 2
refund 2
refuses 2
refusing 2
registering 2
regul@@ 2
rei@@ 2
reira 2
relatives 2
relies 2
rels 2
rement 2
remot@@ 2
rench 2
rendering 2
renov@@ 2
renovation 2
rent@@ 2
repercussions 2
repeti@@ 2
replac@@ 2
replies 2
represent@@ 2
representations 2
reproduced 2
requesting 2
requi@@ 2
reser@@ 2
reserv@@ 2
residen@@ 2
resident 2
resist 2
resol@@ 2
responsibly 2
restricting 2
restrictive 2
restruc@@ 2
resume 2
resur@@ 2
retaining 2
retari@@ 2
retro@@ 2
reviewing 2
rewar@@ 2
reward 2
rh@@ 2
rhythm 2
rich@@ 2
rides 2
ridiculous 2
ried 2
rif@@ 2
rique 2
risen 2
risky 2
rites 2
ritt@@ 2
riv@@ 2
rival 2
rlpool 2
robots 2
rol 2
rolls 2
rom 2
roman@@ 2
roo@@ 2
roof 2
royal 2
rup@@ 2
rustic 2
s. 2
s.com 2
sacrific@@ 2
sacrifice 2
saf@@ 2
sag@@ 2
sail@@ 2
sanc@@ 2
sar 2
sat 2
sau 2
sau@@ 2
scattered 2
scenario 2
scenic 2
sched@@ 2
schu@@ 2
scientist 2
sco@@ 2
scour@@ 2
scratch 2
scru@@ 2
sculp@@ 2
seam@@ 2
sear@@ 2
searches 2
secrecy 2
secretary 2
sectoral 2
securing 2
seg@@ 2
segment 2
segments 2
sehr 2
seit 2
seized 2
seller 2
sels 2
sender 2
sentences 2
separated 2
separates 2
serts 2
servation 2
ses@@ 2
sett@@ 2
shaping 2
she@@ 2
sheer 2
shes 2
shifted 2
shifting 2
shirts 2
shment 2
shocked 2
shoot 2
shores 2
shorter 2
shoulder 2
sident 2
sidents 2
sig@@ 2
signi@@ 2
sim@@ 2
similarly 2
simultaneously 2
sind 2
sist@@ 2
situ@@ 2
siveness 2
sives 2
six@@ 2
slaugh@@ 2
sliding 2
slots 2
sme@@ 2
smell 2
smooth 2
smuggling 2
snacks 2
snap@@ 2
solarium 2
soldiers 2
solo 2
somewhere 2
sons 2
sophistic@@ 2
sortium 2
sounding 2
span 2
spann@@ 2
spar@@ 2
spark@@ 2
speaks 2
specification 2
speculative 2
speedy 2
spel 2
sper@@ 2
spirits 2
spiritu@@ 2
spon@@ 2
spontane@@ 2
spor@@ 2
spot@@ 2
sq@@ 2
squ@@ 2
stab@@ 2
stainless 2
stairs 2
stamp 2
stamp@@ 2
stand@@ 2
stap@@ 2
starship 2
stas 2
stat 2
statistic 2
statue 2
statutory 2
stav@@ 2
staying 2
stein 2
step@@ 2
sterili@@ 2
stering 2
stically 2
sticks 2
stimul@@ 2
stimulating 2
stimulus 2
stopping 2
strations 2
streaming 2
stres@@ 2
stretch 2
stricter 2
struction 2
stuck 2
studying 2
subsidi@@ 2
subsidiaries 2
subtle 2
sucht 2
sudden 2
suffers 2
sugges@@ 2
suit@@ 2
sums 2
supermarket 2
supplements 2
supplying 2
suppor@@ 2
supportive 2
supposedly 2
sures 2
surprisingly 2
suspect 2
suspected 2
swim 2
swit@@ 2
switched 2
switching 2
symboli@@ 2
sympathy 2
synthetic 2
syst@@ 2
systemic 2
t. 2
tackled 2
tage 2
tail@@ 2
tails 2
tainer 2
tainment 2
taire 2
tal@@ 2
tale 2
tales 2
tam@@ 2
tank 2
tano 2
tariff 2
taste@@ 2
taxpayer 2
teach@@ 2
teacher 2
tec 2
techni@@ 2
technicians 2
technik 2
techno@@ 2
tee 2
teenth 2
teeth 2
teleph@@ 2
templates 2
tender 2
tenth 2
terminals 2
terminate 2
termination 2
tern 2
tes@@ 2
tex 2
tha 2
thal 2
theast 2
them@@ 2
theore@@ 2
therap@@ 2
therhood 2
thering 2
thesis 2
thful 2
thinks 2
thon 2
thous@@ 2
thr@@ 2
thre@@ 2
thresh@@ 2
thumb 2
thy 2
thy@@ 2
tian 2
tico 2
tien@@ 2
tier 2
tier@@ 2
tif 2
tiger 2
till@@ 2
tima 2
tious 2
tissue 2
titled 2
tivirus 2
tivities 2
tivo 2
tner 2
toler@@ 2
toll 2
tone 2
tool@@ 2
top@@ 2
topical 2
tories 2
torture 2
touristic 2
tournaments 2
towers 2
town@@ 2
toy 2
tradi@@ 2
trage@@ 2
trailer 2
tranquillity 2
transc@@ 2
transfer@@ 2
transforming 2
transl@@ 2
translate 2
transmit 2
transpar@@ 2
transpor@@ 2
transposed 2
trap 2
tras 2
trau@@ 2
travelled 2
travels 2
treats 2
trecht 2
trick 2
trillion 2
trivi@@ 2
tron@@ 2
ts@@ 2
tsun@@ 2
tta 2
ttably 2
tu 2
tuals 2
tuberculosis 2
tude 2
tum@@ 2
tuning 2
turally 2
turnover 2
tv 2
twi@@ 2
two@@ 2
typ@@ 2
tz 2
té 2
uan 2
ude 2
uel 2
ui 2
ula 2
ular@@ 2
ulative 2
ulsion 2
ultra@@ 2
umes 2
unbe@@ 2
unchanged 2
undergo 2
undergone 2
undermined 2
understands 2
underwater 2
underway 2
undi 2
undo 2
uner 2
ung 2
unge 2
ungs@@ 2
uni 2
unification 2
unilater@@ 2
unk 2
unk@@ 2
uno 2
unrealistic 2
unsatisfactory 2
unten@@ 2
ured 2
urity 2
uss@@ 2
ussy 2
usw 2
uten@@ 2
uter 2
utilization 2
utor 2
utz@@ 2
v. 2
va@@ 2
vable 2
valleys 2
valued 2
var@@ 2
variables 2
variant 2
variations 2
vas 2
veget@@ 2
vegetables 2
vendors 2
veness 2
ventilation 2
vey 2
vic 2
victim 2
video@@ 2
vie 2
vil 2
villas 2
viruses 2
vise 2
visu@@ 2
void 2
von@@ 2
vor 2
vous 2
voy 2
waiver 2
wake 2
wald 2
warehouse 2
waren 2
warm@@ 2
warned 2
warran@@ 2
wart 2
wash 2
wasn 2
wasser 2
watched 2
weaken 2
wed@@ 2
wehr 2
welding 2
wet@@ 2
whe@@ 2
wheat 2
wheels 2
wher@@ 2
whit@@ 2
wholes@@ 2
wholesale 2
wi 2
wid@@ 2
will@@ 2
wis 2
wisdom 2
wished 2
witnessed 2
witt 2
wolf 2
world@@ 2
worlds 2
worn 2
wp 2
wrong@@ 2
wski 2
www 2
xer 2
xi@@ 2
xim@@ 2
xion 2
xis 2
y.@@ 2
yachts 2
yang 2
yea 2
yiel@@ 2
yields 2
yl 2
yland 2
zar 2
zeitung 2
zel@@ 2
zer@@ 2
zers 2
zi 2
zn@@ 2
zon 2
zt 2
zum 2
zur 2
zweiten 2
zy 2
º 2
½ 2
Á@@ 2
Ú@@ 2
án 2
ärm 2
å 2
è 2
ès 2
én@@ 2
éndez 2
éri@@ 2
ì 2
ía 2
ías 2
ï 2
ños 2
ò@@ 2
õ 2
ör@@ 2
öst@@ 2
öt@@ 2
ún 2
ühr@@ 2
ül@@ 2
ün@@ 2
ý@@ 2
ą@@ 2
ę@@ 2
ł@@ 2
ň 2
Α@@ 2
Ε@@ 2
Ν@@ 2
Ο 2
Τ@@ 2
Г@@ 2
ар@@ 2
в 2
го@@ 2
ко@@ 2
мо@@ 2
не@@ 2
ны@@ 2
ол@@ 2
по@@ 2
про@@ 2
с 2
т@@ 2
ци@@ 2
я 2
‑ 2
− 2
,00 1
,5 1
........@@ 1
....@@ 1
000@@ 1
017@@ 1
02@@ 1
05.@@ 1
06.@@ 1
07.@@ 1
08@@ 1
09.@@ 1
1. 1
1.000 1
10,@@ 1
10.00 1
100.000 1
107 1
10th 1
112 1
114 1
116 1
117 1
12,@@ 1
1200 1
121 1
124@@ 1
137 1
147 1
15.00 1
150@@ 1
165 1
17.@@ 1
18.@@ 1
1900 1
1911 1
1914 1
1919 1
1920@@ 1
1928 1
1930@@ 1
1941 1
1942 1
1949 1
1951 1
1953 1
1954 1
1957 1
1958 1
1959 1
1960 1
1963 1
1964 1
1970 1
1971 1
1972 1
1975 1
1978 1
1982 1
1983 1
199@@ 1
2.3 1
20.@@ 1
2016 1
2050 1
21.@@ 1
232 1
235 1
24.@@ 1
240 1
2500 1
250@@ 1
255 1
256 1
26. 1
260 1
264 1
270 1
280 1
29.@@ 1
3,5 1
3.000 1
3.3 1
30.@@ 1
320 1
32@@ 1
4.1 1
4.5 1
400@@ 1
4th 1
5.00 1
6,@@ 1
6. 1
6000 1
600@@ 1
64@@ 1
650 1
74 1
75@@ 1
76@@ 1
78@@ 1
8. 1
800@@ 1
88@@ 1
8th 1
9,@@ 1
9.00 1
95@@ 1
A1 1
A320 1
A3@@ 1
A6 1
ABAP 1
ACK 1
ADA 1
ADSL 1
AE 1
AF 1
AGE 1
AH@@ 1
AI@@ 1
AKP 1
AO 1
API 1
ASP 1
ASPs 1
AST 1
ATM 1
AU 1
AV 1
AVI 1
AW@@ 1
AX 1
Aar@@ 1
Ab 1
Abbau 1
Abra@@ 1
Ach@@ 1
Acrobat 1
Active 1
Adapter 1
Adi@@ 1
Adjustment 1
Admiral 1
Adolf 1
Adria 1
Aero@@ 1
Af@@ 1
Affili@@ 1
Afgh@@ 1
Agent 1
Ai@@ 1
Aires 1
Ak@@ 1
Aktion 1
Alas@@ 1
Alban@@ 1
Alber@@ 1
Albu@@ 1
Album 1
Ale@@ 1
Alex 1
Alex@@ 1
Alexand@@ 1
Algarve 1
Alger@@ 1
Allen 1
Almost 1
Alpen 1
Alpen@@ 1
Als 1
Alter@@ 1
Always 1
Ama@@ 1
Amb@@ 1
Ambi@@ 1
Ambiente 1
Amnesty 1
Amp@@ 1
Analytics 1
Andalusia 1
Ander@@ 1
Anders 1
Andre@@ 1
Android 1
Angebote 1
Angel@@ 1
Angol@@ 1
Anim@@ 1
Animation 1
Anthony 1
Anti 1
Anti@@ 1
Antiqu@@ 1
Anton 1
Antwer@@ 1
Anwendung 1
Anzeigen 1
Apa@@ 1
Apar@@ 1
Aparthotel 1
Apf@@ 1
Apollo 1
Appartement 1
Apple 1
Aquarium 1
Arabic 1
Arbeitsplatz@@ 1
Arbeitsplätze 1
Arbeitsplätzen 1
Architec@@ 1
Architektur 1
Aren@@ 1
Argum@@ 1
Arist@@ 1
Armstrong 1
Arran@@ 1
Arrival 1
Arsenal 1
Art@@ 1
Arthur 1
Articles 1
Asi@@ 1
Assistance 1
Astronom@@ 1
Atom@@ 1
Att@@ 1
Audi@@ 1
Audit 1
Aug@@ 1
Augu@@ 1
Ausser@@ 1
Automation 1
Automobilindustrie 1
Außen@@ 1
Av@@ 1
Avail@@ 1
Avenida 1
Avi@@ 1
Ax@@ 1
Azerbaijan 1
B. 1
B4 1
BASF 1
BBC 1
BEN@@ 1
BF 1
BGB 1
BI 1
BI@@ 1
BIOS 1
BIT 1
BMBF 1
BO 1
BSD 1
BT 1
BU@@ 1
BUR@@ 1
Bab@@ 1
Babysi@@ 1
Bac@@ 1
Bach 1
Backup 1
Bad@@ 1
Baden 1
Bai@@ 1
Balance 1
Bali 1
Ball@@ 1
Ban 1
Barbara 1
Barcode 1
Baroque 1
Barrot 1
Bashir 1
Basic 1
Basque 1
Bath@@ 1
Bavaria 1
Bayer 1
Beachtung 1
Bed@@ 1
Beijing 1
Bek@@ 1
Benal@@ 1
Benjamin 1
Benutz@@ 1
Berg@@ 1
Bergh@@ 1
Berlin@@ 1
Berliner 1
Bern 1
Bernd 1
Beste 1
Betriebssystem 1
Betrifft 1
Better 1
Bhut@@ 1
Bibione 1
Bic@@ 1
Big 1
Bild 1
Bilder@@ 1
Bildung 1
Biom@@ 1
Black@@ 1
Blackjack 1
Block 1
Blog 1
Blogs 1
Blu 1
Boden 1
Body 1
Booking 1
Bord@@ 1
Bosch 1
Brand@@ 1
Brandenburg 1
Brazi@@ 1
Break@@ 1
Brem@@ 1
Brenn@@ 1
Brien 1
Bristol 1
Brit@@ 1
Broad@@ 1
Broek 1
Broo@@ 1
Brothers 1
Bruno 1
Brus@@ 1
Bucher 1
Buddha 1
Buenos 1
Bull 1
Burg 1
Burg@@ 1
Burmese 1
Busin@@ 1
Buy 1
By@@ 1
Bé@@ 1
Bö@@ 1
Böden 1
Böge 1
Böh@@ 1
Bösch 1
Bür@@ 1
Bürger@@ 1
C.@@ 1
CAM 1
CAN@@ 1
CAS@@ 1
CC@@ 1
CDs 1
CF 1
CFP 1
CHE 1
CHEN 1
CIA 1
CIT@@ 1
CNS 1
COMP@@ 1
CON 1
CP@@ 1
CRE@@ 1
CRM 1
Cadiz 1
Caes@@ 1
Cambo@@ 1
Canadi@@ 1
Canadian 1
Cant@@ 1
Carbon 1
Card@@ 1
Cardassian 1
Care 1
Carlo 1
Carlos 1
Carol@@ 1
Cash@@ 1
Cashman 1
Castel@@ 1
Catalunya 1
Catherine 1
Ce@@ 1
Cel@@ 1
Centro 1
Certain 1
Ces@@ 1
Chad 1
Chal@@ 1
Challenge 1
Champs 1
Chance 1
Check@@ 1
Chel@@ 1
Chem@@ 1
Chic@@ 1
Chil@@ 1
Chin@@ 1
Choose 1
Chor@@ 1
Chr. 1
Christi@@ 1
Chrome 1
Churchill 1
Chávez 1
Cla@@ 1
Clar@@ 1
Clark 1
Client 1
Clients 1
Clim@@ 1
Clubs 1
Cluster 1
Co. 1
Coelho 1
Coffee 1
Coh@@ 1
Collec@@ 1
Cologne 1
Color 1
Colum@@ 1
Command 1
Como 1
Compact@@ 1
Compan@@ 1
Companies 1
Complete 1
Compliance 1
Compu@@ 1
Computers 1
Concor@@ 1
Conduc@@ 1
Confederal 1
Consi@@ 1
Container 1
Conti@@ 1
Continu@@ 1
Controller 1
Conveni@@ 1
Copy@@ 1
Corbett 1
Cort@@ 1
Country 1
County 1
Cover 1
Cr@@ 1
Cres@@ 1
Crist@@ 1
Croatian 1
Cru@@ 1
Crus@@ 1
Cum@@ 1
Current 1
Custom@@ 1
Cyber@@ 1
Cz@@ 1
DAX 1
DD 1
DE@@ 1
DEL@@ 1
DER 1
DES 1
DL@@ 1
DNS 1
DSLR 1
DVB 1
DVDs 1
Dach@@ 1
Daily 1
Daimler 1
Dalai 1
Dam 1
Dame 1
Damp@@ 1
Dan 1
Danu@@ 1
Database 1
Dav@@ 1
Davi@@ 1
Davos 1
Dax 1
Day@@ 1
Days 1
Deal 1
Dear 1
Death 1
Def@@ 1
Defense 1
Deg@@ 1
Deleg@@ 1
Delors 1
Deluxe 1
Demo 1
Democracy 1
Depending 1
Deriv@@ 1
Des 1
Designer 1
Detail 1
Deutschen 1
Deutscher 1
Develop@@ 1
Developer 1
Di 1
Dialog 1
Diana 1
Dies 1
Dig@@ 1
Dimen@@ 1
Dinner 1
Diplom@@ 1
Dir@@ 1
District 1
DivX 1
Dob@@ 1
Doc 1
Doctor 1
Dolom@@ 1
Dolomiten 1
Dom 1
Donn@@ 1
Dort@@ 1
Dou@@ 1
Down@@ 1
Download@@ 1
Dre@@ 1
Dro@@ 1
Dub@@ 1
Dubai 1
Dubrovnik 1
Duis@@ 1
Duisenberg 1
Dum@@ 1
Dun@@ 1
Duomo 1
Durch 1
Dynamic 1
Dé@@ 1
Dür@@ 1
ECR 1
ECT 1
EDF 1
EEE 1
EMA 1
EPP 1
ETA 1
EURO 1
EURO@@ 1
Easter 1
Ebene 1
Eck@@ 1
Eco@@ 1
Eden 1
Egyp@@ 1
Eh@@ 1
Eich@@ 1
Eiffel 1
Eig@@ 1
Eine 1
Einführung 1
Einhaltung 1
Elba 1
Elec@@ 1
Elegan@@ 1
Embedded 1
Embry@@ 1
Emilia 1
Emplo@@ 1
End@@ 1
Energi@@ 1
Engel 1
Engineer 1
Engineering 1
Ent@@ 1
Enter 1
Entwurf 1
Environmental 1
Equal 1
Equality 1
Equity 1
Erasmus 1
Erb@@ 1
Erforschung 1
Ergebnisse 1
Eritrea 1
Erleb@@ 1
Erlebnis@@ 1
Esc@@ 1
Esp@@ 1
Essen@@ 1
Et@@ 1
Ether@@ 1
Ethiop@@ 1
Etwas 1
Eur@@ 1
Eurocopter 1
Europa@@ 1
Europe@@ 1
Europäische 1
Euros 1
Evange@@ 1
Event@@ 1
Every@@ 1
Ex 1
Exc@@ 1
Excel@@ 1
Exec@@ 1
Exist@@ 1
Extra@@ 1
Eye@@ 1
F. 1
F.@@ 1
FE 1
FI@@ 1
FIN@@ 1
FM 1
FO@@ 1
FOR@@ 1
FORM@@ 1
FS@@ 1
FTA 1
FY@@ 1
Fabri@@ 1
Fach@@ 1
Facili@@ 1
Fan 1
Fans 1
Fashion 1
Fass@@ 1
Fast 1
Favor@@ 1
Feature 1
Feder@@ 1
Feel 1
Feh@@ 1
Feiern 1
Fem@@ 1
Ferr@@ 1
Fest@@ 1
Feste 1
Fifth 1
Figu@@ 1
Files 1
Finc@@ 1
Fischer 1
Fisher@@ 1
Fixed 1
Flash 1
Flexi@@ 1
Flora 1
Flug@@ 1
Flughaf@@ 1
Focus 1
Folgen 1
Foot@@ 1
Footprint 1
Ford 1
Format 1
Format@@ 1
Formula 1
Forums 1
Foto@@ 1
Foucault 1
Found@@ 1
Founded 1
Fox 1
Fr 1
Frage@@ 1
Franco 1
Frank 1
Franç@@ 1
François 1
Freiburg 1
Fres@@ 1
Friedrich 1
Frontex 1
Frü@@ 1
Frühstücksbuffet 1
Fuerte 1
Fuerteventura 1
Fujifilm 1
Functional 1
Fund@@ 1
Fusion 1
Fuss@@ 1
Fut@@ 1
GA 1
GATT 1
GE@@ 1
GF@@ 1
GM@@ 1
GMO 1
GMOs 1
GNOME 1
GO 1
GO@@ 1
GOL@@ 1
GP@@ 1
GPL 1
GR@@ 1
GRO@@ 1
GS 1
GTZ 1
GUI 1
GV 1
Gad@@ 1
Galaxy 1
Gam@@ 1
Game@@ 1
Gaming 1
Gand@@ 1
García 1
Gardens 1
Geburt@@ 1
Gel@@ 1
Gem@@ 1
Gen 1
Gene 1
Gene@@ 1
Gener@@ 1
Geno@@ 1
Gent@@ 1
Geo@@ 1
Geor@@ 1
Georg 1
Georgi@@ 1
Georgian 1
Germain 1
Gh@@ 1
Gian@@ 1
Gig@@ 1
Gil@@ 1
Gis@@ 1
Glacier 1
Glasgow 1
Globalisation 1
Goethe 1
Goo@@ 1
Gordon 1
Gourmet 1
Govern@@ 1
Grad 1
Graefe 1
Grafi@@ 1
Gran@@ 1
Grand@@ 1
Grande 1
Grap@@ 1
Grau@@ 1
Gross@@ 1
Gru@@ 1
Grund@@ 1
Gruppen 1
Grön@@ 1
Gs 1
Guantánamo 1
Guatem@@ 1
Guatemala 1
Guil@@ 1
Gun@@ 1
Gusta@@ 1
Gött@@ 1
Gün@@ 1
Güter@@ 1
HC 1
HCR 1
HF 1
HL@@ 1
HO 1
HOTEL 1
HP 1
HR@@ 1
HT 1
Haar@@ 1
Hack@@ 1
Had 1
Hal@@ 1
Hard 1
Hardware 1
Hart@@ 1
Harvard 1
Has 1
Has@@ 1
Hauptstadt 1
Haus 1
Hautala 1
Haw@@ 1
Hawai@@ 1
Hay@@ 1
Haz@@ 1
Head@@ 1
Heal@@ 1
Heart 1
Hein@@ 1
Heinz 1
Helmut 1
Help 1
Henri 1
Henry 1
Her 1
Herbert 1
Herbst 1
Herman 1
Herzen 1
Het 1
Hier 1
Highlight 1
Hil@@ 1
Hilton 1
Himm@@ 1
His@@ 1
Hob@@ 1
Hochschule 1
Holland 1
Hollywood 1
Holocaust 1
Homepage 1
Homo@@ 1
Hop@@ 1
Horn 1
Hostal 1
Hostels 1
Hot 1
Hub@@ 1
Hur@@ 1
Hurri@@ 1
Hus@@ 1
Hyatt 1
Hyde 1
Hôtel 1
Hö@@ 1
I. 1
IB 1
ICC 1
ICES 1
ICEcat 1
ICH@@ 1
IFI 1
IFT 1
IMO 1
INC@@ 1
IND 1
INT 1
IP@@ 1
IRA 1
ISA 1
ISDN 1
ISE 1
ITE 1
ITS 1
ITY 1
IX 1
Ibi@@ 1
Ibiza 1
Icel@@ 1
Ideally 1
Ig@@ 1
Ihren 1
Im 1
Images 1
Imaging 1
Imm@@ 1
Immigration 1
Immobili@@ 1
Imperial 1
Imple@@ 1
Implementation 1
Import 1
Important 1
Impro@@ 1
Included 1
Inde@@ 1
Indonesian 1
Inf@@ 1
Infin@@ 1
Info 1
Inn@@ 1
Innsbruck 1
Ins 1
Insi@@ 1
Inspi@@ 1
Installer 1
Institut 1
Instrumente 1
Insurance 1
Inte@@ 1
Integri@@ 1
Inter 1
Internation@@ 1
Interoper@@ 1
Ir@@ 1
Iron 1
Iron@@ 1
Isa@@ 1
Isolation 1
Israelis 1
Istri@@ 1
Ital@@ 1
Italia 1
Ivan 1
J. 1
JP@@ 1
Jac@@ 1
Jack@@ 1
Jacob 1
Jacuzzi 1
Jag@@ 1
Jagd@@ 1
Jahr@@ 1
Jak@@ 1
Jakob 1
Jamendo 1
Japan@@ 1
Jar@@ 1
Jarzembowski 1
Jas@@ 1
Jer@@ 1
Jersey 1
Jesolo 1
Joe 1
Johnson 1
Jonathan 1
Jones 1
Jor@@ 1
Jorge 1
Josef 1
José 1
Julius 1
Jum@@ 1
Juni 1
Jur@@ 1
Jörg 1
Jürgen 1
K. 1
KE 1
KE@@ 1
KOM 1
KW 1
Kaffee 1
Kaiser 1
Kali@@ 1
Kaliningrad 1
Kalk@@ 1
Kapazitäten 1
Karas 1
Kari@@ 1
Karten@@ 1
Kast@@ 1
Kat@@ 1
Kaz@@ 1
Kazakhstan 1
Kei@@ 1
Keine 1
Keller 1
Kelly 1
Kem@@ 1
Kensington 1
Kern@@ 1
Kevin 1
Kids 1
Kilom@@ 1
Kinder 1
Kinder@@ 1
Kirch@@ 1
Kirchen@@ 1
Kitz@@ 1
Kla@@ 1
Klage 1
Klaus 1
Klein@@ 1
Kletter@@ 1
Klin@@ 1
Klu@@ 1
Kno@@ 1
Know 1
Knowledge 1
Kob@@ 1
Koh 1
Koh@@ 1
Kok@@ 1
Komm@@ 1
Kondi@@ 1
Konkur@@ 1
Konzern 1
Kop@@ 1
Kor@@ 1
Kost@@ 1
Kosten@@ 1
Kreis@@ 1
Krem@@ 1
Kreta 1
Kris@@ 1
Kron@@ 1
Kru@@ 1
Kulturen 1
Kun@@ 1
Kunden 1
Kunst@@ 1
Kunsth@@ 1
Kurz@@ 1
Köl@@ 1
König@@ 1
Kü@@ 1
Küche 1
Künstler@@ 1
L. 1
LDAP 1
LEX 1
LG 1
LI@@ 1
LIN@@ 1
Lab 1
Lab@@ 1
Lack@@ 1
Lady 1
Lama 1
Lamanites 1
Landes@@ 1
Lannoye 1
Last@@ 1
LateRooms 1
LateRooms.com 1
Law@@ 1
Layer 1
Layout 1
Leb@@ 1
Leben 1
Lehne 1
Leica 1
Leinen 1
Leisure 1
Leiter 1
Leon 1
Leon@@ 1
Leone 1
Lern@@ 1
Li 1
Lie@@ 1
Liga 1
Lind@@ 1
Link 1
Links 1
List@@ 1
Listen 1
Listings 1
Lite 1
Liter@@ 1
Literatur@@ 1
Liver@@ 1
Liverpool 1
Ljubljana 1
Lo 1
Lobby 1
Lodge 1
Log 1
Logo 1
Long@@ 1
Lor@@ 1
Lou@@ 1
Low 1
Lower 1
Lt@@ 1
Ltd. 1
Luc 1
Lucas 1
Ludwig 1
Luft@@ 1
Luftfahrt 1
Lup@@ 1
Luxemburg 1
Länder 1
Lü@@ 1
MAC 1
MAR@@ 1
MAS 1
MAS@@ 1
MC 1
MI@@ 1
MIT 1
MS@@ 1
Macintosh 1
Mad@@ 1
Madeira 1
Madonna 1
Maestro 1
Magic 1
Mahl@@ 1
Mail@@ 1
Mails 1
Main@@ 1
Maison 1
Maj@@ 1
Major 1
Maker 1
Mal 1
Mall@@ 1
Malmström 1
Manche 1
Mani@@ 1
Manipulation 1
Mann 1
Mannheim 1
Manu@@ 1
Mario 1
Mark@@ 1
Markt 1
Markt@@ 1
Marsei@@ 1
Mary 1
María 1
Massage 1
Material 1
Materials 1
Math@@ 1
Maya 1
McCar@@ 1
McCreevy 1
McKenna 1
Me 1
Mechan@@ 1
Meg@@ 1
Mei@@ 1
Meli@@ 1
Meran 1
Mercedes 1
Merk@@ 1
Metal 1
Metall@@ 1
Metro 1
Metro@@ 1
Metropole 1
Michel@@ 1
Micro 1
Migration 1
Miguel 1
Mik@@ 1
Mike 1
Mikro@@ 1
Mil@@ 1
Miles 1
Mindest@@ 1
Mini 1
Mini@@ 1
Mira@@ 1
Miss@@ 1
Mist@@ 1
Mitglied 1
Model@@ 1
Module 1
Moh@@ 1
Mom@@ 1
Mont@@ 1
Monteneg@@ 1
Montre@@ 1
Moo@@ 1
Moon 1
Moor@@ 1
Moore 1
Moroccan 1
Moses 1
Mot@@ 1
Mother 1
Motive 1
Motor 1
Motor@@ 1
Motors 1
Mou@@ 1
Moun@@ 1
Movie 1
Much 1
Mun@@ 1
Museums 1
Museums@@ 1
Mé@@ 1
Mü@@ 1
NAT@@ 1
NC 1
NG 1
NOR@@ 1
Nabucco 1
Nacht 1
Nam@@ 1
Nan@@ 1
Nationalen 1
Natur 1
Nau@@ 1
Nazis 1
Neb@@ 1
Need 1
Nei@@ 1
Neigh@@ 1
Neither 1
Neph@@ 1
Nes@@ 1
Neu@@ 1
Neue 1
Neut@@ 1
Nevada 1
Nicolas 1
Nielson 1
Nig@@ 1
Nigeri@@ 1
Nine 1
No. 1
Nob@@ 1
Nobody 1
Non@@ 1
Nord 1
Norm 1
Norwegian 1
Notre 1
Nov 1
Nova 1
Nuclear 1
Nuendo 1
Number 1
O.@@ 1
OB@@ 1
OECD 1
OG@@ 1
OL@@ 1
OP 1
Off 1
Offen@@ 1
Officer 1
Oli@@ 1
Olympischen 1
Opening 1
Opport@@ 1
Opportunities 1
Oracle 1
Orig@@ 1
Origin@@ 1
Orlando 1
Orleans 1
Ort 1
Ort@@ 1
Ortega 1
Os 1
Os@@ 1
Oscar 1
Ost 1
Ot@@ 1
Otta@@ 1
Otto 1
Outdoor 1
Outlook 1
P.@@ 1
PK@@ 1
PN@@ 1
POL@@ 1
PR 1
PRE@@ 1
PRO 1
PSP 1
PU@@ 1
PVC 1
Package 1
Palat@@ 1
Palazzo 1
Pam@@ 1
Pan 1
Panoram@@ 1
Panorama 1
Paradig@@ 1
Parag@@ 1
Parallel 1
Park@@ 1
Parks 1
Parli@@ 1
Particularly 1
Pascal 1
Passagi@@ 1
Pati@@ 1
Pear@@ 1
Pearl 1
Pedro 1
Peking 1
Peninsula 1
Pension@@ 1
Pent@@ 1
Pep@@ 1
Peri@@ 1
Perry 1
Person@@ 1
Personal@@ 1
Personally 1
Perspective 1
Peru 1
Peru@@ 1
Pes@@ 1
Pet@@ 1
Peter@@ 1
Pf@@ 1
Phan@@ 1
Phase 1
Phil@@ 1
Philippe 1
Pho@@ 1
Photo@@ 1
Phu@@ 1
Piano 1
Piazz@@ 1
Piazza 1
Picard 1
Pictures 1
Pietro 1
Pilot 1
Pin@@ 1
Pizz@@ 1
Planet 1
Plant 1
Plas@@ 1
PlayStation 1
Ple@@ 1
Plen@@ 1
Plugins 1
Plätze 1
Pod 1
Poettering 1
Poker@@ 1
Poll@@ 1
Populi@@ 1
Porto@@ 1
Pos@@ 1
Poverty 1
Practice 1
Prag 1
Preis 1
Premiere 1
Presse 1
Prestige 1
Print@@ 1
Prior 1
Privati@@ 1
Privi@@ 1
Profession@@ 1
Profile 1
Profit 1
Projekte 1
Prosec@@ 1
Prot@@ 1
Provider 1
Puerta 1
Punta 1
Put@@ 1
Pv@@ 1
Quad@@ 1
Quark@@ 1
Quartal 1
Quick 1
Quick@@ 1
Quite 1
Quote 1
R. 1
R.@@ 1
RAT@@ 1
RAW 1
REC@@ 1
RFID 1
RS 1
Rab@@ 1
Radi@@ 1
Radisson 1
Raf@@ 1
Rahmen 1
Rahmen@@ 1
Rail@@ 1
Ramada 1
Ramblas 1
Rat@@ 1
Rates 1
Rathaus 1
Rau@@ 1
Reader 1
Reading 1
Recent 1
Recher@@ 1
Recon@@ 1
Records 1
Reduzierung 1
Regen@@ 1
Regi@@ 1
Reich 1
Reich@@ 1
Reise 1
Reisenden 1
Reisever@@ 1
Relais 1
Release 1
Remo@@ 1
Renaissance 1
Rent 1
Rent@@ 1
Rep@@ 1
Reports 1
Republi@@ 1
Requi@@ 1
Reser@@ 1
Resol@@ 1
Resorts 1
Ress@@ 1
Restaurants 1
Resul@@ 1
Revol@@ 1
Revolu@@ 1
Rho@@ 1
Richter 1
Ring 1
Ring@@ 1
Risk 1
Rit@@ 1
Robinson 1
Roboter 1
Roger 1
Rol@@ 1
Roll 1
Romul@@ 1
Ron@@ 1
Roo@@ 1
Rosa 1
Rot@@ 1
Rothley 1
Rou@@ 1
Roulette 1
Rous@@ 1
Rue 1
Run 1
Ré@@ 1
Rübig 1
S. 1
SCH@@ 1
SEN@@ 1
SEO 1
SF 1
SIM@@ 1
SIX 1
SON@@ 1
SPA 1
SQ@@ 1
SU@@ 1
Saar@@ 1
Sach@@ 1
Sache 1
Sachen 1
Sadly 1
Sah@@ 1
Salon 1
Salv@@ 1
Salvador 1
Salzburger 1
Salzkammergut 1
Sam 1
Samstag 1
Santo 1
Sarajevo 1
Sard@@ 1
Satelli@@ 1
Satur@@ 1
Sauna 1
Savo@@ 1
Scan 1
Scandinavian 1
Scanner 1
Scar@@ 1
Scha@@ 1
Schalt@@ 1
Schiff@@ 1
Schlei@@ 1
Schloss 1
Schlu@@ 1
Schmidt 1
Schn@@ 1
Schnei@@ 1
Schweiz 1
Schwer@@ 1
Schwier@@ 1
Schö@@ 1
Schöne 1
Schü@@ 1
Schüler 1
Screen 1
Screen@@ 1
Scri@@ 1
Script 1
Se 1
Sei@@ 1
Seine 1
Seiten 1
Self 1
Seminar 1
Sen@@ 1
Senator 1
Senden 1
Senegal 1
Senior 1
Sensoren 1
Sep@@ 1
Serge@@ 1
Set@@ 1
Sett@@ 1
Seven 1
Seventh 1
Sevilla 1
Shakespe@@ 1
Shan@@ 1
Sharon 1
Sher@@ 1
Shine 1
Shop@@ 1
Short 1
Sich@@ 1
Side 1
Sie@@ 1
Silber@@ 1
Sili@@ 1
Silva 1
Simon 1
Sis@@ 1
Sites 1
Situ@@ 1
Situationen 1
Six 1
Six@@ 1
Sj@@ 1
Sle@@ 1
Sli@@ 1
Sm@@ 1
Smart@@ 1
Sn@@ 1
Sof@@ 1
Soft 1
Solarium 1
Solidar@@ 1
Somalia 1
Some@@ 1
Son@@ 1
Sonder@@ 1
Song 1
Sonn@@ 1
Sonnen@@ 1
Soon 1
Sop@@ 1
Sophi@@ 1
Sor@@ 1
Sound 1
Sounds 1
Souvenirs 1
Spam 1
Span@@ 1
Speak 1
Spec@@ 1
Spen@@ 1
Spezi@@ 1
Spezialist 1
Spir@@ 1
Spo@@ 1
Sprach@@ 1
Spybot 1
Spä@@ 1
Stabili@@ 1
Staff@@ 1
Stand 1
Standard@@ 1
Stat@@ 1
Stefan 1
Stell@@ 1
Steph@@ 1
Ster@@ 1
Sterckx 1
Stern@@ 1
Steve 1
Stich@@ 1
Stock@@ 1
Store 1
Story 1
Stran@@ 1
Strand@@ 1
Strassen@@ 1
Strategi@@ 1
Strauss 1
Stre@@ 1
Stri@@ 1
String 1
Stro@@ 1
Stru@@ 1
Struc@@ 1
Studios 1
Study 1
Sudan 1
Sul@@ 1
Sulzer 1
Supreme 1
Swimming 1
Swoboda 1
Sym@@ 1
Symb@@ 1
Symbol 1
Symp@@ 1
Synchron@@ 1
Syri@@ 1
Syrian 1
Systeme 1
Sz@@ 1
Szene 1
Süd 1
Süd@@ 1
T.@@ 1
TAC@@ 1
TACIS 1
TCP 1
TEN@@ 1
TH 1
TI 1
TL@@ 1
TOR 1
TOS 1
TRO@@ 1
TT 1
TU 1
TU@@ 1
TV@@ 1
Tab@@ 1
Tac@@ 1
Taf@@ 1
Tag 1
Tag@@ 1
Taj@@ 1
Tak@@ 1
Tal 1
Talk 1
Target 1
Tari@@ 1
Taste 1
Taylor 1
Teams 1
Technische 1
Technologie@@ 1
Teen@@ 1
Telekom 1
Television 1
Template 1
Tenn@@ 1
Termin@@ 1
Terminal 1
Terms 1
Territ@@ 1
Terror 1
Terror@@ 1
Test@@ 1
Tester 1
Testing 1
Tests 1
Tex@@ 1
Texas 1
Texte 1
Theater 1
Thermal 1
Thessaloniki 1
Thom@@ 1
Throughout 1
Thyssen 1
ThyssenKrupp 1
Tibet@@ 1
Tickets 1
Tiger 1
Tin@@ 1
Title 1
Tochter 1
Toi@@ 1
Tok@@ 1
Tol@@ 1
Toler@@ 1
Tom 1
Tony 1
Tos@@ 1
Touch 1
Touch@@ 1
Track 1
Tradition 1
Traffic 1
Transatlan@@ 1
Transpor@@ 1
Trau@@ 1
Trav@@ 1
Travel@@ 1
Treffen 1
Trin@@ 1
True 1
Trü@@ 1
Tulip 1
Turbo 1
Turk@@ 1
Turkmenistan 1
Turning 1
Tus@@ 1
Tuscany 1
Tw@@ 1
Tö@@ 1
UCLAF 1
UNICEF 1
Uganda 1
Uhr 1
Ukra@@ 1
Ultra 1
Underground 1
Universität 1
Unter@@ 1
Unterstütz@@ 1
UpdateStar 1
Upon 1
Urlaub@@ 1
Uruguay 1
Utop@@ 1
V.@@ 1
VA 1
VID@@ 1
VIS@@ 1
VO 1
VPN 1
Var@@ 1
Various 1
Venezu@@ 1
Veri@@ 1
Verk@@ 1
Verluste 1
Versand 1
Vertiefung 1
Vet@@ 1
Vic@@ 1
Victor 1
Vie@@ 1
Vier@@ 1
Vig@@ 1
Vill@@ 1
Vinci 1
Virgin 1
Virginia 1
Vista 1
Visu@@ 1
Volks@@ 1
Volkswagen 1
Vorhaben 1
Vul@@ 1
Vulkan@@ 1
WASHINGTON 1
WB 1
WD 1
WE 1
WER@@ 1
WF 1
WIN@@ 1
WM 1
WO@@ 1
WW@@ 1
Wah@@ 1
Wald@@ 1
Walter 1
Wars 1
Weber 1
Week 1
Weihnachten 1
Weihnachts@@ 1
Wein@@ 1
Weiß@@ 1
Wel@@ 1
Well@@ 1
Welt 1
Wenn 1
Wer@@ 1
Werner 1
Wes@@ 1
Wh@@ 1
Whi@@ 1
Wichtigkeit 1
Wid@@ 1
Wiel@@ 1
Wies@@ 1
Wikipedia 1
Wild 1
Wild@@ 1
Williams 1
Winter@@ 1
Wir 1
Wir@@ 1
Wis@@ 1
Wit@@ 1
Wo 1
Woche 1
Wogau 1
Wohl@@ 1
Wolf 1
Woo@@ 1
Workers 1
Workshop 1
Workshops 1
World@@ 1
Wroc@@ 1
Wy@@ 1
Wynn 1
Wür@@ 1
XPress 1
Xetra 1
Yacht 1
Years 1
Yesterday 1
Yoga 1
Youth 1
Zadar 1
Zealand 1
Zei@@ 1
Zeitung 1
Zel@@ 1
Zent@@ 1
Zentrum 1
Zero 1
Zig@@ 1
Zim@@ 1
Zone 1
Zoo 1
Zubehör 1
Zum 1
Zwei@@ 1
Zürich 1
a.com 1
aband@@ 1
abe 1
abe@@ 1
abide 1
abli@@ 1
abling 1
abolished 1
absen@@ 1
absent 1
absorbed 1
abstra@@ 1
absur@@ 1
abulous 1
abundance 1
abused 1
accelerated 1
acces@@ 1
acco 1
accumulated 1
ace@@ 1
acknowledges 1
acquain@@ 1
acqui@@ 1
activi@@ 1
actu@@ 1
adar 1
add@@ 1
addiction 1
addle 1
ade@@ 1
adel@@ 1
ademi@@ 1
ademie 1
aden 1
ader 1
adhere 1
adjacent 1
adjour@@ 1
adly 1
adol@@ 1
ador 1
adres@@ 1
adul@@ 1
advanta@@ 1
advocated 1
advocating 1
ae@@ 1
ael 1
aero@@ 1
aerospace 1
aesthetic 1
af 1
afford@@ 1
aga 1
aga@@ 1
agan 1
agen@@ 1
aggression 1
agli@@ 1
agna 1
agne 1
agnen 1
agra 1
agre@@ 1
aha 1
aim@@ 1
airo 1
airspace 1
akan 1
akis 1
ako 1
aktiv 1
alco@@ 1
alie 1
alis@@ 1
alisierung 1
alition 1
aliz@@ 1
alling 1
allocate 1
allow@@ 1
alogues 1
alous 1
alpha 1
alpine 1
alqu@@ 1
alquiler 1
alth 1
altogether 1
aman@@ 1
amas 1
amateur 1
amen 1
amento 1
aments 1
ameters 1
amid 1
amid@@ 1
amin 1
amine 1
amo 1
amoun@@ 1
amounting 1
ampli@@ 1
ampo@@ 1
analyse 1
analysing 1
anarch@@ 1
ancy 1
anderes 1
andum 1
angan 1
ange 1
ange@@ 1
angen@@ 1
anie 1
ank 1
anna 1
anne 1
anni 1
anno@@ 1
anom@@ 1
answer@@ 1
antes 1
anticip@@ 1
anto 1
antum 1
anxi@@ 1
anz 1
anzu@@ 1
aoke 1
apart@@ 1
api@@ 1
apparatus 1
appartement 1
applau@@ 1
appren@@ 1
appro@@ 1
approaching 1
aps 1
arab@@ 1
arbeit 1
arbit@@ 1
arc@@ 1
archie 1
architects 1
ardian 1
aren 1
argues 1
arious 1
aris 1
arly 1
armament 1
aro 1
arte 1
artier 1
artik@@ 1
arts 1
ascript 1
ashi 1
asion 1
asks 1
assass@@ 1
assemb@@ 1
assembled 1
assen 1
assess@@ 1
assign 1
assisted 1
assortment 1
assumption 1
assy 1
astic 1
astronom@@ 1
asy 1
atable 1
ateful 1
ategi@@ 1
aten 1
ateway 1
athed@@ 1
athedral 1
atico 1
atie 1
atin 1
ations@@ 1
atis@@ 1
ativity 1
atomic 1
atorium 1
ats@@ 1
att 1
atta 1
attachment 1
attacking 1
attempting 1
atten 1
attending 1
attered 1
attor@@ 1
attrac@@ 1
attracting 1
attracts 1
atum 1
atur 1
atur@@ 1
atz@@ 1
auber@@ 1
auff@@ 1
aufs 1
aufzu@@ 1
aul@@ 1
ausch 1
auth@@ 1
authentication 1
auto 1
avail@@ 1
avan 1
ave 1
avenue 1
aver 1
aver@@ 1
avi 1
avia 1
avo@@ 1
avoi@@ 1
avoid@@ 1
azz@@ 1
añ@@ 1
bab@@ 1
bach@@ 1
baden 1
bah@@ 1
bahn 1
bahnhof 1
bak@@ 1
balcon@@ 1
balconies 1
ball@@ 1
balls 1
band@@ 1
bankruptcy 1
bap@@ 1
barbar@@ 1
bare@@ 1
bas 1
bat 1
bau 1
bauer 1
beach@@ 1
bean 1
bean@@ 1
beaten 1
beautifully 1
bec@@ 1
bed@@ 1
bedded 1
bedingungen 1
bedro@@ 1
bee 1
befes@@ 1
beginnen 1
beglei@@ 1
begrenzt 1
beh@@ 1
beha@@ 1
bei@@ 1
bekistan 1
bella 1
bels 1
belts 1
bemüht 1
ben 1
benchmark 1
bend 1
bene@@ 1
beneath 1
benutzen 1
bereit 1
berg@@ 1
bergen 1
berühmt 1
besch@@ 1
beschreiben 1
bestmögliche 1
bet@@ 1
beta 1
betro@@ 1
bets 1
betting 1
beverages 1
bia 1
bicycles 1
bie 1
bie@@ 1
bien 1
bies 1
biet@@ 1
bietet 1
bij@@ 1
bik 1
bil 1
bile 1
bile@@ 1
billi@@ 1
binnen 1
biom@@ 1
biomass 1
biotechnology 1
bisher 1
bishop 1
blas@@ 1
blocking 1
board@@ 1
bombs 1
bond 1
bonuses 1
boosting 1
boots 1
bor 1
borough 1
bot 1
bound@@ 1
bourne 1
bow@@ 1
boy@@ 1
bra 1
bre 1
brech@@ 1
brechen 1
breed 1
bres 1
brethren 1
bridges 1
brilli@@ 1
bringt 1
bron@@ 1
brothers 1
brus@@ 1
brut@@ 1
bt 1
bu 1
buch 1
bud@@ 1
budge@@ 1
bum@@ 1
bun@@ 1
buried 1
butes 1
butions 1
butter 1
buttons 1
bying 1
byp@@ 1
bzw. 1
bün@@ 1
cad@@ 1
cada 1
caf@@ 1
cake 1
camiones 1
campsite 1
cana 1
cane 1
cany 1
capaci@@ 1
caps 1
captured 1
carto@@ 1
casinos 1
casual 1
catastrophe 1
caus@@ 1
caves 1
ceilings 1
celeb@@ 1
celebri@@ 1
cellar 1
cen@@ 1
censure 1
centro 1
ceram@@ 1
ceramic 1
cere@@ 1
certain@@ 1
cette 1
cha 1
cha@@ 1
challenged 1
chann@@ 1
characterized 1
charging 1
chart 1
chefs 1
chel@@ 1
chem@@ 1
chemistry 1
chens 1
cher@@ 1
chet 1
chill 1
chim@@ 1
chio 1
chips 1
chir@@ 1
chise 1
chn@@ 1
chner 1
cho 1
choo@@ 1
chro@@ 1
cht@@ 1
chti@@ 1
chung 1
chur@@ 1
cially 1
cient 1
cin@@ 1
circles 1
circu@@ 1
circuit 1
circular 1
civilian 1
cken 1
cker@@ 1
ckets 1
ckey 1
cks@@ 1
cky 1
clari@@ 1
clauses 1
clean@@ 1
cleaner 1
cleanliness 1
cleared 1
clearing 1
cles 1
clicks 1
client@@ 1
climb 1
clinical 1
clip 1
cloning 1
clou@@ 1
coast@@ 1
cock@@ 1
codi@@ 1
coff@@ 1
colate 1
cole 1
color@@ 1
colorful 1
coloured 1
columns 1
combin@@ 1
combining 1
command@@ 1
commanded 1
commands 1
commit@@ 1
committing 1
commun@@ 1
communic@@ 1
compla@@ 1
complain 1
complemented 1
complies 1
compos@@ 1
composite 1
compound 1
compre@@ 1
comprehensible 1
compression 1
conceived 1
concentrated 1
conclu@@ 1
concluding 1
condu@@ 1
conducting 1
confi@@ 1
config 1
configu@@ 1
configurations 1
confirming 1
conflic@@ 1
conform 1
confused 1
cons 1
conscience 1
consoli@@ 1
constituents 1
consu@@ 1
contem@@ 1
controll@@ 1
conven@@ 1
conveniently 1
convers@@ 1
conversations 1
cook@@ 1
cookie 1
coordinates 1
corners 1
corrections 1
correspon@@ 1
correspondence 1
corresponds 1
corrid@@ 1
cos@@ 1
cosmetics 1
cosmo@@ 1
cosmopolitan 1
cot@@ 1
cottage 1
couldn 1
council 1
counterfei@@ 1
country@@ 1
coupled 1
coura@@ 1
cow 1
cracy 1
crafts@@ 1
crash 1
crates 1
crati@@ 1
crete 1
criminals 1
cript 1
criter@@ 1
critic@@ 1
crow@@ 1
crowded 1
crown 1
ctu@@ 1
cular 1
culp@@ 1
curr@@ 1
cus@@ 1
cut@@ 1
cyc@@ 1
cycling 1
cyn@@ 1
cía 1
dade 1
dago@@ 1
dah 1
dali@@ 1
damit 1
dancing 1
danger@@ 1
darf 1
dari 1
dark@@ 1
dau@@ 1
davon 1
day@@ 1
deal@@ 1
dear 1
decisively 1
deck@@ 1
decla@@ 1
declar@@ 1
decommission@@ 1
decor 1
deen 1
deepening 1
defe@@ 1
defect 1
degli 1
degradation 1
dei 1
deinen 1
dek@@ 1
dela@@ 1
dele@@ 1
deliber@@ 1
delightful 1
delights 1
delle 1
deluxe 1
dema@@ 1
demo 1
democrati@@ 1
dena 1
dengan 1
dents 1
denying 1
depar@@ 1
dera 1
dereg@@ 1
deregulation 1
derer 1
deriv@@ 1
derive 1
derness 1
dership 1
derten 1
designation 1
destabili@@ 1
destined 1
destro@@ 1
destructive 1
deterioration 1
detrimental 1
deutsche 1
deux 1
dging 1
diabetes 1
diagra@@ 1
dial@@ 1
diameter 1
dically 1
dicht 1
dictator 1
diesem 1
dig 1
dil@@ 1
dinal 1
dio@@ 1
diplomacy 1
dir 1
dis 1
disadvanta@@ 1
disadvantaged 1
disadvantages 1
disciplines 1
disclosure 1
discourse 1
discover@@ 1
discovering 1
discus@@ 1
dise 1
disgu@@ 1
dish 1
disks 1
disorder 1
dispar@@ 1
disper@@ 1
disponi@@ 1
dispos@@ 1
disposition 1
disrup@@ 1
distinc@@ 1
distor@@ 1
distribu@@ 1
disturbing 1
dite 1
dla 1
dn 1
dner 1
dney 1
domains 1
dominate 1
domination 1
donation 1
donn@@ 1
dont 1
dop@@ 1
dose 1
dot 1
dot@@ 1
dow 1
dow@@ 1
downlo@@ 1
downturn 1
dozen 1
drain 1
drama 1
dran 1
drop@@ 1
drought 1
drying 1
dse@@ 1
dul 1
dump@@ 1
dunk@@ 1
duplicate 1
duplication 1
dustri@@ 1
dynamism 1
e. 1
e.V 1
ear 1
earmarked 1
earning 1
earthqu@@ 1
ebenso 1
eber@@ 1
ebo@@ 1
ebook 1
eck@@ 1
ecken 1
eda 1
edes 1
edings 1
editorial 1
edt 1
edy 1
eel 1
efs 1
efully 1
ego@@ 1
egoti@@ 1
egt 1
eher 1
ehn@@ 1
ehow 1
ehr 1
eich@@ 1
eigen@@ 1
ein@@ 1
eine 1
einem 1
einen 1
eines 1
einigen 1
eken 1
eland 1
elas@@ 1
eld 1
elektron@@ 1
element@@ 1
eler@@ 1
elf 1
eligibility 1
elimin@@ 1
elten 1
elung 1
eman 1
emann 1
embers 1
emble 1
emble@@ 1
embry@@ 1
emed 1
emen 1
ement@@ 1
emerges 1
emit@@ 1
emm@@ 1
emotion 1
empfehlen 1
emph@@ 1
empire 1
emy 1
enberg 1
enchanting 1
encounter@@ 1
encrypted 1
ende 1
enden 1
endi@@ 1
endorf 1
endy 1
enen 1
enge 1
engine@@ 1
enhancing 1
enica 1
enix 1
enn 1
ennale 1
enormously 1
enos 1
enstein 1
entation 1
ente@@ 1
enti 1
entiert 1
entrepreneurial 1
entspannen 1
entspricht 1
entu@@ 1
entwick@@ 1
entwickelt 1
entz@@ 1
eor@@ 1
eper 1
equilibrium 1
era@@ 1
eradic@@ 1
erei 1
eren 1
erender 1
eres 1
erge 1
ergi@@ 1
ergonom@@ 1
erh@@ 1
erhielt 1
eri 1
erie 1
erin 1
eriode 1
erischen 1
erkannt 1
erleb@@ 1
ern 1
erning 1
ernity 1
erns 1
erosion 1
erre@@ 1
ership 1
erung 1
erup@@ 1
es.@@ 1
esco 1
esen@@ 1
esi 1
esk@@ 1
esp@@ 1
essa 1
esse 1
essel 1
essenti@@ 1
essive 1
essor 1
estas 1
este@@ 1
esthouse 1
estic 1
esto 1
estra 1
estro 1
etal 1
etch@@ 1
eteria 1
etes 1
ethics 1
ethischen 1
eto@@ 1
etta 1
etts 1
etwa 1
etwas 1
eurs 1
eventh 1
eventu@@ 1
every@@ 1
evo 1
evolution 1
ew@@ 1
exac@@ 1
exce@@ 1
excise 1
excitement 1
execu@@ 1
exempt 1
exer@@ 1
exercised 1
exhau@@ 1
exhibits 1
existi@@ 1
exploration 1
expres@@ 1
exten@@ 1
extinc@@ 1
extrem 1
f. 1
fach@@ 1
fahrt 1
faithful 1
fanden 1
fashionable 1
fathers 1
fauna 1
favoured 1
feat@@ 1
fehl 1
fein@@ 1
feit 1
feld 1
fem@@ 1
femin@@ 1
fen 1
ference 1
fest@@ 1
festyle 1
ffer 1
fia 1
fically 1
fik 1
fil 1
filters 1
finden 1
fired 1
firewall 1
fits 1
fixing 1
flag@@ 1
flair 1
flan@@ 1
flation 1
fled 1
flexi@@ 1
floating 1
flus@@ 1
folios 1
fon@@ 1
foo@@ 1
forcement 1
forec@@ 1
foreseeable 1
formity 1
fortabel 1
forth@@ 1
forti@@ 1
fortun@@ 1
forty 1
forwarded 1
fossil 1
fox 1
freezing 1
frei@@ 1
fris@@ 1
frühen 1
fte 1
fter 1
fts@@ 1
ftungs@@ 1
funk@@ 1
fur 1
för@@ 1
fördern 1
führen 1
fürs 1
galerie 1
galleries 1
gano 1
ganzen 1
garde 1
gare@@ 1
gastronomy 1
gates 1
gather@@ 1
gauge 1
gaz@@ 1
gear@@ 1
geb@@ 1
geber@@ 1
gebers 1
gee 1
gefährdet 1
geför@@ 1
gegenüber@@ 1
geh@@ 1
gelegen 1
gelegen@@ 1
geli@@ 1
gels 1
gem@@ 1
gemütlichen 1
genden 1
generator 1
genic 1
genous 1
gent@@ 1
geograph@@ 1
geopolitical 1
geous 1
gered 1
gesellschaften 1
gesetzte 1
gg 1
ggen@@ 1
ggling 1
gh 1
ghs 1
ght@@ 1
ghters 1
ghtful 1
gig 1
gigan@@ 1
giore 1
gious 1
gir@@ 1
gl 1
glaci@@ 1
glacier 1
glance 1
gleich@@ 1
gleichen 1
gmati@@ 1
god 1
good@@ 1
gori@@ 1
gos 1
gou@@ 1
gourmet 1
gr 1
grad 1
gradu@@ 1
graduate 1
graduates 1
graphi@@ 1
grasp 1
gratis 1
gratitude 1
grav@@ 1
gregation 1
griff@@ 1
grin@@ 1
gruppen 1
gs@@ 1
gsburg 1
gten 1
guiding 1
gum@@ 1
gun 1
gun@@ 1
gut 1
gut@@ 1
guys 1
habi 1
haft 1
haft@@ 1
hair@@ 1
halls 1
han 1
handles 1
harbour 1
harm 1
harmoni@@ 1
harmonising 1
harsh 1
has@@ 1
hat@@ 1
hate 1
hay 1
heal@@ 1
hebt 1
hec@@ 1
hef@@ 1
hell 1
help@@ 1
hem@@ 1
henko 1
hereby 1
herein 1
herzlich 1
heu@@ 1
hiding 1
hielt 1
hierarch@@ 1
hikes 1
hil@@ 1
hilft 1
hill@@ 1
him@@ 1
hima 1
hings 1
hinter 1
hion 1
histor@@ 1
hl 1
hl@@ 1
hm 1
hob@@ 1
hofer 1
holistic 1
holo@@ 1
hony 1
hoped 1
hops 1
horiz@@ 1
horizont@@ 1
hosp@@ 1
hosti@@ 1
hou@@ 1
house@@ 1
hre@@ 1
hrs 1
hus@@ 1
husband 1
hut@@ 1
hy 1
hydr@@ 1
hyper@@ 1
hypocrisy 1
hü@@ 1
i.e 1
ici@@ 1
icons 1
icro@@ 1
identifies 1
idi@@ 1
idyllic 1
ied 1
iens 1
iere 1
iev@@ 1
ige 1
igkeits@@ 1
ign 1
igno@@ 1
igrants 1
igration 1
ihr 1
ika 1
iles 1
ilibri@@ 1
ilit@@ 1
illeg@@ 1
illo 1
illustr@@ 1
imagination 1
imaging 1
imminent 1
immobili@@ 1
impacts 1
imple@@ 1
imprisonment 1
improves 1
impunity 1
inal 1
inas 1
inau@@ 1
incidentally 1
incol@@ 1
incorporation 1
ind@@ 1
indem 1
independ@@ 1
indirectly 1
indisp@@ 1
indispens@@ 1
industri@@ 1
industrialised 1
iner 1
iner@@ 1
inery 1
infan@@ 1
infec@@ 1
infection 1
informations 1
infrastruktur 1
infrin@@ 1
ing- 1
inge 1
inging 1
ingo 1
ingredi@@ 1
inhabit@@ 1
inhal@@ 1
inia 1
inian 1
inings 1
inion 1
inity 1
inj@@ 1
injured 1
inn 1
innen 1
insights 1
insisted 1
insofar 1
inspectors 1
inspire 1
instru@@ 1
inte 1
integra@@ 1
interes@@ 1
interessante 1
interfer@@ 1
intern 1
internation@@ 1
interoper@@ 1
interoperability 1
interviews 1
intro@@ 1
introduces 1
invent@@ 1
invented 1
inventory 1
invest@@ 1
invisible 1
iny 1
io 1
ira 1
iran@@ 1
irregul@@ 1
isa 1
ischen 1
isches 1
ise@@ 1
isely 1
isine 1
isl@@ 1
ismo 1
iso 1
issance 1
isse@@ 1
ista 1
isten 1
ister 1
isti@@ 1
itar@@ 1
itely 1
itement 1
iten@@ 1
iter 1
itz 1
ité 1
izza 1
jacent 1
jack 1
jack@@ 1
jag@@ 1
jah@@ 1
jan@@ 1
jap@@ 1
jas 1
jav@@ 1
jec@@ 1
ject 1
jed@@ 1
jedoch 1
jen@@ 1
jeweilige 1
jing 1
jk@@ 1
jn 1
join@@ 1
joins 1
jointly 1
jor 1
jour 1
jour@@ 1
jud@@ 1
judged 1
jug@@ 1
jung@@ 1
junk@@ 1
juris@@ 1
juven@@ 1
kal@@ 1
kalk@@ 1
kamp@@ 1
kan@@ 1
kann 1
kap@@ 1
kar 1
karten 1
kas@@ 1
kat 1
kem@@ 1
kes@@ 1
kest@@ 1
ket@@ 1
ketball 1
keywords 1
kg 1
kha@@ 1
kick 1
kidn@@ 1
king@@ 1
kit@@ 1
kk@@ 1
kland 1
klassen 1
klein@@ 1
kli@@ 1
kms 1
kne@@ 1
koh@@ 1
komm@@ 1
konnten 1
kop@@ 1
kopf 1
kostenlosen 1
kot@@ 1
kov 1
kt 1
kt@@ 1
kte 1
ktor 1
kul@@ 1
kun@@ 1
kund@@ 1
kung 1
kus 1
kus@@ 1
ky@@ 1
kö@@ 1
könnt 1
könnte 1
küh@@ 1
lab 1
lach 1
lack@@ 1
laden 1
lady 1
lag@@ 1
lagen 1
lago@@ 1
lah 1
lahs 1
laimed 1
laken 1
lamp 1
lana 1
landmark 1
lang@@ 1
langer 1
lateral 1
lav 1
lawful 1
le.@@ 1
league 1
learnt 1
leb@@ 1
lecture 1
legend 1
legi@@ 1
legs 1
leh@@ 1
leichter 1
lem 1
len 1
lender 1
lern 1
lernen 1
letter@@ 1
letzten 1
leu@@ 1
leurs 1
leverage 1
liance 1
liberalism 1
libr@@ 1
licens@@ 1
licher 1
licity 1
licop@@ 1
lieferungen 1
lien 1
liest 1
life@@ 1
lifer@@ 1
light@@ 1
lighter 1
lika 1
liner 1
lining 1
lins 1
lip 1
lis 1
list@@ 1
liste 1
livestock 1
llo 1
llon 1
lls 1
loader 1
loan 1
lob@@ 1
locating 1
locks 1
logging 1
login 1
loo@@ 1
lowing 1
loyalty 1
loyment 1
lu 1
lumin@@ 1
lus 1
lus@@ 1
lü@@ 1
lück@@ 1
m. 1
macher 1
mag@@ 1
mage 1
magi@@ 1
magne@@ 1
magni@@ 1
magnit@@ 1
mainstreaming 1
mais 1
mana 1
management@@ 1
manages 1
manipul@@ 1
manufac@@ 1
manus@@ 1
marginal 1
market@@ 1
marketplace 1
mas@@ 1
mask 1
massages 1
masse 1
mati@@ 1
mation 1
matt 1
matt@@ 1
mau@@ 1
may@@ 1
maßnahmen 1
mbH 1
mean@@ 1
meer@@ 1
meg@@ 1
mega 1
meist 1
meister 1
meister@@ 1
mel 1
melo@@ 1
melt 1
memorable 1
mend@@ 1
menj@@ 1
menting 1
meny@@ 1
menü 1
mera 1
mergers 1
meri@@ 1
merits 1
meth@@ 1
methodology 1
mie@@ 1
mili@@ 1
milit@@ 1
mill@@ 1
milli@@ 1
minent 1
minima@@ 1
mir 1
mir@@ 1
mira@@ 1
mis 1
misch 1
misery 1
miss@@ 1
mistak@@ 1
mitgeteilt 1
mith 1
mium 1
mixing 1
mnasi@@ 1
mobil@@ 1
mobilise 1
modernity 1
modi@@ 1
modul@@ 1
monastery 1
mone 1
mono@@ 1
monopoli@@ 1
monster 1
monum@@ 1
morali@@ 1
mos 1
mosa@@ 1
motions 1
motives 1
mous 1
ms@@ 1
mt 1
multimedia 1
multin@@ 1
mus 1
mysql 1
mysterious 1
myth 1
möbli@@ 1
n.@@ 1
nah 1
nah@@ 1
nail 1
nament@@ 1
naments 1
nannte 1
nant 1
nar 1
narrative 1
nas@@ 1
nationalism 1
nationality 1
natu@@ 1
nav@@ 1
nden 1
near@@ 1
neben 1
nect 1
neglect 1
nehmen 1
neo@@ 1
nervous 1
nesi@@ 1
neu 1
neues 1
neum@@ 1
neutral 1
nex 1
neys 1
ng 1
nicely 1
nie 1
nific@@ 1
nik 1
nisch 1
nisse 1
nog 1
nomin@@ 1
nomination 1
norm@@ 1
nostal@@ 1
nou@@ 1
nu 1
nung 1
nur 1
nut 1
nut@@ 1
ny@@ 1
nächste 1
o.@@ 1
obil@@ 1
obile 1
objections 1
obli@@ 1
obo@@ 1
obs 1
obsc@@ 1
occ@@ 1
occur@@ 1
ock 1
odate 1
ode 1
oder 1
ofed 1
offence 1
offensive 1
offerings 1
offizielle 1
offset 1
oft 1
og 1
ogra@@ 1
ograf@@ 1
ographi@@ 1
ohlen 1
oi 1
oid 1
ois 1
olin 1
olive 1
olls 1
olog@@ 1
olz 1
omer@@ 1
ometer 1
omit@@ 1
omp@@ 1
ondo 1
onents 1
ongside 1
onie 1
onien 1
onight 1
ont@@ 1
oom 1
oos 1
opath@@ 1
oper 1
oper@@ 1
oples 1
opoulou 1
opping 1
oration 1
orchest@@ 1
ording 1
organ@@ 1
organising 1
originating 1
orium 1
orno 1
orph@@ 1
ort@@ 1
osa 1
oso 1
otechn@@ 1
oted 1
otel 1
oten 1
otro@@ 1
ott 1
otto 1
otype 1
otypes 1
oul 1
oul@@ 1
ouldn 1
ources 1
oure 1
outdated 1
outlin@@ 1
ova 1
oved 1
ovi@@ 1
ovo 1
ow 1
own@@ 1
owns 1
ox@@ 1
ozone 1
packs 1
packt 1
paint@@ 1
pairs 1
palette 1
panic 1
para@@ 1
parag@@ 1
paraly@@ 1
paramount 1
parliamentarians 1
parte 1
partitions 1
partment 1
partments 1
passionate 1
passwords 1
paste 1
patches 1
pattern 1
pau@@ 1
payable 1
peacefully 1
ped@@ 1
pel@@ 1
pelines 1
pens@@ 1
pep@@ 1
perfek@@ 1
performs 1
perio@@ 1
peror 1
persec@@ 1
pes@@ 1
pet@@ 1
peti@@ 1
pg 1
pha@@ 1
phantas@@ 1
phar@@ 1
pharm@@ 1
phenom@@ 1
philos@@ 1
phin@@ 1
phot@@ 1
photograph@@ 1
photographer 1
php@@ 1
phs 1
phy@@ 1
physics 1
pilots 1
piracy 1
pis@@ 1
pit@@ 1
pitch 1
planes 1
plann@@ 1
planted 1
platz 1
plau@@ 1
plein 1
plo@@ 1
plum@@ 1
plurali@@ 1
pluralism 1
plying 1
pment 1
pod 1
pod@@ 1
pole@@ 1
policy@@ 1
policymakers 1
politician 1
pon@@ 1
poration 1
porno@@ 1
porte@@ 1
portion 1
positives 1
pou@@ 1
poultry 1
pow@@ 1
pp 1
ppen 1
pper 1
pper@@ 1
ppi 1
ppo 1
prac@@ 1
practise 1
pragmati@@ 1
prayer 1
precautionary 1
preced@@ 1
preceding 1
precondition 1
predec@@ 1
predomin@@ 1
preferential 1
pregnant 1
prehen@@ 1
prejudi@@ 1
prejudice 1
prek@@ 1
premiere 1
pren@@ 1
prep@@ 1
prerequi@@ 1
presentations 1
presiden@@ 1
press@@ 1
presso 1
preval@@ 1
pricing 1
prise 1
priv@@ 1
privat 1
privati@@ 1
probe 1
problemati@@ 1
proch@@ 1
professionally 1
profi@@ 1
profil@@ 1
progno@@ 1
programm 1
prohibit 1
projekten 1
prolonged 1
prom 1
promot@@ 1
propag@@ 1
propor@@ 1
proportions 1
propos@@ 1
proprietary 1
prosecution 1
prospec@@ 1
protec@@ 1
proxy 1
prä@@ 1
pse 1
pseu@@ 1
ption 1
public@@ 1
pulse 1
pum@@ 1
pump 1
punc@@ 1
pur 1
put@@ 1
qu 1
qualify 1
qualit@@ 1
quanti@@ 1
quare 1
quartier 1
ques@@ 1
questioning 1
queu@@ 1
quick@@ 1
quicker 1
quiry 1
quis 1
quisition 1
quit@@ 1
r. 1
rab@@ 1
racy 1
radar 1
radius 1
raft 1
rail@@ 1
rak@@ 1
ralität 1
ram 1
rami@@ 1
rand 1
rand@@ 1
ranes 1
rang 1
rangi@@ 1
rank 1
rank@@ 1
ranked 1
rant 1
rape 1
rar 1
rasse 1
rays 1
rd 1
reach@@ 1
reacted 1
readers 1
rebuild 1
rebuilt 1
recher@@ 1
rechts@@ 1
recip@@ 1
recipe 1
reciprocity 1
reck@@ 1
recogni@@ 1
recognizes 1
reconc@@ 1
redi@@ 1
reduc@@ 1
redundancies 1
refra@@ 1
refriger@@ 1
refrigerator 1
refu@@ 1
refusal 1
rega@@ 1
registry 1
rehabilitation 1
rei 1
reich 1
reichen 1
rein 1
reinforcing 1
rejects 1
relax@@ 1
rele@@ 1
reless 1
rem 1
remuner@@ 1
rented 1
rently 1
renz@@ 1
repa@@ 1
repres@@ 1
reproduce 1
reproduction 1
republic 1
requ@@ 1
rer 1
rescu@@ 1
reservieren 1
reson@@ 1
resses 1
ression 1
rest@@ 1
restart 1
restor@@ 1
restric@@ 1
rests 1
resul@@ 1
retailers 1
retains 1
retired 1
revise 1
revitali@@ 1
revolutionary 1
rewards 1
riad 1
richest 1
rie@@ 1
rift 1
rigor@@ 1
rin 1
ring@@ 1
ris 1
rison 1
rist 1
rist@@ 1
rite 1
ritual 1
ritur@@ 1
riva 1
rl 1
rob@@ 1
rom@@ 1
rotating 1
rotation 1
rought 1
rounded 1
roy@@ 1
rt 1
ru 1
rulers 1
rum@@ 1
rung 1
rus@@ 1
rush 1
rä@@ 1
rü@@ 1
s.r.@@ 1
sac@@ 1
sacri@@ 1
safeguarded 1
sage 1
sah 1
saison 1
salle 1
sammlung 1
san 1
sans 1
satisfac@@ 1
satisfying 1
saus@@ 1
sburg 1
scal@@ 1
scan 1
scand@@ 1
scandal 1
scandalous 1
scanner 1
scanning 1
scen@@ 1
scenarios 1
schedul@@ 1
schen@@ 1
schicken 1
schlei@@ 1
scholars 1
schul@@ 1
schule 1
schw@@ 1
schwi@@ 1
schär@@ 1
schönen 1
scored 1
scrat@@ 1
screen@@ 1
scri@@ 1
sculpture 1
seafood 1
sealed 1
seas@@ 1
seating 1
secon@@ 1
sed@@ 1
seem@@ 1
seh@@ 1
sehen 1
sei 1
sein@@ 1
seinen 1
seize 1
selbst@@ 1
selective 1
seman@@ 1
sements 1
semi@@ 1
sens 1
sensi@@ 1
sequ@@ 1
sequently 1
serie 1
servatives 1
setzt 1
seu@@ 1
sevent@@ 1
sexu@@ 1
sexy 1
sha 1
shame 1
sharp@@ 1
shaus 1
shel@@ 1
sher@@ 1
shers 1
shipped 1
shocks 1
shoe 1
shof 1
shop@@ 1
shots 1
shoul@@ 1
sians 1
sibili@@ 1
sica 1
sicherlich 1
sicherung 1
siedlung 1
signation 1
simpli@@ 1
sincer@@ 1
singing 1
sink 1
sional 1
sisch 1
sister 1
skand@@ 1
skep@@ 1
skir@@ 1
sko@@ 1
sky@@ 1
sland 1
slip 1
slower 1
slu@@ 1
small@@ 1
sman 1
smar@@ 1
smile 1
smooth@@ 1
smu@@ 1
smus 1
soap 1
socket 1
sofort 1
soft@@ 1
soldi@@ 1
sollen 1
som 1
somehow 1
sono 1
soph@@ 1
sowie 1
span@@ 1
spark 1
speculation 1
sph@@ 1
spheres 1
spir@@ 1
spiral 1
spiri@@ 1
spl@@ 1
sponsor 1
sponsors 1
sport@@ 1
spreads 1
sprin@@ 1
sprung 1
spur 1
spy@@ 1
spätestens 1
squared 1
ssa 1
ssel 1
sserie 1
ssi@@ 1
sson 1
sson@@ 1
stag 1
stair@@ 1
stak@@ 1
stan 1
standardis@@ 1
stants 1
stati@@ 1
steckt 1
stehe 1
stei@@ 1
stein@@ 1
stelle 1
stellte 1
stellungen 1
stem@@ 1
sten 1
stepping 1
stere@@ 1
stern 1
stern@@ 1
stes 1
sti 1
stil 1
still@@ 1
stim@@ 1
stituted 1
stitutes 1
stling 1
sto 1
stoff@@ 1
stolen 1
stopp@@ 1
storey 1
strain 1
strand 1
strategically 1
straße 1
stre@@ 1
stro 1
stroll 1
strom 1
stron@@ 1
styles 1
styli@@ 1
stä@@ 1
stätten 1
stör@@ 1
submitting 1
subscription 1
subur@@ 1
success@@ 1
succession 1
sul@@ 1
sulph@@ 1
sump@@ 1
sung 1
supp@@ 1
supple@@ 1
supran@@ 1
sur 1
surance 1
surf 1
sustain@@ 1
sylvania 1
symbo@@ 1
symptoms 1
system@@ 1
tability 1
tages 1
tags@@ 1
tah@@ 1
tai@@ 1
tainers 1
tak@@ 1
talented 1
talents 1
tane@@ 1
tas 1
tau@@ 1
tausend 1
tax@@ 1
tch 1
tec@@ 1
techn@@ 1
tees 1
tei@@ 1
telecomm@@ 1
telep@@ 1
teln 1
tels 1
tem 1
tempo 1
temptation 1
tendency 1
tene 1
teous 1
terer 1
teri@@ 1
terium 1
ternal 1
tero@@ 1
terra@@ 1
terrain 1
terran@@ 1
terror@@ 1
testim@@ 1
tet 1
tet@@ 1
tete 1
teur 1
text@@ 1
tful 1
thafen 1
thaus 1
theater 1
thee 1
thema 1
theories 1
therapeutic 1
therto 1
thetic 1
thickness 1
thin@@ 1
think@@ 1
thirdly 1
thly 1
thop@@ 1
thotel 1
thou 1
thou@@ 1
thread 1
throu@@ 1
thrust 1
thu@@ 1
ticism 1
tick 1
ticle 1
ticul@@ 1
tied 1
tien 1
tiers 1
tifs 1
tig 1
tigte 1
tik 1
tik@@ 1
til 1
tim 1
timate 1
timent 1
timents 1
timer 1
tings 1
tinu@@ 1
tio 1
tionality 1
tionist 1
tions@@ 1
tique 1
tis@@ 1
tisch 1
tish 1
tissu@@ 1
tist 1
titu@@ 1
titudes 1
tium 1
tiz 1
tled 1
tlin@@ 1
tment 1
tn@@ 1
tob@@ 1
todo 1
toi@@ 1
toms 1
tonn@@ 1
tori@@ 1
totalitarian 1
touches 1
tous 1
tox@@ 1
toys 1
tradition@@ 1
traf 1
trafen 1
trages 1
tranqu@@ 1
transi@@ 1
transp@@ 1
transports 1
travag@@ 1
travel@@ 1
treasure 1
tremend@@ 1
treten 1
tricks 1
tro 1
trol@@ 1
troll@@ 1
tron 1
trusted 1
très 1
tten 1
tti 1
tting 1
tuary 1
tuk 1
tungs@@ 1
tuous 1
tur 1
turi@@ 1
tutorial 1
tyard 1
tzen 1
tà 1
tä@@ 1
télé@@ 1
tö@@ 1
uba 1
udad 1
ues 1
uit@@ 1
uk 1
ul 1
ulated 1
ulation 1
uli@@ 1
ult 1
ultim@@ 1
umbrel@@ 1
umbrella 1
umen@@ 1
umfassende 1
unab@@ 1
unanim@@ 1
unas 1
unauthorized 1
uncomfortable 1
unde 1
unded 1
unden@@ 1
underlines 1
underp@@ 1
ungalow 1
unge@@ 1
ungen@@ 1
ungsplan 1
unication 1
unilateral 1
unities 1
unpleasant 1
unresolved 1
unser 1
unserem 1
unseren 1
unserer 1
unsustainable 1
unt@@ 1
unter@@ 1
unterstützt 1
untuk 1
unverzüglich 1
unwanted 1
unwind 1
upgra@@ 1
upgrading 1
upper@@ 1
urable 1
urban@@ 1
urg@@ 1
urging 1
uries 1
urities 1
urs@@ 1
ury 1
useless 1
usement 1
user@@ 1
username 1
usi@@ 1
uso 1
uss 1
utable 1
utation 1
utenant 1
ution 1
utive 1
variation 1
varies 1
vato 1
vegetable 1
vel 1
vement 1
vene@@ 1
vens 1
ventive 1
ventures 1
verab@@ 1
verage 1
verantwortlich 1
verk@@ 1
verlust 1
vern 1
vers@@ 1
versity 1
verstanden 1
verstehen 1
verwöhnen 1
veröffentlicht 1
vet@@ 1
veterinary 1
vez 1
vi 1
vibration 1
vices 1
vie@@ 1
viele 1
viertel 1
vigil@@ 1
vigorously 1
vin 1
vine@@ 1
vineyards 1
vintage 1
viously 1
vision@@ 1
viso 1
visor 1
vity 1
voiced 1
volatility 1
volcan@@ 1
volcanic 1
volta@@ 1
volumes 1
voluntarily 1
volunte@@ 1
vom 1
votre 1
vou@@ 1
voucher 1
voy@@ 1
vri@@ 1
vs 1
vue 1
w. 1
wah@@ 1
wak@@ 1
wall@@ 1
wand 1
wander@@ 1
ware@@ 1
warf 1
warnings 1
watch@@ 1
waves 1
weal@@ 1
weap@@ 1
weigh 1
weiser 1
weiß 1
welches 1
wels 1
wen 1
werbung 1
wered 1
weren 1
wering 1
werk@@ 1
werke 1
wertet 1
whol@@ 1
wholehear@@ 1
wichtigste 1
wick@@ 1
wing@@ 1
wings 1
winkel 1
winn@@ 1
wir@@ 1
wird 1
withdraw@@ 1
wley 1
wning 1
wo 1
wohl 1
wonders 1
worsen@@ 1
worship 1
wort 1
wouldn 1
writes 1
wu@@ 1
wur@@ 1
wurde 1
ww@@ 1
wy@@ 1
wären 1
xel 1
xen@@ 1
xt 1
yable 1
yan 1
yar@@ 1
yards 1
ych 1
ycle 1
ylon 1
ym 1
ynam@@ 1
yon 1
yp 1
yrin@@ 1
ys@@ 1
ystems 1
ywood 1
z.@@ 1
zahlreiche 1
zeit 1
zelt 1
zent@@ 1
zona 1
zoom 1
zusammenhän@@ 1
zzi 1
zö@@ 1
~ 1
¹ 1
º@@ 1
¿ 1
É 1
É@@ 1
Ï@@ 1
Ó@@ 1
Ö 1
Öffentliche 1
Ø@@ 1
Ü@@ 1
Übergang@@ 1
Übersetzung 1
ández 1
ár@@ 1
ã@@ 1
äch@@ 1
äck@@ 1
än@@ 1
ären 1
ème 1
én 1
éra 1
été 1
ête 1
ë 1
ík 1
ï@@ 1
ña 1
ño 1
ów 1
öff@@ 1
öl@@ 1
ör 1
ør@@ 1
ü 1
über 1
übernimmt 1
ück 1
üh@@ 1
ünd@@ 1
ünde 1
üt@@ 1
ă@@ 1
ć@@ 1
Č@@ 1
đ@@ 1
ė 1
ğ@@ 1
İ@@ 1
ń@@ 1
ň@@ 1
ō 1
ś@@ 1
š 1
ţ@@ 1
ť@@ 1
ū@@ 1
ů@@ 1
ż@@ 1
Ž@@ 1
ơ@@ 1
Ι@@ 1
Ђ@@ 1
Ѓ@@ 1
Љ@@ 1
Њ@@ 1
Ќ@@ 1
А@@ 1
Б@@ 1
В@@ 1
Д@@ 1
Е 1
Р 1
Р@@ 1
Ч@@ 1
а 1
а@@ 1
ал@@ 1
ан@@ 1
ат@@ 1
ви@@ 1
во@@ 1
вы@@ 1
г@@ 1
ен@@ 1
з@@ 1
й@@ 1
ле@@ 1
ли@@ 1
н@@ 1
на 1
на@@ 1
но@@ 1
п@@ 1
р 1
си@@ 1
ск@@ 1
со@@ 1
те@@ 1
то@@ 1
х 1
х@@ 1
ц@@ 1
ч@@ 1
ш@@ 1
щ@@ 1
ю@@ 1
ѓ@@ 1
† 1
‹ 1
› 1
№ 1
→ 1
╚ 1
╩ 1
● 1
二 1
出@@ 1
圆@@ 1
密@@ 1
律 1
戒@@ 1
教 1
明@@ 1
来@@ 1
禪 1
