, 19446
. 13188
die 9497
der 9098
und 8688
in 4455
zu 3542
den 3320
von 3227
ist 2767
für 2755
@-@ 2531
mit 2240
das 2219
des 2192
auf 2166
eine 1936
nicht 1771
werden 1738
im 1719
Sie 1641
dass 1619
- 1594
es 1592
dem 1573
ein 1547
wir 1537
&quot; 1485
Die 1444
sich 1419
auch 1351
sind 1215
wird 1149
an 1145
ich 1100
als 1071
) 1060
( 1051
um 1050
: 1004
über 979
haben 951
oder 948
einen 867
hat 847
wie 833
sie 831
einer 808
Ich 774
zur 774
Das 737
bei 723
aus 707
können 701
einem 606
zum 606
nach 604
uns 599
diese 598
nur 578
Wir 576
Kommission 573
kann 561
er 554
durch 543
daß 537
Der 507
dieser 507
vor 486
so 485
Es 483
Herr 482
wenn 481
! 469
wurde 469
noch 467
sehr 449
aber 446
/ 445
sein 437
In 429
müssen 428
diesem 422
möchte 416
Europäischen 413
Union 406
? 399
am 390
was 386
ihre 358
eines 349
mehr 347
alle 345
vom 343
Präsident 338
dieses 337
Bericht 323
bis 316
man 316
war 314
er@@ 305
gibt 302
keine 287
EU 286
sowie 286
unsere 284
Mitgliedstaaten 282
ver@@ 277
Europa 275
hier 273
muss 273
anderen 270
an@@ 268
unter 268
zwischen 266
Parlament 261
diesen 249
Frau 248
Hotel 244
; 242
ten 242
Ihnen 241
Wenn 235
ab@@ 233
gegen 232
wurden 232
&#91; 231
&#93; 231
Europäische 230
Im 229
damit 229
dann 227
a 226
&apos; 225
immer 224
... 223
Diese 221
dies 220
jedoch 213
sondern 212
da 211
habe 211
en@@ 209
mich 209
un@@ 209
ein@@ 207
neuen 207
Ihre 206
te 202
ge@@ 200
% 199
neue 199
seine 199
unserer 199
sollte 198
Jahr 197
de 197
en 197
finden 196
ihrer 196
ohne 196
europäischen 195
Rat 194
Entwicklung 193
Zeit 193
be@@ 192
Frage 189
Menschen 189
Jahren 187
bereits 186
sollten 186
heute 181
2 180
Ver@@ 180
s 180
allen 179
B@@ 178
Herrn 176
ganz 176
machen 176
Unternehmen 173
denen 173
weil 172
K@@ 171
e 171
zwei 170
aus@@ 168
dazu 166
sagen 166
ob 165
the 164
An@@ 162
k@@ 162
t 162
Länder 161
Bereich 159
D@@ 159
S@@ 159
andere 159
geht 159
&#124; 158
F@@ 157
einige 157
viel 155
1 154
Informationen 154
i 153
würde 153
denn 152
Maßnahmen 151
bietet 149
nun 149
Dies 148
Welt 148
bin 148
meine 148
ihren 147
Jahre 146
T@@ 146
darauf 146
mir 146
wieder 146
ung 144
Ländern 143
ihr 142
viele 142
Ab@@ 141
P@@ 141
schon 140
Mit 139
kommen 139
wo 139
auf@@ 138
doch 138
liegt 138
seiner 138
Eine 137
steht 137
Bürger 136
Lage 136
Wie 136
selbst 136
dafür 135
beim 134
ch@@ 134
Parlaments 133
jetzt 133
sch@@ 133
Ein 132
ter 132
zu@@ 132
über@@ 132
s@@ 131
3 130
Kollegen 130
wollen 130
Aus@@ 129
st@@ 129
G@@ 128
ungs@@ 128
Land 127
gut 127
lassen 127
letzten 127
soll 127
t@@ 127
während 127
Sch@@ 126
Ziel 126
Staaten 125
ab 125
o 125
Arbeit 123
Zusammenarbeit 123
etwas 123
f@@ 123
insbesondere 123
ungen 123
vor@@ 123
Fall 122
allem 122
geben 122
Fragen 121
Und 121
seit 121
in@@ 120
stellen 120
Vorschlag 119
m 119
politischen 119
Unterstützung 118
waren 118
E@@ 117
Ein@@ 117
M@@ 117
z@@ 117
Rahmen 116
also 116
erhalten 116
unseren 116
Seite 115
ern 115
A@@ 114
Regierung 114
ent@@ 114
möglich 114
4 113
Namen 113
tes 113
N@@ 112
Probleme 112
Sicherheit 112
m@@ 112
of 112
stehen 112
H@@ 111
d@@ 111
System 110
besteht 110
darüber 110
ersten 110
sowohl 110
wissen 110
and 109
bringen 109
dabei 109
gen 109
Fraktion 108
wäre 108
Für 107
aller 107
wichtig 107
worden 107
Problem 106
Nach 105
Was 105
Z@@ 105
drei 105
g@@ 105
könnte 105
sehen 105
um@@ 105
Bei 104
C@@ 104
Teil 104
Vor@@ 104
di@@ 104
Meinung 103
ge 103
großen 103
ihnen 103
verschiedenen 103
davon 102
10 101
Beispiel 101
L@@ 101
Thema 101
einfach 101
unterstützen 101
Aber 100
Kommissar 100
el@@ 100
große 100
meiner 100
n@@ 100
re@@ 100
Bedeutung 99
Daten 99
W@@ 99
tun 99
Weg 98
seinen 98
wirklich 98
20 97
Artikel 97
g 97
liche 97
muß 97
o@@ 97
Art 96
Er@@ 96
Stadt 96
beiden 96
daher 96
al@@ 95
e@@ 95
einmal 95
ische 95
politische 95
Auf 94
USA 94
deren 94
sten 94
to 94
Ihr 93
erreichen 93
weitere 93
Auch 92
Kunden 92
O@@ 92
Zukunft 92
führen 92
unser 92
5 91
Politik 91
R@@ 91
Re@@ 91
Recht 91
Um 91
internationalen 91
weiter 91
zwar 91
-@@ 90
Richtlinie 90
Seiten 90
Zusammenhang 90
bieten 90
chen 90
l@@ 90
eren 89
&amp; 88
Europas 88
Rolle 88
Un@@ 88
Zimmer 88
ende 88
r@@ 88
welche 88
Ende 87
Weise 87
besonders 87
de@@ 87
gegenüber 87
ischen 87
n 87
stellt 87
Mittel 86
Situation 86
alles 86
daran 86
erten 86
gesagt 86
b@@ 85
europäische 85
gilt 85
Euro 84
ja 84
schaffen 84
dessen 83
jeder 83
lich 83
natürlich 83
vielen 83
Alle 82
Als 82
Ihrer 82
V@@ 82
J@@ 81
arbeiten 81
du 81
kommt 81
li@@ 81
Verfügung 80
a@@ 80
bar 80
d 80
entfernt 80
innerhalb 80
lichen 80
ts 80
2009 79
E 79
I@@ 79
all 79
ens 79
indem 79
le 79
Hilfe 78
In@@ 78
befindet 78
brauchen 78
dort 78
einigen 78
end 78
erste 78
macht 78
nämlich 78
Präsidentin 77
darin 77
möchten 77
on 77
st 77
.@@ 76
Frauen 76
Möglichkeit 76
Rates 76
enden 76
weniger 76
2010 75
50 75
Deshalb 75
Programm 75
deshalb 75
gute 75
i@@ 75
Er 74
Gemeinschaft 74
Ihren 74
Punkt 74
Region 74
Wirtschaft 74
hatte 74
Hier 73
Millionen 73
Tag 73
besser 73
eigenen 73
genau 73
ihn 73
v@@ 73
6 72
Hotels 72
Kinder 72
Umsetzung 72
Vorschläge 72
as 72
bzw. 72
halten 72
würden 72
9@@ 71
Aus 71
Leben 71
Schutz 71
So 71
Uhr 71
Ziele 71
allerdings 71
danken 71
is 71
kein 71
sicher 71
Anwendung 70
Software 70
erte 70
ger 70
sogar 70
will 70
Menschenrechte 69
ert 69
gehen 69
ins 69
nehmen 69
politik 69
ti@@ 69
Änderungsantrag 69
7 68
betrifft 68
hinaus 68
keinen 68
or@@ 68
unterstützt 68
Auf@@ 67
Aussprache 67
Herren 67
Lösung 67
Personen 67
deutlich 67
gen@@ 67
k 67
ste 67
ter@@ 67
unter@@ 67
zusammen 67
Reihe 66
Strategie 66
em 66
isch 66
nationalen 66
ri@@ 66
statt 66
Gebiet 65
at 65
bitte 65
ebenfalls 65
erreicht 65
ihm 65
ihrem 65
Bezug 64
pro 64
werde 64
zeigt 64
A 63
Dank 63
Geschichte 63
Haus 63
Kolleginnen 63
U@@ 63
Verhandlungen 63
ar@@ 63
bedeutet 63
el 63
etwa 63
h@@ 63
nächsten 63
p@@ 63
vielleicht 63
wichtige 63
öffentlichen 63
Arbeits@@ 62
Be@@ 62
Daher 62
Hinblick 62
Um@@ 62
Unsere 62
dürfen 62
führt 62
hin 62
licher 62
nichts 62
si@@ 62
sollen 62
y@@ 62
Berichterstatter 61
China 61
Grund 61
Rechte 61
beispielsweise 61
em@@ 61
erst 61
findet 61
könnten 61
nutzen 61
on@@ 61
unserem 61
Abstimmung 60
Bedingungen 60
Beziehungen 60
Debatte 60
Ebene 60
Grundlage 60
Wirtschafts@@ 60
aufgrund 60
ermöglicht 60
handelt 60
weit 60
Al@@ 59
Bereichen 59
Dienstleistungen 59
Geschäfts@@ 59
Jahres 59
Kosten 59
Verfahren 59
alen 59
b 59
ere 59
gemacht 59
ler 59
sozialen 59
sp@@ 59
weltweit 59
� 59
01 58
1923 58
2000 58
Dieses 58
Verantwortung 58
Von 58
Zugang 58
bekannt 58
bereich 58
direkt 58
hätte 58
j@@ 58
l 58
schnell 58
sprechen 58
u 58
Aufgabe 57
Damen 57
Doch 57
Unter@@ 57
Vereinigten 57
ale 57
elle 57
gab 57
glaube 57
z 57
ä@@ 57
Ausdruck 56
Dieser 56
Entscheidung 56
Form 56
al 56
au@@ 56
ebenso 56
ers 56
gebracht 56
gerade 56
je 56
klar 56
nach@@ 56
notwendig 56
r 56
schen 56
sen 56
th@@ 56
2008 55
Bekämpfung 55
Finanz@@ 55
Liste 55
St@@ 55
Vor 55
ch 55
der@@ 55
geführt 55
gegeben 55
gesamte 55
hoffe 55
lange 55
mit@@ 55
seinem 55
te@@ 55
weiterhin 55
15 54
Ausschusses 54
Ort 54
Regionen 54
US 54
ange@@ 54
darf 54
es@@ 54
gemeinsamen 54
w@@ 54
30 53
8 53
Abkommen 53
Beitrag 53
Möglichkeiten 53
Nutzung 53
at@@ 53
baren 53
be 53
darum 53
gehört 53
gesamten 53
heißt 53
kleinen 53
le@@ 53
ten@@ 53
unseres 53
2007 52
25 52
Förderung 52
Ihrem 52
Institutionen 52
Minuten 52
Produkte 52
S 52
Türkei 52
Wasser@@ 52
Zu 52
f 52
fen 52
gestellt 52
len 52
os 52
se 52
u@@ 52
wenig 52
Änderungsanträge 52
Über@@ 52
3@@ 51
= 51
Ansicht 51
Antwort 51
Ar@@ 51
B 51
Forschung 51
Gesundheit 51
Grund@@ 51
Version 51
einzelnen 51
enthalten 51
fragen 51
setzen 51
wichtigen 51
Da 50
Erfolg 50
Krise 50
Programme 50
Rechts@@ 50
Rück@@ 50
Sicherheits@@ 50
besch@@ 50
bleibt 50
ger@@ 50
gleichen 50
it@@ 50
ken 50
obwohl 50
verbessern 50
z.B. 50
zurück@@ 50
Deutschland 49
Industrie 49
Interesse 49
Internet 49
Qualität 49
Service 49
Zu@@ 49
am@@ 49
bereit 49
besten 49
bleiben 49
durch@@ 49
ei@@ 49
gemeinsame 49
leben 49
ne 49
nen 49
ser@@ 49
voll 49
zi@@ 49
Ent@@ 48
Mal 48
Markt 48
Schritt 48
T 48
Vertrag 48
ber@@ 48
enen 48
entwickeln 48
erforderlich 48
lässt 48
oft 48
ra@@ 48
ta@@ 48
weiß 48
zunächst 48
Behörden 47
Berichts 47
C 47
Demokratie 47
En@@ 47
Gründen 47
Landes 47
Nähe 47
Regierungen 47
angenommen 47
bi@@ 47
c@@ 47
cht 47
ene 47
fünf 47
gleich 47
ie 47
km 47
konnte 47
sei 47
tige 47
y 47
Am 46
Auswirkungen 46
Di@@ 46
Durch 46
Ergebnis 46
Ergebnisse 46
Gesellschaft 46
X@@ 46
bekommen 46
ben 46
gern 46
ges 46
gewährleisten 46
hinsichtlich 46
jeden 46
kleine 46
kon@@ 46
legen 46
los 46
men 46
setzt 46
ung@@ 46
ur@@ 46
weiteren 46
ziehen 46
zusammen@@ 46
* 45
Abgeordneten 45
Blick 45
Gelegenheit 45
Gruppe 45
Mitglieder 45
Par@@ 45
Projekt 45
Schaffung 45
Wahl 45
alten 45
ar 45
fast 45
gt 45
hin@@ 45
mehrere 45
meisten 45
recht 45
ro@@ 45
sche 45
system 45
tatsächlich 45
unternehmen 45
us 45
verfügen 45
verwenden 45
ü@@ 45
12 44
18@@ 44
9 44
Aufmerksamkeit 44
Beschäftigung 44
Bild 44
EN 44
Entscheidungen 44
Entschließung 44
Interessen 44
Juni 44
Kommissarin 44
O 44
Russland 44
Verordnung 44
Verwendung 44
Wert 44
ausge@@ 44
entwickelt 44
hatten 44
her@@ 44
ko@@ 44
or 44
richtig 44
verschiedene 44
verwendet 44
100 43
2002 43
Anforderungen 43
Einsatz 43
Erweiterung 43
Initiative 43
Linie 43
Lösungen 43
Man 43
Notwendigkeit 43
Richtung 43
Server 43
Stunden 43
The 43
Wort 43
benötigen 43
bringt 43
chten 43
ck@@ 43
dern 43
einschließlich 43
ermöglichen 43
for 43
gemeinsam 43
helfen 43
ischer 43
lei@@ 43
op@@ 43
soziale 43
stand 43
wegen 43
ö@@ 43
000 42
Aktivitäten 42
Außerdem 42
Damit 42
Darüber 42
Erklärung 42
Frankreich 42
Ge@@ 42
Nationen 42
Partner 42
Preis 42
Steuer@@ 42
_ 42
anzu@@ 42
ed@@ 42
erung 42
fördern 42
h 42
ieren 42
lang 42
meinem 42
se@@ 42
zurück 42
Änderungen 42
40 41
Bitte 41
Dinge 41
Ma@@ 41
März 41
Parteien 41
Prozess 41
Themen 41
Zeitpunkt 41
ations@@ 41
che 41
den@@ 41
durchgeführt 41
eher 41
eln 41
ganze 41
gesch@@ 41
geschaffen 41
gestimmt 41
halte 41
jedem 41
leicht 41
liegen 41
lo@@ 41
systeme 41
völlig 41
wei@@ 41
wirtschaftlichen 41
zeigen 41
zeit 41
äußerst 41
2005 40
Anfrage 40
Ausschuss 40
Dabei 40
Dezember 40
Druck 40
Fehler 40
Freiheit 40
Geld 40
I 40
Mitarbeiter 40
Neu@@ 40
Ro@@ 40
Umgebung 40
Verbindung 40
Werte 40
ag@@ 40
einzu@@ 40
ellen 40
et@@ 40
geschlossen 40
ke 40
meinen 40
sen@@ 40
solche 40
später 40
tragen 40
zweiten 40
&gt; 39
2001 39
5@@ 39
Benutzer 39
D 39
Gefahr 39
Handels@@ 39
Kon@@ 39
Kultur 39
Macht 39
November 39
Präsidenten 39
September 39
Text 39
Website 39
Zweitens 39
ber 39
di 39
fordern 39
gemäß 39
internationale 39
ker 39
konnten 39
maßnahmen 39
programm 39
sagte 39
sk@@ 39
verbunden 39
vergangenen 39
wichtigsten 39
wohl 39
zumindest 39
Angelegenheiten 38
Armut 38
Bau@@ 38
Einführung 38
Erachtens 38
G 38
Kontrolle 38
Li@@ 38
Platz 38
Rechtsvorschriften 38
Sonder@@ 38
Verbesserung 38
Verfassung 38
ak@@ 38
aktuellen 38
anderer 38
bei@@ 38
dar 38
eh@@ 38
ek@@ 38
großer 38
größten 38
innen 38
meines 38
ot@@ 38
sagt 38
vier 38
weisen 38
wobei 38
zen 38
® 38
0 37
00 37
Auffassung 37
Einige 37
Frieden 37
Gemeinschafts@@ 37
Haupt@@ 37
Integration 37
Mai 37
Mitglied 37
Mo@@ 37
Monaten 37
Punkte 37
Sprache 37
Tatsache 37
Umwelt@@ 37
as@@ 37
außerhalb 37
befinden 37
bisher 37
c 37
erfolgreich 37
et 37
fer@@ 37
fest 37
lichkeit 37
offen 37
treffen 37
är@@ 37
+ 36
1. 36
1999 36
2004 36
7@@ 36
Ansatz 36
Bevölkerung 36
Ex@@ 36
Familie 36
Grenzen 36
Handel 36
P 36
Sinne 36
Standpunkt 36
Unser 36
beide 36
entsprechenden 36
europäischer 36
frei 36
geb@@ 36
gung 36
guten 36
hei@@ 36
hinter 36
hohe 36
jedes 36
land 36
lediglich 36
nahe 36
neben 36
no 36
scheint 36
somit 36
spielen 36
stark 36
tern 36
tig 36
ul@@ 36
verfahren 36
verhindern 36
versch@@ 36
Öffentlichkeit 36
ändern 36
é@@ 36
18 35
2006 35
Anzahl 35
Dialog 35
Energie 35
F 35
Firma 35
Herzen 35
Kampf 35
Lissabon 35
Prozent 35
Seit 35
Sk@@ 35
Stelle 35
Team 35
all@@ 35
einge@@ 35
erklärt 35
gerne 35
ges@@ 35
iert 35
la 35
liches 35
neu 35
rund 35
schriftlich 35
us@@ 35
verfügt 35
vertreten 35
0@@ 34
200 34
24 34
Aufgaben 34
Bürgerinnen 34
Daten@@ 34
Entwicklungs@@ 34
Frühstück 34
Funktion 34
Höhe 34
Jahrhundert 34
K 34
Lebens@@ 34
Mar@@ 34
Nr. 34
Republik 34
Schwierigkeiten 34
Solidarität 34
Systems 34
TV 34
Tage 34
Volk 34
Zustimmung 34
ach@@ 34
begrüße 34
cken 34
dadurch 34
demokratischen 34
derzeit 34
einzige 34
endlich 34
enthält 34
fahren 34
fer 34
folgen 34
genießen 34
geändert 34
it 34
jede 34
la@@ 34
mal 34
nie 34
per 34
sicherlich 34
solchen 34
teilen 34
tische 34
tischen 34
tung 34
weiter@@ 34
wider@@ 34
ze 34
ß@@ 34
.com 33
11 33
80 33
Aspekte 33
Auswahl 33
B. 33
Ber@@ 33
Bestimmungen 33
Bi@@ 33
Familien 33
Folgen 33
Hause 33
Haushalts@@ 33
Ideen 33
Ihres 33
Investitionen 33
Landwirtschaft 33
Mehrheit 33
Online 33
Osten 33
Regeln 33
Systeme 33
Verbraucher 33
Wachstum 33
Während 33
Zum 33
eb@@ 33
ender 33
ens@@ 33
erster 33
genommen 33
her 33
im@@ 33
leisten 33
ma@@ 33
möglichkeiten 33
neuer 33
om@@ 33
v 33
verstehen 33
x 33
x@@ 33
ären 33
überhaupt 33
Angebot 32
Anstrengungen 32
Basis 32
Berichterstatterin 32
Diskussion 32
Finanzierung 32
Forschungs@@ 32
Fortschritte 32
Gesundheits@@ 32
Gewalt 32
GmbH 32
Januar 32
Kraft 32
Lo@@ 32
Praxis 32
Restaurant 32
Spiel 32
Umwelt 32
Vereinbarung 32
Wettbewerb 32
Wochen 32
Zeichen 32
ationen 32
bare 32
bel@@ 32
bestehen 32
bestimmte 32
bestimmten 32
danke 32
denken 32
entsprechend 32
erfüllt 32
erkennen 32
finanziellen 32
freue 32
gehören 32
gleichzeitig 32
größere 32
il@@ 32
men@@ 32
one 32
sch 32
sieht 32
sorgen 32
stimmen 32
tan@@ 32
tliche 32
treten 32
vergessen 32
vollen 32
warum 32
wert 32
Änderung 32
6@@ 31
8@@ 31
Annahme 31
Bereiche 31
Bildung 31
Ch@@ 31
Ist 31
Kriterien 31
Lassen 31
N 31
Pro@@ 31
Sache 31
Strand 31
Vertreter 31
Verwaltungs@@ 31
Vorschriften 31
Woche 31
ad@@ 31
allein 31
amerikanischen 31
ap@@ 31
ausgestattet 31
benutzt 31
berücksichtigt 31
by 31
cher 31
denke 31
ell 31
erlaubt 31
fallen 31
gar 31
gezeigt 31
globalen 31
hätten 31
kosten 31
kt 31
me 31
nimmt 31
ort 31
p 31
ssen 31
ster 31
suchen 31
tem 31
tlichen 31
ts@@ 31
versuchen 31
voll@@ 31
weder 31
wirtschaftliche 31
zahlen 31
zehn 31
überall 31
Abgeordnete 30
Bo@@ 30
Dann 30
Datei 30
De@@ 30
Erfahrung 30
Falle 30
Gesamt@@ 30
Gruppen 30
Heute 30
Hinsicht 30
Inhalt 30
Insel 30
Kor@@ 30
Kultur@@ 30
L 30
Meine 30
Menschenrechts@@ 30
Milliarden 30
Mit@@ 30
Rede 30
Reform 30
Ressourcen 30
Schließlich 30
Schlusselwortern 30
Se@@ 30
Sicht 30
Sozial@@ 30
Sp@@ 30
Spanien 30
Staat 30
Terrorismus 30
Transparenz 30
U 30
Vereinten 30
Verkehrs@@ 30
Vertrags 30
Zahl 30
Zeitraum 30
Zunächst 30
aktiv 30
aler 30
are 30
aten 30
bau 30
entspricht 30
ern@@ 30
erwarten 30
frage 30
führenden 30
führung 30
ganzen 30
gesetzt 30
ging 30
hohen 30
industrie 30
nationale 30
ne@@ 30
pro@@ 30
reichen 30
schließlich 30
schwer 30
sechs 30
technischen 30
tigen 30
vi@@ 30
wi@@ 30
zahlreiche 30
€ 30
13 29
2@@ 29
Anfang 29
Angelegenheit 29
Ausgaben 29
Bar 29
Bemühungen 29
Design 29
Flexibilität 29
Groß@@ 29
Her@@ 29
Information 29
Israel 29
M 29
Meer 29
Nach@@ 29
Natur 29
Natürlich 29
Opfer 29
Personal 29
Projekte 29
Qu@@ 29
San 29
Spiel@@ 29
Sprachen 29
Tat 29
Technologie 29
Teile 29
Viele 29
Wasser 29
Wettbewerbsfähigkeit 29
Zusammen@@ 29
allgemeinen 29
arbeitet 29
ation 29
bald 29
beginnen 29
begrüßen 29
beitragen 29
bestehenden 29
eigene 29
eller 29
genannten 29
gende 29
gesehen 29
getan 29
geworden 29
gi@@ 29
größte 29
hoch 29
hält 29
ihres 29
is@@ 29
isches 29
klicken 29
lösen 29
mein 29
morgen 29
pp@@ 29
richtige 29
stets 29
teile 29
tet 29
versucht 29
weise 29
wer@@ 29
zeiten 29
än@@ 29
öffentliche 29
14 28
4@@ 28
Berichte 28
Binnenmarkt 28
Bundes@@ 28
Dateien 28
Fach@@ 28
Falls 28
Gäste 28
Haushalt 28
Instrument 28
Italien 28
Kern@@ 28
Krieg 28
Le@@ 28
Neben 28
Organisationen 28
Qualitäts@@ 28
Spieler 28
Stellen 28
Unter 28
Vergangenheit 28
Warum 28
abzu@@ 28
ans 28
ate 28
ator 28
aufge@@ 28
aufgenommen 28
aufzu@@ 28
ausschließlich 28
automatisch 28
ben@@ 28
besonderen 28
bessere 28
beste 28
bevor 28
da@@ 28
do 28
eg@@ 28
eingerichtet 28
erwartet 28
gew@@ 28
glauben 28
heit 28
ing@@ 28
kam 28
lage 28
laufen 28
ol@@ 28
persönlichen 28
prozess 28
ra 28
rechts 28
seines 28
so@@ 28
speziell 28
ut@@ 28
verantwortlich 28
zer@@ 28
übernehmen 28
$ 27
2003 27
Anwendungen 27
Erstens 27
Forderungen 27
Gipfel 27
H 27
Mitteilung 27
Obwohl 27
Person 27
Prioritäten 27
Produkt@@ 27
Sektor 27
Si@@ 27
So@@ 27
Tagen 27
Tagesordnung 27
Vertrauen 27
Wer 27
Zentrum 27
anderem 27
ati@@ 27
bewusst 27
bezüglich 27
darstellt 27
deine 27
diejenigen 27
dringend 27
ell@@ 27
els 27
end@@ 27
fe 27
gelangen 27
gelten 27
genden 27
geschützt 27
hoch@@ 27
ie@@ 27
ine 27
kennen 27
leider 27
lesen 27
liebe 27
man@@ 27
mo@@ 27
moderne 27
modernen 27
ner 27
oben 27
schaft 27
spezielle 27
stell@@ 27
tiert 27
tungen 27
tungs@@ 27
verkehr 27
vollständig 27
wichtiger 27
www.@@ 27
z. 27
1@@ 26
21 26
Allerdings 26
Arbeitnehmer 26
Beginn 26
Brüssel 26
Bürgern 26
Erfahrungen 26
Fonds 26
Fällen 26
Grenze 26
Gästebewertungen 26
IT@@ 26
Kunden@@ 26
Mon@@ 26
Nicht 26
Nur 26
Organisation 26
Position 26
Preise 26
Problemen 26
Produktion 26
Raum 26
Reformen 26
Site 26
Standards 26
UN 26
Verpflichtungen 26
Wahlen 26
Webseite 26
Wei@@ 26
Welt@@ 26
alismus 26
ang 26
bedarf 26
ce 26
do@@ 26
erende 26
ex@@ 26
falls 26
festgelegt 26
folgt 26
fällt 26
gefordert 26
gefunden 26
gel@@ 26
geleistet 26
genannt 26
heutigen 26
ig@@ 26
internationaler 26
kannst 26
laden 26
läuft 26
mehreren 26
mer 26
möglicherweise 26
pf@@ 26
qu@@ 26
ran@@ 26
richten 26
tieren 26
tisch 26
umgesetzt 26
unterschiedlichen 26
verbundenen 26
vermeiden 26
w 26
warten 26
welches 26
with 26
Afrika 25
An 25
Anerkennung 25
Anspruch 25
Arbeitsplätze 25
Atmosphäre 25
Aufenthalt 25
Augen 25
Ausschuß 25
Bar@@ 25
Car@@ 25
Co@@ 25
Dienste 25
Do@@ 25
Dollar 25
Du 25
Einigung 25
Erde 25
Flughafen 25
Gebäude 25
Grundsatz 25
Herausforderungen 25
Homepage 25
Jahrhunderts 25
Konferenz 25
Ku@@ 25
Leistungs@@ 25
Mail 25
Man@@ 25
Mittel@@ 25
PC 25
Partnerschaft 25
Selbst@@ 25
Stärkung 25
Worte 25
X 25
Y@@ 25
ali@@ 25
au 25
betroffenen 25
del 25
det 25
eingesetzt 25
ent 25
erenden 25
erforderlichen 25
erfüllen 25
erter 25
erwähnt 25
erzielt 25
ff@@ 25
folgenden 25
freien 25
geh@@ 25
gesprochen 25
gewesen 25
gewährleistet 25
hotel 25
isch@@ 25
istischen 25
ms 25
nachdem 25
nahme 25
politisch 25
sage 25
schöne 25
sofort 25
ss@@ 25
sti@@ 25
stimme 25
strategie 25
technische 25
tiger 25
tionen 25
trotz 25
verfolgen 25
vorliegenden 25
wenige 25
wieder@@ 25
zweite 25
ßen 25
500 24
AG 24
Behandlung 24
Computer 24
Den 24
Dis@@ 24
ES 24
Grenz@@ 24
Hauses 24
Initiativen 24
Irak 24
Japan 24
Leute 24
Meter 24
Musik 24
Nun 24
Option 24
Programms 24
Präsidentschaft 24
Sitzung 24
Straßen@@ 24
V 24
Web@@ 24
Wege 24
Windows 24
Wunsch 24
Zweifel 24
abge@@ 24
achten 24
angesichts 24
bau@@ 24
betreffenden 24
dagegen 24
daten 24
dennoch 24
diskutieren 24
eben 24
einfache 24
erhöhen 24
erk@@ 24
gend 24
genutzt 24
go@@ 24
gten 24
haften 24
hal@@ 24
hoffen 24
häufig 24
hören 24
jeweiligen 24
kl@@ 24
kommenden 24
konzentrieren 24
kulturellen 24
lungen 24
me@@ 24
mindestens 24
mittel 24
neues 24
politischer 24
programme 24
re 24
regionalen 24
scher 24
schutz@@ 24
sicherzustellen 24
siert 24
spielt 24
systems 24
tra@@ 24
umfassende 24
unbe@@ 24
verpflichtet 24
wesentlichen 24
wählen 24
Überwachung 24
ß 24
äre 24
.. 23
15@@ 23
2.@@ 23
23 23
Ausbildung 23
Barcelona 23
Begriff 23
Beteiligung 23
Bewertung 23
Center 23
Charakter 23
Chi@@ 23
Denn 23
Des@@ 23
EUR 23
Fahr@@ 23
Folge 23
Fortschritt 23
Geschäftsordnung 23
Grunde 23
Hoch@@ 23
Idee 23
Informations@@ 23
Iran 23
Kindern 23
London 23
Medien 23
Mitte 23
Ober@@ 23
Partei 23
Produkten 23
Regelung 23
Schritte 23
Status 23
Tra@@ 23
Umfang 23
Wer@@ 23
Z 23
akzeptieren 23
anders 23
beschlossen 23
bildet 23
bo@@ 23
ca. 23
eindeutig 23
eingereicht 23
einiger 23
endes 23
enz 23
erklären 23
erneut 23
erstellt 23
est@@ 23
feststellen 23
finanzielle 23
for@@ 23
form@@ 23
freie 23
from 23
geeignet 23
geschehen 23
gestalten 23
gleich@@ 23
größeren 23
kurz 23
lin@@ 23
paar 23
privaten 23
reisen 23
schützen 23
sierung 23
son 23
stärker 23
su@@ 23
tlich 23
trifft 23
täglich 23
un 23
unten 23
unterstütze 23
ur 23
volle 23
vorgelegt 23
weg 23
werke 23
wesentlich 23
zahlreichen 23
zudem 23
zuletzt 23
zustimmen 23
{ 23
übernachten 23
17@@ 22
90 22
Analyse 22
Aspekt 22
Auto 22
Bal@@ 22
Beim 22
Bel@@ 22
Betriebs@@ 22
Debian 22
Dokument 22
ER@@ 22
Einzel@@ 22
Engagement 22
Erwartungen 22
Gesetze 22
Gra@@ 22
IS@@ 22
Jetzt 22
Juli 22
Karte 22
Kunst 22
Kur@@ 22
Küche 22
Leider 22
Linux 22
Management 22
Markt@@ 22
Menge 22
Mitgliedern 22
Modell 22
Märkte 22
NATO 22
Natur@@ 22
Normen 22
Restaurants 22
Richtlinien 22
Ru@@ 22
Stadt@@ 22
Tätigkeit 22
Vielen 22
Wann 22
alisierung 22
alte 22
and@@ 22
ari@@ 22
außerdem 22
bilden 22
co 22
eingehen 22
ener 22
enten 22
entgegen@@ 22
entweder 22
erinnern 22
erleben 22
erscheint 22
erungs@@ 22
gel 22
großes 22
hingewiesen 22
historischen 22
ina 22
informieren 22
ing 22
jungen 22
ka 22
komme 22
lagen 22
lan@@ 22
les 22
lig 22
mi@@ 22
nennen 22
notwendigen 22
organisation 22
richtigen 22
satz 22
selbstverständlich 22
starke 22
stattfinden 22
stoffe 22
stärken 22
teil@@ 22
teten 22
tions@@ 22
to@@ 22
tre@@ 22
tu@@ 22
tz@@ 22
unabhängig 22
ungsp@@ 22
verbessert 22
vorgesehen 22
werte 22
wünschen 22
zusätzliche 22
13@@ 21
16 21
35 21
70 21
AKP 21
Absatz 21
Abschluss 21
Achtung 21
Adresse 21
Architektur 21
Aufnahme 21
Beschreibung 21
CO@@ 21
Dazu 21
Dennoch 21
Einrichtung 21
Erklärungen 21
Firmen 21
Fischerei@@ 21
Flug@@ 21
Forderung 21
Fotos 21
Gel@@ 21
Herstellung 21
Hälfte 21
IN@@ 21
Installation 21
Justiz 21
Kommunikation 21
Konflikt 21
Konzept 21
Leistung 21
Mitgliedstaat 21
Nahen 21
Oktober 21
Op@@ 21
Protokoll 21
R 21
Regel 21
Schul@@ 21
Stabilität 21
Stand 21
Ukraine 21
Unterkategorien 21
Verhältnis 21
Versuch 21
Vi@@ 21
Völker 21
WTO 21
Web 21
Wein@@ 21
Zeiten 21
anderes 21
ant 21
ation@@ 21
auszu@@ 21
behandelt 21
berei@@ 21
besondere 21
bestimmt 21
betonen 21
betrachten 21
beziehen 21
chte 21
ck 21
danach 21
dank 21
darunter 21
dr@@ 21
eigentlich 21
eingeführt 21
entsprechende 21
erfordert 21
erleichtern 21
erungen 21
eter 21
falsch 21
fonds 21
fort@@ 21
ft 21
gang 21
garantieren 21
gekommen 21
getroffen 21
globale 21
handeln 21
ien 21
ierung 21
junge 21
kan@@ 21
konkrete 21
land@@ 21
ler@@ 21
mer@@ 21
mittels 21
mu@@ 21
nisse 21
nächste 21
persönlich 21
preise 21
produktion 21
rechte 21
spek@@ 21
starken 21
sto@@ 21
tsp@@ 21
tätig 21
umfassenden 21
umwelt@@ 21
unbedingt 21
ven 21
verehrte 21
verfolgt 21
voller 21
zei@@ 21
zentrale 21
zufrieden 21
} 21
Über 21
à 21
21. 20
Agrarpolitik 20
Antrag 20
April 20
Arbeitsplätzen 20
Arten 20
Bei@@ 20
Beifall 20
Beitritt 20
Besuch 20
Betrieb 20
Bild@@ 20
Bilder 20
Booking.com 20
Buch@@ 20
DE 20
Diskussionen 20
Download 20
Empfehlungen 20
Farben 20
Geld@@ 20
Gen@@ 20
Ger@@ 20
Gleichzeitig 20
Größe 20
Haltung 20
Hand@@ 20
Internationalen 20
Jeder 20
Ko@@ 20
Kosovo 20
Kritik 20
Lei@@ 20
Leistungen 20
Liefer@@ 20
Luft@@ 20
Mangel 20
Marketing 20
Mehr 20
Mi@@ 20
Mitteln 20
Mobilität 20
Ni@@ 20
Or@@ 20
Ordnung 20
Paris 20
Pi@@ 20
Produktions@@ 20
Prozesse 20
Regierungs@@ 20
Regime 20
Ri@@ 20
Schaden 20
Schutz@@ 20
Sehenswürdigkeiten 20
Sorge 20
Sport@@ 20
Stellungnahme 20
Sterne 20
Straße 20
Su@@ 20
Texte 20
Unternehmens@@ 20
Verpflichtung 20
Vielfalt 20
Vielzahl 20
Villa 20
Voraussetzungen 20
W 20
aktuelle 20
akzeptiert 20
alität 20
angesprochen 20
ausreichend 20
begann 20
behandeln 20
benötigt 20
berücksichtigen 20
besseren 20
besuchen 20
bitten 20
chen@@ 20
cher@@ 20
dert 20
deutschen 20
dienen 20
eng@@ 20
enn@@ 20
entwicklung 20
erfolgen 20
etten 20
eu@@ 20
funktioniert 20
fälle 20
gearbeitet 20
gehalten 20
geschieht 20
gkeit 20
gleiche 20
go 20
höhere 20
jederzeit 20
kurzen 20
letzte 20
lose 20
markt 20
mm 20
mon@@ 20
möglichen 20
nachhaltigen 20
ner@@ 20
offenen 20
por@@ 20
private 20
prüfen 20
san@@ 20
spanischen 20
spiele 20
stellte 20
stes 20
ständig 20
ta 20
tete 20
ungs- 20
ve 20
verkehrs 20
vorschriften 20
wahrscheinlich 20
wenden 20
wer 20
zentralen 20
zugleich 20
zugunsten 20
zunehmend 20
zwei@@ 20
Öl@@ 20
überprüfen 20
2020 19
20@@ 19
45 19
60 19
AC@@ 19
AN@@ 19
AS@@ 19
Afghanistan 19
Agenda 19
Ak@@ 19
Banken 19
Beschluss 19
CD 19
Dar@@ 19
Entschließungsantrag 19
Entwicklungen 19
Entwurf 19
Februar 19
Fraktionen 19
Fälle 19
Gebieten 19
Gemeinsamen 19
Gestaltung 19
Grundsätze 19
Hohen 19
II 19
IT 19
Indien 19
Kar@@ 19
Kinder@@ 19
Konsens 19
Kontakt 19
Kontext 19
Kraft@@ 19
Königreich 19
Maße 19
Methode 19
Min@@ 19
Mor@@ 19
New 19
Nord@@ 19
Paket 19
Per@@ 19
Po@@ 19
Polen 19
Priorität 19
Prüfung 19
See 19
Sehr 19
Suche 19
Tagung 19
Tri@@ 19
Universität 19
Verbot 19
Verhandlungs@@ 19
Verwaltung 19
Veränderungen 19
Wa@@ 19
Wi@@ 19
Wünsche 19
Zimmern 19
abgeschlossen 19
ac@@ 19
acht 19
ah@@ 19
anbieten 19
angeboten 19
aufmerksam 19
ausschusses 19
außer 19
barkeit 19
benutzen 19
bern 19
beträgt 19
dar@@ 19
derartige 19
dienste 19
dritten 19
eingehalten 19
einsetzen 19
entscheiden 19
entschieden 19
entstehen 19
ep@@ 19
erer 19
erfahren 19
ergreifen 19
erlauben 19
fi@@ 19
fordere 19
gerecht 19
gra@@ 19
gruppe 19
heiten 19
hi@@ 19
hinzufügen 19
historische 19
ier@@ 19
ino 19
insgesamt 19
ir@@ 19
iz@@ 19
keinerlei 19
komplett 19
künftigen 19
lernen 19
lichem 19
liefern 19
lokalen 19
ma 19
möglichst 19
nis@@ 19
per@@ 19
platz 19
ru@@ 19
sa@@ 19
schicken 19
schreiben 19
sektor 19
sh@@ 19
sicherheit 19
sichern 19
sieben 19
tel@@ 19
testen 19
und@@ 19
uner@@ 19
verlangt 19
verlieren 19
wann 19
werk 19
wären 19
é 19
überzeugt 19
0.@@ 18
00@@ 18
19 18
22 18
AT@@ 18
Abschließend 18
Anlagen 18
Arbeiten 18
Aufbau 18
Außen@@ 18
Bad 18
Bedürfnisse 18
Bildungs@@ 18
Botschaft 18
Dienst 18
ER 18
Einhaltung 18
Einklang 18
Eltern 18
Entwicklungsländer 18
Europäer 18
Experten 18
Familien@@ 18
Friedens@@ 18
Gas@@ 18
Gesellschaften 18
Großbritannien 18
Har@@ 18
Harmonisierung 18
Hei@@ 18
Herausforderung 18
Hintergrund 18
Hinweis 18
IM@@ 18
Identität 18
Innovation 18
Kenntnis 18
Klicken 18
Klima@@ 18
La 18
Land@@ 18
Leitlinien 18
Liberalisierung 18
Lu@@ 18
Maß 18
Microsoft 18
Mindest@@ 18
Not@@ 18
Pan@@ 18
Plenum 18
Portugal 18
Prinzip 18
Projekt@@ 18
Regelungen 18
Rei@@ 18
Reise 18
Schi@@ 18
Schäden 18
Spiele 18
Staats@@ 18
System@@ 18
Technologien 18
Teilen 18
Tier@@ 18
Tiere 18
Unternehmens 18
Urlaub 18
Verkauf 18
Vom 18
Vorstellung 18
Wahl@@ 18
Wel@@ 18
Werk@@ 18
Wohn@@ 18
Zudem 18
Zur 18
Zweck 18
ad 18
ales 18
alt 18
ang@@ 18
anische 18
anischen 18
anstatt 18
ausdrücklich 18
befassen 18
bes@@ 18
beschränkt 18
bestehende 18
beteiligt 18
ci@@ 18
ckt 18
co@@ 18
dir 18
dischen 18
echte 18
ef@@ 18
ess@@ 18
essen 18
fahr@@ 18
fahrt 18
gefördert 18
gegenwärtigen 18
gegründet 18
gelegt 18
genug 18
gewinnen 18
gs 18
ha@@ 18
herzlich 18
hilft 18
informiert 18
ismus 18
kaum 18
langen 18
lat@@ 18
len@@ 18
losen 18
ländlichen 18
lö@@ 18
mittel@@ 18
mm@@ 18
näher 18
persönliche 18
pi@@ 18
ppen 18
profitieren 18
prä@@ 18
que 18
rechtlichen 18
reden 18
reicht 18
schi@@ 18
schneller 18
see 18
ses 18
sorgt 18
spezifische 18
spricht 18
staaten 18
staatlichen 18
stellung 18
stimmt 18
teilweise 18
tens 18
tik@@ 18
tiven 18
ton 18
tr@@ 18
tri@@ 18
trägt 18
tsch@@ 18
tä@@ 18
ursprünglichen 18
van 18
verabschiedet 18
verlassen 18
versorgung 18
vorgeschlagenen 18
weist 18
ys 18
äu@@ 18
äußern 18
# 17
1,@@ 17
2. 17
2011 17
23@@ 17
3.@@ 17
Abkommens 17
Agentur 17
Agrar@@ 17
Amerika 17
Anfragen 17
Anliegen 17
Ausführungen 17
Auto@@ 17
Bestandteil 17
Chance 17
Deswegen 17
Deutschen 17
Du@@ 17
Durchführung 17
Ebenso 17
Eindruck 17
Einfluss 17
Englisch 17
Euro@@ 17
Finanzkrise 17
Freiheiten 17
Freunde 17
Funktionen 17
Gegen@@ 17
Gesetzgebung 17
Google 17
Gründe 17
Hel@@ 17
Hersteller 17
Infrastruktur 17
Inhalte 17
Kirche 17
Kontrollen 17
Koordinierung 17
Kunst@@ 17
Lebens 17
Met@@ 17
Mio. 17
Mittelpunkt 17
Musik@@ 17
Name 17
Nummer 17
Nutzer 17
Pflicht 17
Plan 17
Planung 17
Politiker 17
Pool 17
Por@@ 17
Punkten 17
Reform@@ 17
Stimme 17
Struktur 17
Städte 17
Teilnahme 17
Terrasse 17
Test@@ 17
This 17
UN@@ 17
Untersuchungen 17
Veranstaltungen 17
Verringerung 17
Wegen 17
West@@ 17
Westen 17
Währung 17
Zeit@@ 17
Zoll@@ 17
Zugriff 17
Zuständigkeit 17
Zusätzlich 17
aff@@ 17
ana 17
aren 17
ast@@ 17
beglückwünschen 17
beinhaltet 17
belie@@ 17
beschäftigt 17
betroffen 17
britischen 17
ca 17
deiner 17
dient 17
durchaus 17
ehr@@ 17
ei 17
entsprechen 17
entstanden 17
ernst 17
erstellen 17
ertes 17
ett 17
fall 17
freiheit 17
gemeinschaftlichen 17
gestern 17
gewonnen 17
geäußert 17
glichen 17
hand@@ 17
heraus 17
hergestellt 17
hinter@@ 17
hinweisen 17
hängt 17
ideale 17
innovative 17
institutionellen 17
ist@@ 17
jeweils 17
kostenlos 17
kre@@ 17
kur@@ 17
kurzem 17
legt 17
lieber 17
ligen 17
manche 17
mel@@ 17
ni@@ 17
nis 17
no@@ 17
ob@@ 17
online 17
ori@@ 17
ou@@ 17
rechts@@ 17
regelmäßig 17
regionale 17
reich@@ 17
res 17
rä@@ 17
ser 17
service 17
siehe 17
sodass 17
spezifischen 17
strategischen 17
sätze 17
teil 17
ters 17
tiges 17
tive 17
treiben 17
trotzdem 17
u. 17
ums 17
vieler 17
vorgeschlagen 17
vorhanden 17
vorschlagen 17
wa@@ 17
wachsen 17
weiterer 17
willkommen 17
wirksame 17
wollte 17
wor@@ 17
zen@@ 17
zentrum 17
zugänglich 17
zuvor 17
übernommen 17
überwinden 17
übrigen 17
16@@ 16
17 16
19. 16
1997 16
3. 16
32 16
43 16
8.@@ 16
96 16
Abend 16
Ad@@ 16
Aktionen 16
All 16
Angaben 16
Anlass 16
Ansch@@ 16
Apartments 16
Au@@ 16
Auftrag 16
Ausbildungs@@ 16
Ausgangspunkt 16
Ausnahme 16
Aussicht 16
BIP 16
Ban@@ 16
Bedenken 16
Beispiele 16
Ben@@ 16
Beschränkungen 16
Br@@ 16
Code 16
DVD 16
Del@@ 16
Dem 16
Diskriminierung 16
Dr. 16
EC@@ 16
Einrichtungen 16
Empfehlung 16
Energi@@ 16
Fischerei 16
Fre@@ 16
Fuß 16
Führung 16
Garten 16
Ges@@ 16
Gespräche 16
Globalisierung 16
Haup@@ 16
Hoffnung 16
Institution 16
Kind 16
Komfort 16
Krankheiten 16
Krisen@@ 16
Lesung 16
Mac@@ 16
Methoden 16
Mitgliedschaft 16
Männer 16
Norden 16
Preis@@ 16
Reaktion 16
ST@@ 16
Seine 16
Sommer 16
Stadtzentrum 16
Standard 16
Tatsächlich 16
Ti@@ 16
Tre@@ 16
Trotzdem 16
Umwel@@ 16
Versch@@ 16
Vorhaben 16
Wein 16
Wieder@@ 16
Zivilgesellschaft 16
Zustand 16
Zypern 16
allgemeine 16
angezeigt 16
anlagen 16
ara 16
ard 16
aussch@@ 16
beachten 16
besorgt 16
bestand 16
bestätigt 16
beteiligten 16
betrachtet 16
bildung 16
bisherigen 16
braucht 16
bü@@ 16
cke 16
darstellen 16
demokratisch 16
des@@ 16
digen 16
direkten 16
dlich 16
dritte 16
ed 16
ehemaligen 16
einig 16
einzelne 16
elt 16
en- 16
enz@@ 16
erei 16
erfolgt 16
erhält 16
erhältlich 16
erzielen 16
fel@@ 16
fest@@ 16
fol@@ 16
formen 16
fs 16
ften 16
fähigkeit 16
gebiet 16
gei@@ 16
gelegen 16
gelingt 16
gelungen 16
gewählt 16
glich 16
gte 16
haltung 16
har@@ 16
hauptsächlich 16
haus 16
he@@ 16
hen 16
hervor@@ 16
hoffentlich 16
holen 16
höheren 16
ier 16
ierte 16
institutionelle 16
inter@@ 16
jedenfalls 16
klaren 16
konkreten 16
krise 16
lau@@ 16
links 16
lt 16
lung 16
menschliche 16
menschlichen 16
mes 16
miteinander 16
mut@@ 16
nahezu 16
ok@@ 16
om 16
ons 16
organisiert 16
ou 16
pl@@ 16
po@@ 16
position 16
punkt 16
raum 16
russischen 16
rü@@ 16
schönen 16
sion 16
solcher 16
stands 16
stelle 16
stre@@ 16
stung 16
ständigen 16
tigkeit 16
tn@@ 16
tor@@ 16
täts@@ 16
unmittelbar 16
unterschiedliche 16
unverzüglich 16
usw. 16
va 16
ver 16
verb@@ 16
verbringen 16
verfügbar 16
verhindert 16
vorgesehenen 16
welt 16
wodurch 16
² 16
ße 16
öffnen 16
.... 15
160 15
6.@@ 15
AL@@ 15
All@@ 15
Allgemeinen 15
Am@@ 15
Angriff 15
Arbeitslosigkeit 15
Ausflüge 15
Ausführung 15
Außenpolitik 15
Beratung 15
Bereitschaft 15
Berlin 15
Berliner 15
Berufs@@ 15
Berücksichtigung 15
Beschäftigungs@@ 15
Beweis 15
Browser 15
Cam@@ 15
Com@@ 15
Computer@@ 15
Details 15
Dokumente 15
Einbeziehung 15
End@@ 15
Energie@@ 15
Enterprise 15
Festlegung 15
For@@ 15
Fort@@ 15
Fu@@ 15
Funktion@@ 15
Gast@@ 15
Geb@@ 15
Gegensatz 15
Generation 15
Gesetz 15
Gu@@ 15
Gästen 15
Hand 15
Handeln 15
Hotel@@ 15
Hü@@ 15
Instrumente 15
Kal@@ 15
Kamera 15
Karten 15
Kauf@@ 15
Kenn@@ 15
Klein@@ 15
Kompromiss 15
Kontroll@@ 15
Kroatien 15
Kunde 15
Kurz@@ 15
Körper@@ 15
Leitung 15
Mechanismen 15
Nachfrage 15
Niveau 15
Ohne 15
Organ@@ 15
Pa@@ 15
Park 15
Pat@@ 15
Patienten 15
Poli@@ 15
Praktiken 15
Programmen 15
Prä@@ 15
Ra@@ 15
Rad@@ 15
Ratspräsidentschaft 15
Regimes 15
Reise@@ 15
Sh@@ 15
Ski@@ 15
Standort 15
Station 15
Stil 15
Straf@@ 15
Strukturen 15
Summe 15
Teil@@ 15
Th@@ 15
Treffen 15
Trotz 15
UNO 15
Unabhängigkeit 15
Unterschiede 15
Vergleich 15
Verlust 15
Vermittlung 15
Verständnis 15
Vertretern 15
Video 15
Volks@@ 15
Voll@@ 15
Voraussetzung 15
Waffen 15
Waren 15
Werke 15
Winter@@ 15
Wissen 15
absch@@ 15
allgemein 15
amen 15
anerkannt 15
anzuzeigen 15
arbeit 15
art 15
ausgeführt 15
bedeuten 15
bedingungen 15
behörden 15
bel 15
bemüht 15
bericht 15
besitzt 15
betreffend 15
bezahlen 15
breiten 15
chs 15
con@@ 15
d.h. 15
daraus 15
dest@@ 15
dienst 15
dlicher 15
du@@ 15
effizient 15
eigenes 15
einfachen 15
einfacher 15
einrichtungen 15
eiten 15
ek 15
eng 15
entwickelten 15
eri@@ 15
erscheinen 15
ersetzen 15
est 15
fa@@ 15
ff 15
finanzieren 15
fl@@ 15
folgende 15
fre@@ 15
froh 15
ft@@ 15
fühlen 15
gaben 15
gebiete 15
gef@@ 15
gegangen 15
gegenwärtige 15
geringen 15
gestattet 15
gro@@ 15
groß 15
gungen 15
gutes 15
hervorheben 15
hervorragende 15
ho@@ 15
hren 15
ini 15
italienischen 15
jener 15
jüngsten 15
ko 15
ks 15
last 15
laut 15
lich@@ 15
mp@@ 15
nden 15
out 15
ph@@ 15
praktisch 15
rate 15
relativ 15
ro 15
scheinen 15
schlagen 15
schwierig 15
schönsten 15
seite 15
sel@@ 15
selber 15
sicherung 15
sied@@ 15
sions@@ 15
speziellen 15
sprachen 15
stan@@ 15
tel 15
tere 15
tig@@ 15
tion@@ 15
tlicher 15
tro@@ 15
tur@@ 15
uli@@ 15
ungefähr 15
unmöglich 15
verlangen 15
verloren 15
versichern 15
verteilt 15
vollkommen 15
vollständige 15
vorgeschlagene 15
vorher 15
wasser@@ 15
weiteres 15
wirksam 15
zimmer 15
zug 15
zusammenarbeiten 15
zusätzlich 15
zählen 15
Übereinstimmung 15
í@@ 15
1.@@ 14
12. 14
19@@ 14
20. 14
30@@ 14
AR@@ 14
Abschnitt 14
Alter 14
Angebote 14
Anteil 14
At@@ 14
August 14
Ausland 14
Aussch@@ 14
Autos 14
Bank@@ 14
Bedarf 14
Berg@@ 14
Beziehung 14
Bis 14
Boden 14
Brasilien 14
CO2 14
Con@@ 14
Definition 14
Dek@@ 14
Dem@@ 14
Dom@@ 14
Doppel@@ 14
Dreh@@ 14
ES@@ 14
Effizienz 14
Eigenschaften 14
Einheit 14
Element 14
Ereignisse 14
Erst 14
Farb@@ 14
Fest@@ 14
Fl@@ 14
Forum 14
Foto 14
Fähigkeiten 14
Fü@@ 14
Gebiete 14
Gol@@ 14
Golf 14
Griechenland 14
Gro@@ 14
Haus@@ 14
Hindernisse 14
Hinter@@ 14
Ho@@ 14
IP 14
Inseln 14
Inter@@ 14
Investoren 14
Je 14
Jo@@ 14
Ju@@ 14
Kan@@ 14
Kapitel 14
Kilometer 14
Klimawandel 14
Kol@@ 14
Kom@@ 14
Kombination 14
Konsequenzen 14
Kopenhagen 14
Kurs 14
LA@@ 14
La@@ 14
Link 14
Lö@@ 14
Madrid 14
Mark@@ 14
Marke 14
Mehr@@ 14
Minister 14
Moment 14
Monat 14
Männern 14
Netz 14
Newsletter 14
Nor@@ 14
Nutzen 14
Optionen 14
Orte 14
Pap@@ 14
Pass@@ 14
Pra@@ 14
Prinzipien 14
Privat@@ 14
Produkt 14
Provinz 14
RO@@ 14
Rat@@ 14
Ratsvorsitz 14
Realität 14
Reduzierung 14
Risiken 14
Roma 14
Sa@@ 14
Sanktionen 14
Schlüssel@@ 14
Schulden 14
Services 14
Signal 14
Sinn 14
Sitz 14
Sitz@@ 14
Sol@@ 14
Sonnen@@ 14
Spezi@@ 14
Sport 14
Sprach@@ 14
Staat@@ 14
Staates 14
Standard@@ 14
Strecke 14
Technik 14
Transport@@ 14
Verbraucher@@ 14
Verbrechen 14
Verbreitung 14
Verteilung 14
Video@@ 14
Vorschlägen 14
Vorsitzenden 14
Vorteile 14
War@@ 14
Weil 14
Werk 14
Wesentlichen 14
Wider@@ 14
Wirkung 14
Wirtschafts- 14
Wirtschaftswachstum 14
Währungsunion 14
Zei@@ 14
Zimmerbeschreibung 14
Zwecke 14
Zwei 14
abhängig 14
absolut 14
ade 14
akt 14
alisiert 14
amm@@ 14
andererseits 14
angemessene 14
ast 14
ativ 14
atoren 14
aufgefordert 14
aufzunehmen 14
aum 14
ausgerichtet 14
ausgesprochen 14
ausgezeichnete 14
außerordentlich 14
bahn 14
basiert 14
begrenzt 14
berechtigt 14
berühmten 14
bestätigen 14
bezieht 14
bin@@ 14
bislang 14
bri@@ 14
dargelegt 14
del@@ 14
demokratische 14
dig 14
druck@@ 14
ds 14
dung 14
einzigen 14
empfehlen 14
entdecken 14
erfolgreiche 14
ergeben 14
ernsthaft 14
erweisen 14
etc. 14
ets 14
euch 14
fahrts@@ 14
fas@@ 14
fern 14
festgestellt 14
ffen 14
fordert 14
formuliert 14
freuen 14
fte 14
fähig 14
fördert 14
führende 14
gabe 14
garantiert 14
geehrte 14
geprüft 14
gerät 14
gezogen 14
gezwungen 14
gh@@ 14
greif@@ 14
griechischen 14
größeres 14
guter 14
gänge 14
haft 14
hafte 14
halt 14
heißen 14
hier@@ 14
hilfe 14
ideal 14
ierten 14
individuell 14
internen 14
istische 14
junger 14
karte 14
kontrolle 14
kosten@@ 14
kte 14
kurze 14
kürzlich 14
legung 14
leichter 14
letztlich 14
liste 14
lokale 14
ls 14
lu@@ 14
mag 14
min@@ 14
mischen 14
miss@@ 14
mitten 14
mt 14
musste 14
nachhaltige 14
niemand 14
nochmals 14
nor@@ 14
normalen 14
nummer 14
nung 14
ologie 14
oren 14
politisches 14
positiven 14
prozesses 14
qualität 14
rasch 14
rat 14
rates 14
reib@@ 14
rel@@ 14
rufen 14
schließen 14
schnellen 14
schutz 14
seien 14
senden 14
serviert 14
sicheren 14
sinn@@ 14
sinnvoll 14
sionen 14
sm@@ 14
sonst 14
sor@@ 14
soweit 14
sparen 14
sse 14
staatliche 14
ste@@ 14
stoffen 14
stolz 14
stra@@ 14
sämtliche 14
tigung 14
tik 14
toren 14
tt 14
tt@@ 14
umfasst 14
unabhängige 14
unabhängigen 14
unterscheiden 14
unver@@ 14
verein@@ 14
verringern 14
vielmehr 14
wa 14
war@@ 14
weltweiten 14
wenigen 14
weshalb 14
wichtigste 14
wiederum 14
wollten 14
zeichen 14
zeichnet 14
zieh@@ 14
zunehmen 14
zählt 14
¤ 14
Öffnung 14
Überzeugung 14
á@@ 14
äl@@ 14
übertragen 14
übt 14
ün@@ 14
Гј@@ 14
-- 13
10@@ 13
1995 13
27 13
300 13
7. 13
95 13
Abendessen 13
Air 13
Alternative 13
Angesichts 13
Anpassung 13
Anti@@ 13
Aspekten 13
Aufgrund 13
Bahnhof 13
Beach 13
Berichterstatters 13
Besonders 13
Betrag 13
Bu@@ 13
Charta 13
Club 13
Dadurch 13
Dec@@ 13
Delegation 13
Denk@@ 13
Dimension 13
Dort 13
Drittens 13
Druck@@ 13
Durch@@ 13
EG 13
EN@@ 13
Eigen@@ 13
Einwanderung 13
Erhöhung 13
Fan@@ 13
Feld 13
Fenster 13
Finanzierungs@@ 13
Flughäfen 13
Flüchtlinge 13
Formen 13
Freude 13
Fru@@ 13
GNU 13
Gar@@ 13
Garantie 13
Gebrauch 13
Gefühl 13
Gelder 13
Gerichte 13
Gleichstellung 13
Grundrechte 13
Haftung 13
Hinweise 13
IC@@ 13
ID 13
Im@@ 13
Innovationen 13
International 13
Irland 13
Ja 13
Jedes 13
Klimaanlage 13
Kommissions@@ 13
Konvent 13
Kopf@@ 13
Künstler 13
Lern@@ 13
Liebe 13
MO@@ 13
Medien@@ 13
Mei@@ 13
Mein 13
Messe 13
Militär@@ 13
Morgen 13
Motor@@ 13
Multi@@ 13
Nachhaltigkeit 13
Nacht 13
Neue 13
Noch 13
PL@@ 13
PT 13
Pal@@ 13
Personal@@ 13
Pflichten 13
Phase 13
Plan@@ 13
Poly@@ 13
Potenzial 13
RE@@ 13
Rechten 13
Rechtsstaatlichkeit 13
Redner 13
Regulierung 13
Ren@@ 13
SP@@ 13
SV 13
Sach@@ 13
Sal@@ 13
Schiff@@ 13
Serie 13
Situationen 13
Sommer@@ 13
Sonne 13
Start 13
Strategien 13
Straßen 13
Studio 13
Super@@ 13
Tages@@ 13
Tausende 13
Tel@@ 13
Tonnen 13
Tool 13
Tor@@ 13
Unterkunft 13
Urteil 13
Vertrags@@ 13
Verträge 13
Vielleicht 13
Volkspartei 13
Vorbereitung 13
Vorschlags 13
Vorteil 13
Willen 13
Wirtschaftspolitik 13
York 13
Zusammenhalt 13
abkommen 13
af@@ 13
aktuell 13
ame 13
amerikanische 13
angehen 13
angeht 13
angemessenen 13
angesehen 13
ann@@ 13
app@@ 13
are@@ 13
auftreten 13
ausführlich 13
ausreichende 13
auswärtige 13
az@@ 13
bedeutende 13
befürwortet 13
beginnt 13
begonnen 13
bekämpfen 13
bene 13
bequem 13
beschrieben 13
beschränken 13
bezug 13
br@@ 13
bt 13
ches 13
chinesischen 13
desto 13
deten 13
dienstleistungen 13
dige 13
durchführen 13
ec@@ 13
einheitliche 13
einheitlichen 13
elten 13
enst@@ 13
erfolgreichen 13
ergriffen 13
erhöht 13
erinnert 13
erreichbar 13
etc 13
ey 13
fach@@ 13
fand 13
fassung 13
feld 13
festzulegen 13
finanziert 13
finde 13
fizierung 13
funktionieren 13
gedacht 13
gegenwärtig 13
gehende 13
geltenden 13
gelöst 13
genauso 13
gene 13
gener 13
gener@@ 13
gewisse 13
gewähren 13
gewährt 13
gr@@ 13
grenz@@ 13
großem 13
gruppen 13
größer 13
gu@@ 13
hab@@ 13
harmonisi@@ 13
have 13
he 13
heraus@@ 13
hr@@ 13
höchste 13
illegalen 13
indi@@ 13
interessiert 13
international 13
inzwischen 13
ischem 13
isen 13
jene 13
jährlich 13
klare 13
kontrollen 13
kontrollieren 13
kten 13
kulturelle 13
kämpfen 13
kümmern 13
künftige 13
lauf@@ 13
leg@@ 13
leistungs@@ 13
les@@ 13
letztendlich 13
liefert 13
ließ 13
län@@ 13
länger 13
lösung 13
mal@@ 13
markt@@ 13
ment@@ 13
mil@@ 13
mitteilen 13
na 13
nationaler 13
nt 13
nten 13
nötig 13
ore 13
par@@ 13
pen 13
pre@@ 13
produkte 13
produziert 13
reduziert 13
reiche 13
schlag 13
schweren 13
sicht 13
sichtbar 13
sofern 13
son@@ 13
spiel@@ 13
sprach@@ 13
stand@@ 13
stat@@ 13
stein 13
stellten 13
steuern 13
stischen 13
stoff 13
stoff@@ 13
stände 13
sü@@ 13
technik 13
teilnehmen 13
teren 13
text 13
theit 13
tin 13
tion 13
tritt 13
tut 13
unden 13
unterschiedlicher 13
uren 13
uri@@ 13
vereinbart 13
verstanden 13
verstärkt 13
verteidigen 13
very 13
vo@@ 13
vorgenommen 13
vorliegende 13
vorzulegen 13
wagen 13
wal@@ 13
we@@ 13
welchem 13
werfen 13
wesen 13
westlichen 13
wichtiges 13
wo@@ 13
zeichnen 13
zent@@ 13
zuge@@ 13
zugestimmt 13
zukommen 13
Ã 13
Änderungsanträgen 13
Öl 13
Überprüfung 13
és 13
..... 12
11. 12
14. 12
15. 12
1998 12
2013 12
29 12
30. 12
34 12
5,@@ 12
50@@ 12
64 12
@ 12
AM@@ 12
AU@@ 12
Absch@@ 12
Abschaffung 12
Absicht 12
Agenturen 12
Anbieter 12
Asyl@@ 12
Befugnisse 12
Beihilfen 12
Belarus 12
Bemerkungen 12
Berichten 12
Bes@@ 12
Bewegung 12
Bord 12
Bra@@ 12
Bri@@ 12
Bru@@ 12
Costa 12
Dan@@ 12
Datenbank 12
Datenschutz@@ 12
Denken 12
ET@@ 12
EW@@ 12
Einwohner 12
Elektro@@ 12
Elemente 12
Emissionen 12
Energiequellen 12
Entwicklungsländern 12
Errichtung 12
Farbe 12
Film@@ 12
Fo@@ 12
Format 12
Formular 12
Gegenstand 12
Geist 12
Gerät 12
Geschäfte 12
Gewährleistung 12
Go@@ 12
Gott 12
Grad 12
Ha@@ 12
Hauptstadt 12
Hol@@ 12
Kern 12
Kompetenzen 12
Kosten@@ 12
Krieges 12
Lan@@ 12
Landwirte 12
Lebensmittel 12
Lebensmittel@@ 12
Lieferung 12
ME@@ 12
Mal@@ 12
Marokko 12
Materialien 12
Menschenrechten 12
Mittelmeer@@ 12
Modelle 12
Monate 12
Montage 12
Märkten 12
NI 12
Nachbarn 12
Nachfolgend 12
Nation 12
Netzwerk 12
Nieder@@ 12
Nutz@@ 12
OS 12
Ob 12
Oberfläche 12
Organe 12
PPE 12
Park@@ 12
Preisen 12
Q@@ 12
Ratifizierung 12
Rechts 12
Rezeption 12
Rob@@ 12
Rund@@ 12
Runde 12
Schreiben 12
Schweiz 12
Sozi@@ 12
Spar@@ 12
Spaß 12
Stein@@ 12
Stellung 12
Studie 12
Studien 12
Städten 12
Subjek@@ 12
Te@@ 12
Titel 12
Tod 12
Tourismus 12
Transport 12
Tro@@ 12
Tür 12
USS 12
Umfeld 12
Umständen 12
Umweltschutz 12
Vater 12
Verbesserungen 12
Verbraucherschutz 12
Vereinfachung 12
Verhalten 12
Versionen 12
Vertrages 12
Vorgehen 12
Webseiten 12
Weiter@@ 12
Welche 12
Wirksamkeit 12
Wo 12
Y 12
Zahlungen 12
Zeitplan 12
Zielen 12
Zusatz@@ 12
Zwei@@ 12
ada 12
afrikanischen 12
agi@@ 12
anbelangt 12
ander@@ 12
angenommenen 12
anzupassen 12
archi@@ 12
ations 12
ativen 12
ats 12
ausgegangen 12
ausgezeichneten 12
ausschuss 12
aussprechen 12
bad 12
barer 12
bearbeiten 12
bedeutenden 12
beliebigen 12
bereitzustellen 12
berufliche 12
bestimmter 12
beteiligen 12
betreffen 12
betrieb@@ 12
bewältigen 12
bezeichnet 12
bil@@ 12
bl@@ 12
bro@@ 12
buch 12
chtet 12
con 12
damals 12
deckt 12
dere 12
dete 12
deutsche 12
dliche 12
effektiver 12
einerseits 12
eingegangen 12
eingesch@@ 12
einverstanden 12
emp@@ 12
enk@@ 12
ente 12
enthaltenen 12
entscheidende 12
entwurf 12
enzen 12
erarbeiten 12
erfordern 12
erfreut 12
erhielt 12
ersch@@ 12
ev@@ 12
fanden 12
fehlt 12
festzustellen 12
fo@@ 12
freundlich 12
freundliche 12
früheren 12
führ@@ 12
füllen 12
ga 12
gabe@@ 12
gebildet 12
gehenden 12
gem 12
gemeinsames 12
genen 12
gerichtet 12
gest@@ 12
gewidmet 12
gewissen 12
gli@@ 12
greifen 12
grund 12
grundlegenden 12
hart 12
hohes 12
http 12
humanitäre 12
ich@@ 12
id 12
ig 12
ili@@ 12
individuelle 12
ines 12
inform@@ 12
informationen 12
ingen 12
integriert 12
interessante 12
interessanten 12
j 12
jemand 12
jährigen 12
kla@@ 12
kol@@ 12
komm@@ 12
komplette 12
kor@@ 12
korrekt 12
kti@@ 12
langfristig 12
lebens@@ 12
lichkeiten 12
liefer@@ 12
lig@@ 12
lige 12
länder 12
manchmal 12
mangel@@ 12
maschinen 12
melden 12
met@@ 12
mor@@ 12
mögliche 12
natürlichen 12
net 12
nieder@@ 12
niedrigen 12
nte 12
nunmehr 12
od@@ 12
oni 12
onien 12
organisationen 12
positiv 12
positive 12
praktischen 12
probleme 12
programmen 12
rechnen 12
rechten 12
rei@@ 12
relevanten 12
ren 12
ren@@ 12
ressourcen 12
ris@@ 12
schließt 12
schneiden 12
setzung 12
sichere 12
sichergestellt 12
smus 12
sobald 12
sozial@@ 12
sozialer 12
spreche 12
standards 12
starten 12
stehende 12
steigen 12
ster@@ 12
stil@@ 12
stri@@ 12
struktur 12
stätigkeit 12
sucht 12
tag@@ 12
ther@@ 12
tigkeiten 12
tigte 12
trä@@ 12
tten 12
tur 12
tw@@ 12
ub@@ 12
unge@@ 12
ungser@@ 12
ungsverfahren 12
up 12
uss 12
verbreitet 12
vers@@ 12
vertrag 12
verursacht 12
verurteilt 12
verweisen 12
verwende 12
veröffentlicht 12
vier@@ 12
vorbereitet 12
vorstellen 12
vorzu@@ 12
wander@@ 12
wasser 12
wege 12
welt@@ 12
wirken 12
wirksamen 12
wirtschaft 12
wonach 12
wör@@ 12
ya 12
you 12
zentrali@@ 12
zer 12
zes 12
zeug@@ 12
zufolge 12
zurückzu@@ 12
zuständig 12
zuständigen 12
Ö@@ 12
Österreich 12
Übereinkommen 12
Übrigen 12
ähnliche 12
äm@@ 12
ärmsten 12
überein 12
übermitteln 12
übernimmt 12
überzeugen 12
03@@ 11
14@@ 11
1996 11
Aktion 11
Alles 11
Alpen 11
Ambiente 11
Amt 11
Amts@@ 11
Andererseits 11
Annehmlichkeiten 11
Anschluss 11
Anstieg 11
Anwendungs@@ 11
Arbeit@@ 11
Argumente 11
Ausbeutung 11
Austausch 11
Bahn 11
Balkan 11
Bas@@ 11
Behörde 11
Belgien 11
Best@@ 11
Bestätigung 11
Besucher 11
Betrifft 11
Bio@@ 11
Boot 11
Buch 11
Bucht 11
Bus@@ 11
Business 11
Bürger@@ 11
Comp@@ 11
Cor@@ 11
David 11
De 11
Des 11
Dienstleistungs@@ 11
Dingen 11
Direkt@@ 11
Donnerstag 11
Dra@@ 11
Dusche 11
EZB 11
Ehre 11
Einstellung 11
Eisenbahn@@ 11
El@@ 11
Energieeffizienz 11
Energien 11
Erbe 11
Erfüllung 11
Erreichen 11
Erzeugnisse 11
Europe 11
Eurozone 11
FR 11
Faktor 11
Far@@ 11
Fern@@ 11
Fi@@ 11
Film 11
Flüchtlings@@ 11
Freunden 11
Fuß@@ 11
Gew@@ 11
Gewicht 11
Glas@@ 11
Gleich@@ 11
Gleichgewicht 11
Grand 11
Großteil 11
Grünen 11
Hal@@ 11
Haut 11
Himmel 11
Holz@@ 11
IL@@ 11
IWF 11
Immobilien@@ 11
Innovations@@ 11
Ir@@ 11
Jahrzehnten 11
Jean 11
Jugoslawien 11
KMU 11
KOM 11
Ka@@ 11
Kapital@@ 11
Kauf 11
Kohäsionspolitik 11
Kollege 11
Komponenten 11
Konflikte 11
Konto 11
Kopf 11
Kre@@ 11
Kriegs@@ 11
Lag@@ 11
Laufe 11
Lehr@@ 11
Lehrer 11
Lok@@ 11
Lun@@ 11
Mach@@ 11
Manager 11
Maschine 11
Maßnahme 11
Me@@ 11
Meiner 11
Menschen@@ 11
Merkmale 11
Minderheit 11
Museum 11
Mut 11
Nachrichten 11
Ne@@ 11
Nein 11
No@@ 11
Nord 11
Offenheit 11
Open 11
Orten 11
Parlamente 11
Pas@@ 11
Paul 11
Personen@@ 11
Pla@@ 11
Post@@ 11
Programm@@ 11
Projekten 11
Rau@@ 11
Rechnung 11
Regierungschefs 11
Rich@@ 11
Risiko 11
Rot@@ 11
Rotary 11
Rumänien 11
Sachen 11
Schiffe 11
Schluss 11
Schlüssel 11
Schwer@@ 11
Schönheit 11
Selbstverständlich 11
Siemens 11
Software@@ 11
Sollte 11
Souveränität 11
Spaziergang 11
Stabilisierung 11
Stad@@ 11
Steuern 11
Stimmen 11
Strand@@ 11
Studenten 11
Studi@@ 11
Syn@@ 11
Systemen 11
Süden 11
TI@@ 11
Ta@@ 11
Tabak@@ 11
The@@ 11
US@@ 11
Ungarn 11
Val@@ 11
Veranstaltung 11
Verbrauchern 11
Verfassungs@@ 11
Versammlung 11
Versuche 11
Verteidigung 11
Verteidigungs@@ 11
Viel@@ 11
Vorsitzender 11
Wahrheit 11
Wal@@ 11
Will@@ 11
Wind@@ 11
Wissenschaft 11
Wohnung 11
Zentral@@ 11
Zentralbank 11
Ziel@@ 11
Zug 11
Zut@@ 11
abgehalten 11
abgelehnt 11
aket 11
aktive 11
alt@@ 11
aner 11
angeführten 11
angemessener 11
anlässlich 11
ano 11
anschließen 11
anten 11
anti@@ 11
anwesend 11
ausgelöst 11
ausschuß 11
av@@ 11
ay 11
ban@@ 11
bar@@ 11
bauen 11
befasst 11
begleitet 11
begrüßt 11
behalten 11
bereiche 11
berg 11
beru@@ 11
betont 11
betreiben 11
bewegen 11
bild@@ 11
bu@@ 11
cht@@ 11
chtung 11
cker 11
dak@@ 11
dan@@ 11
dauert 11
dich 11
digung 11
dis@@ 11
dische 11
diskutiert 11
ecken 11
einander 11
einführen 11
eingestellt 11
eins 11
elte 11
entfernen 11
entscheidenden 11
entscheidender 11
entschlossen 11
erheblich 11
ernden 11
erstes 11
erstmals 11
erweitern 11
ese 11
esen 11
etz@@ 11
fairen 11
fan@@ 11
fangen 11
flicht 11
fort 11
fortgesetzt 11
fortsetzen 11
führte 11
ga@@ 11
gebeten 11
geführte 11
geln 11
gemein@@ 11
gemeinsamer 11
gerechte 11
geschichte 11
gesellschaft 11
gestellten 11
gliche 11
gratulieren 11
gs@@ 11
ha 11
handel 11
herrscht 11
herunterladen 11
herzustellen 11
hö@@ 11
ige 11
igen 11
inieren 11
installieren 11
ise 11
israelischen 11
ität 11
jegliche 11
kapazität 11
kaufen 11
kern 11
knapp 11
kohär@@ 11
konzentriert 11
kostet 11
ku@@ 11
kul@@ 11
kun@@ 11
lan 11
langfristige 11
langsam 11
leistung 11
ließen 11
losigkeit 11
lungs@@ 11
ländern 11
läßt 11
löschen 11
lösungen 11
mach@@ 11
management 11
mann 11
maximale 11
methoden 11
militärischen 11
minister 11
mittlerweile 11
mussten 11
märkte 11
mö@@ 11
mögen 11
mündliche 11
müsste 11
nachhaltiger 11
nahm 11
netz 11
neu@@ 11
niveau 11
nötigen 11
ober@@ 11
offen@@ 11
offensichtlich 11
onen 11
ordnung 11
ors 11
ote 11
page 11
palästinensischen 11
parlamentarischen 11
praktische 11
projekte 11
rech@@ 11
rechtliche 11
reduzieren 11
regi@@ 11
region 11
richtet 11
richtlinie 11
riesigen 11
ron@@ 11
room 11
ry 11
sach@@ 11
sam@@ 11
sammeln 11
schaften 11
sches 11
schule 11
schätzen 11
sei@@ 11
selbst@@ 11
sis 11
siven 11
ski 11
sofortige 11
sogenannten 11
solange 11
spar@@ 11
stehenden 11
strategische 11
strukturi@@ 11
stärkeren 11
stätten 11
tage 11
tak@@ 11
tei@@ 11
teilt 11
tenden 11
tief@@ 11
tigem 11
tos 11
tum 11
tät 11
umfassend 11
unk@@ 11
untersucht 11
ve@@ 11
verdient 11
vernünftig 11
verschiedener 11
verändert 11
viel@@ 11
voraus 11
vorgelegten 11
vorgestellt 11
vorhandenen 11
vorlegen 11
vorschlag 11
wahr@@ 11
wahren 11
we 11
weg@@ 11
weitgehend 11
welchen 11
welcher 11
werken 11
wiederholen 11
wirk@@ 11
wirkt 11
wissenschaftliche 11
wunder@@ 11
yst@@ 11
zeichn@@ 11
ziel@@ 11
zulassen 11
zunehmenden 11
zweifellos 11
zwingen 11
Ä@@ 11
Ü@@ 11
Übernachtung 11
Übersetzung 11
äch@@ 11
ähnlichen 11
ökologischen 11
ön@@ 11
übrigens 11
ül@@ 11
Г 11
,00 10
,@@ 10
02 10
04@@ 10
08 10
09 10
12@@ 10
150 10
2012 10
26 10
27@@ 10
4. 10
49 10
75 10
A5 10
AL 10
Abgeordneter 10
Akt 10
Amerikaner 10
Angst 10
Anweisungen 10
Anwender 10
Arbeitsmarkt 10
Arbeitsweise 10
Argument 10
Ausgangs@@ 10
Ausgrenzung 10
Ausmaß 10
Aut@@ 10
Beschwerden 10
Besorgnis 10
Betrieb@@ 10
Betten 10
Bil@@ 10
Blog 10
Blut@@ 10
Buchung 10
Bur@@ 10
C5 10
Cal@@ 10
Chancen 10
Chinas 10
City 10
DER 10
Darum 10
Dienstag 10
Dor@@ 10
Dorf 10
Dritte 10
Dritten 10
Drittstaaten 10
EADS 10
EL@@ 10
EM@@ 10
Eines 10
Eing@@ 10
Einkaufs@@ 10
El 10
Eli@@ 10
Entfernung 10
Entwickler 10
Fahrer 10
Fahrt 10
Fer@@ 10
Ferien@@ 10
Fernseh@@ 10
Feu@@ 10
Fran@@ 10
Frei@@ 10
Freih@@ 10
Freitag 10
Freund 10
Gegend 10
Gegenteil 10
Geheim@@ 10
Genau 10
Gewinne 10
Gi@@ 10
Grün@@ 10
Handlungs@@ 10
Hände 10
ISO 10
Industri@@ 10
Jahres@@ 10
Jede 10
Kapazität 10
Kapitalismus 10
Kenntnisse 10
Kennzeichnung 10
Kernel 10
Klasse 10
Klima 10
Klimawandels 10
Km 10
Kno@@ 10
Kohärenz 10
Kontakte 10
Konzentration 10
Konzer@@ 10
Kräfte 10
Kulturen 10
Landschaft 10
Le 10
Liber@@ 10
Luf@@ 10
MA 10
Maschinen@@ 10
Men@@ 10
Mess@@ 10
Mikro@@ 10
Mitarbeitern 10
Mittel- 10
Modus 10
Motor 10
Mrd. 10
Mängel 10
München 10
Nachdem 10
Nachdruck 10
Nachricht 10
Nahrungsmittel@@ 10
Nationalismus 10
ON 10
Oder 10
Out@@ 10
PO@@ 10
Pakete 10
Partnern 10
Passagi@@ 10
Pf@@ 10
Ph@@ 10
Player 10
Pläne 10
Polizei 10
Pro 10
Problems 10
Präsenz 10
Pul@@ 10
Quali@@ 10
Ratschlag 10
Regen@@ 10
Regi@@ 10
Registrierung 10
Richter 10
Ruf 10
Ruhe 10
Rußland 10
S.@@ 10
Satz 10
Schon 10
Schule 10
Schwar@@ 10
Seen 10
Serbien 10
Sieb@@ 10
Slowakei 10
Spa 10
Spezial@@ 10
Spielen 10
St. 10
Sta@@ 10
Staats- 10
Stein 10
Sti@@ 10
Stra@@ 10
Stre@@ 10
Struktur@@ 10
Support 10
Termin@@ 10
To@@ 10
Tradition 10
Tätigkeiten 10
USB 10
UT@@ 10
Unterkünfte 10
Untersuchung 10
Ur@@ 10
Verfolgung 10
Verhältnisse 10
Verletzung 10
Verlängerung 10
Versorgung 10
Verwirklichung 10
Veränderung 10
Vorbild 10
WC 10
Wander@@ 10
Weg@@ 10
Weiterentwicklung 10
Werbung 10
Wett@@ 10
Wettbewer@@ 10
Wetter 10
Wichtigkeit 10
Willkommen 10
Winter 10
Wirklichkeit 10
Wohl@@ 10
Work@@ 10
Worten 10
Wür@@ 10
Zahlen 10
Zahn@@ 10
Zer@@ 10
Ziffer 10
Zwar 10
Zwischen@@ 10
abgesehen 10
ahn@@ 10
ai@@ 10
alisi@@ 10
alter 10
andel 10
ands 10
angemessen 10
ansprechen 10
antworten 10
anzeigen 10
anzunehmen 10
arbeiter 10
arbeits@@ 10
aro@@ 10
asse 10
aufen 10
aufs 10
aufzubauen 10
ausgaben 10
ausgesetzt 10
aut 10
autonom@@ 10
ba@@ 10
bal@@ 10
bank 10
bares 10
baus 10
bedauern 10
beeinflussen 10
beg@@ 10
begleiten 10
behaupten 10
bekannten 10
berechnet 10
beschäftigen 10
best@@ 10
bestimmen 10
betra@@ 10
beträchtliche 10
bles 10
boden 10
britische 10
can@@ 10
chern 10
cks 10
dende 10
denk@@ 10
ders 10
derung 10
diert 10
dlichen 10
dokum@@ 10
dra@@ 10
drei@@ 10
dring@@ 10
dungen 10
dungs@@ 10
dy@@ 10
effektiv 10
ehemalige 10
eigentliche 10
eindrucks@@ 10
einf@@ 10
eingereichten 10
einsch@@ 10
empfin@@ 10
endete 10
entes 10
enti@@ 10
entscheidet 10
erforderliche 10
erg@@ 10
erkannt 10
erläutern 10
erst@@ 10
erweitert 10
erzeugen 10
erzeugt 10
ethnischen 10
ette 10
europäisches 10
eventuell 10
existi@@ 10
extrem 10
fang 10
ferner 10
fertig 10
fertigt 10
fin@@ 10
fizi@@ 10
flexi@@ 10
fr@@ 10
fra@@ 10
französischen 10
frei@@ 10
frem@@ 10
frucht@@ 10
fu@@ 10
fuhr 10
fäl@@ 10
führer 10
gan@@ 10
gefäl@@ 10
gefällt 10
gelangt 10
gender 10
genehmigt 10
genießt 10
geschrieben 10
gesichert 10
gespielt 10
gestiegen 10
gewünschten 10
geöffnet 10
gleichermaßen 10
gn@@ 10
gre@@ 10
grundlegende 10
gründen 10
gsten 10
h. 10
herrlichen 10
hungen 10
ia 10
ide@@ 10
iger 10
igkeit 10
ik 10
ik@@ 10
il 10
ini@@ 10
innere 10
intelligente 10
ir 10
jahr@@ 10
jo@@ 10
keiner 10
kenn@@ 10
kette 10
klein@@ 10
kleiner 10
komfortabel 10
konfrontiert 10
kostenlosen 10
krank@@ 10
kri@@ 10
lang@@ 10
las@@ 10
lautet 10
lebt 10
leich@@ 10
leiden 10
leitung 10
licht 10
ligkeit 10
lim@@ 10
ling 10
luss@@ 10
mar@@ 10
maß 10
mechanismus 10
medi@@ 10
mehrfach 10
mei@@ 10
militärische 10
mitteln 10
ms@@ 10
mus 10
mü@@ 10
notwendige 10
nutz@@ 10
oll@@ 10
ord@@ 10
organisieren 10
osteuropäischen 10
ot 10
oten 10
our 10
pa@@ 10
park 10
passiert 10
polnischen 10
port@@ 10
ppe 10
preis 10
problem 10
professionellen 10
programms 10
präsentiert 10
pul@@ 10
rad 10
reagieren 10
recht@@ 10
rechtzeitig 10
reibungen 10
reicher 10
reiten 10
res@@ 10
rufe 10
ruhigen 10
rück@@ 10
scheinbar 10
schwer@@ 10
seitens 10
sektors 10
selben 10
si 10
sicher@@ 10
sieren 10
sierten 10
sischen 10
skosten 10
speichern 10
sprache 10
stellungen 10
stellvertre@@ 10
straße 10
strom 10
stu@@ 10
stärkere 10
sum@@ 10
sätzen 10
tagen 10
tation 10
teilung 10
tischer 10
tiv 10
tiv@@ 10
tiver 10
tor 10
trat 10
trei@@ 10
trägen 10
ty 10
ulation 10
umsetzen 10
umzusetzen 10
ungst@@ 10
unmittelbarer 10
unterbreiten 10
unterbrochen 10
unterliegen 10
unternommen 10
unterschiedlich 10
ursprünglich 10
vari@@ 10
vel@@ 10
ven@@ 10
verarbeitung 10
verboten 10
verfügbaren 10
verkehr@@ 10
verleiht 10
verwaltung 10
verwirklichen 10
verzichten 10
verändern 10
vollständigen 10
vorrangig 10
weitaus 10
werk@@ 10
werten 10
wesentliche 10
wie@@ 10
wiederholt 10
win@@ 10
wirkliche 10
wirtschaftlich 10
wirtschafts@@ 10
wissenschaftlichen 10
wohl@@ 10
würdi@@ 10
yn@@ 10
zahlt 10
zahlungen 10
zerstört 10
ziele 10
ziert 10
zukünftige 10
zukünftigen 10
zusammenzuarbeiten 10
zusätzlichen 10
zw@@ 10
zwangsläufig 10
Äußerungen 10
Übergangs@@ 10
änden 10
öh@@ 10
ökonomischen 10
ör@@ 10
überein@@ 10
überrascht 10
š@@ 10
0.0 9
2,@@ 9
24@@ 9
33 9
37 9
4.@@ 9
400 9
42 9
46 9
700 9
8. 9
800 9
97 9
Ab 9
Ablehnung 9
Afrikas 9
Airbus 9
Aktionsplan 9
Allianz 9
Alt@@ 9
Altstadt 9
Amsterdam 9
Ander@@ 9
Andere 9
Anlä@@ 9
Ansichten 9
Anträge 9
Antworten 9
Anwesenheit 9
Ara@@ 9
Arbeitgeber 9
Archi@@ 9
Atom@@ 9
Aufhebung 9
Ausstellung 9
Autobahn 9
Automobil@@ 9
Automobilindustrie 9
Außengrenzen 9
BR@@ 9
Bade@@ 9
Badezimmer 9
Balkan@@ 9
Barroso 9
Bars 9
Bedrohung 9
Bedürfnissen 9
Beiträge 9
Benutzung 9
Bestellung 9
Beteiligten 9
Betreiber 9
Bevor 9
Bezirk 9
Branche 9
Brenn@@ 9
Cab@@ 9
Can@@ 9
Char@@ 9
Commerce 9
Cookies 9
Danach 9
Darstellung 9
Data 9
Datum 9
Demokraten 9
Deutsche 9
Diam@@ 9
Distribution 9
Drei 9
Drei@@ 9
Dänemark 9
ECU 9
EVP 9
Einblick 9
Einigkeit 9
Einkommen 9
Em@@ 9
Empfang 9
Entwicklungszusammenarbeit 9
Ergebnissen 9
Erlebnis 9
Ersatz@@ 9
Existenz 9
Fahrzeuge 9
Fein@@ 9
Ferner 9
Festival 9
Finde 9
Fischer 9
Flu@@ 9
Folglich 9
Frankfurt 9
Frist 9
Fähigkeit 9
Führ@@ 9
GAP 9
Gefahren 9
Gemein@@ 9
Gemeinde 9
Gemeinsame 9
Gemeinschaften 9
Gener@@ 9
Geräte 9
Geräten 9
Gesch@@ 9
Geschlechter 9
Gesetzes@@ 9
Gibt 9
Gipfels 9
Glob@@ 9
Gottes 9
Großen 9
Gründung 9
Hamburg 9
Handels 9
Hau@@ 9
Haushalte 9
He@@ 9
Heimat@@ 9
Herz 9
Hil@@ 9
Händler 9
IF@@ 9
IK@@ 9
IS 9
Industrie@@ 9
Inkrafttreten 9
Innen 9
Innen@@ 9
Institut 9
Internationale 9
Irr@@ 9
Journalisten 9
Kanada 9
Katastrophen 9
Kategorien 9
Kit@@ 9
Know 9
Kommissionspräsident 9
Kommunikations@@ 9
Komp@@ 9
Konsult@@ 9
Kontinent 9
Korea 9
Krankheit 9
Kredi@@ 9
Kreuz@@ 9
Krisen 9
Kurden 9
Kurz 9
Körper 9
Küste 9
LA 9
Lam@@ 9
Lang@@ 9
Lau@@ 9
Lebensmitteln 9
Lesen 9
Level 9
Lizenz@@ 9
Logo 9
Luxemburg 9
MA@@ 9
Macht@@ 9
Marktes 9
Martin 9
Mass@@ 9
Material 9
Mc@@ 9
Mechanismus 9
Medi@@ 9
Mehrwertsteuer@@ 9
Menü 9
Minder@@ 9
Missbrauch 9
Module 9
Mädchen 9
Mö@@ 9
Nah@@ 9
Neben@@ 9
Niederlanden 9
OL@@ 9
Opposition 9
PDF 9
PL 9
Palästina 9
Papier 9
Passwort 9
Peter 9
Philosophie 9
Phänomen 9
Polizei@@ 9
Positionen 9
Pressemit@@ 9
Privatisierung 9
Produktion@@ 9
Projekts 9
Prozeß 9
Prüf@@ 9
RO 9
Rad 9
Rats@@ 9
Rechtsgrundlage 9
Referendum 9
Reg@@ 9
Regional@@ 9
Rel@@ 9
Religion 9
Resolution 9
Rest 9
Rom@@ 9
Rückkehr 9
S. 9
SE@@ 9
Samstag 9
Schw@@ 9
Sektors 9
Selbst 9
Sicherheitsmaßnahmen 9
Sitzungen 9
Skript 9
Sozialisten 9
Speicher@@ 9
Stock@@ 9
Stunde 9
Suite 9
Sä@@ 9
Säu@@ 9
Südafrika 9
Tages 9
Tagungen 9
Tal 9
Tal@@ 9
Techniken 9
Technology 9
Theater 9
Tieren 9
Top 9
Tou@@ 9
Tourismus@@ 9
Tsch@@ 9
Tschechischen 9
Tunesien 9
Tur@@ 9
Tö@@ 9
Türen 9
Ufer 9
Umgang 9
Ursachen 9
Verarbeitung 9
Verb@@ 9
Verfassungsvertrag 9
Verk@@ 9
Verkehr 9
Verkehr@@ 9
Verlu@@ 9
Verträgen 9
Videos 9
Visi@@ 9
Vizepräsidentin 9
Vo@@ 9
Vorausschau 9
Wahrung 9
Weihnachts@@ 9
Weine 9
Weiteren 9
Werkzeuge 9
Widerspruch 9
Wie@@ 9
Wiederaufbau 9
Win@@ 9
Wur@@ 9
Wählen 9
Währungs@@ 9
Zimmer@@ 9
abgeschafft 9
abhängi@@ 9
abstimmen 9
ach 9
agentur 9
aktiven 9
aktivieren 9
akzeptabel 9
ala 9
alistischen 9
alter@@ 9
anda 9
angewiesen 9
anz@@ 9
anzen 9
arabischen 9
asiatischen 9
ass@@ 9
assen 9
ativ@@ 9
attraktiv 9
auffordern 9
aufgehoben 9
aufgezahlt 9
ausländische 9
ausländischen 9
austausch 9
basieren 9
beantworten 9
bedauerlich 9
bedeut@@ 9
bedingt 9
begab 9
begegnen 9
begründet 9
behindern 9
bek@@ 9
bekommt 9
bemerken 9
benannt 9
beobachten 9
bereitgestellt 9
beseitigen 9
besitzen 9
besonderer 9
bestellen 9
bestimmungen 9
bet@@ 9
betrieben 9
bewiesen 9
billi@@ 9
biologischen 9
ble@@ 9
brachte 9
brechen 9
breit@@ 9
bräu@@ 9
buchen 9
bus 9
chinesische 9
city 9
d. 9
dau@@ 9
deck@@ 9
dei 9
dig@@ 9
druck 9
drängen 9
drücken 9
dürfte 9
effizienter 9
egel@@ 9
eig@@ 9
eignet 9
einbezogen 9
eingeleitet 9
einzigartige 9
einzigartigen 9
einzugehen 9
elles 9
ello 9
empfohlen 9
endgültige 9
engen 9
enormen 9
entscheidend 9
entstand 9
erend 9
ergänzen 9
erin 9
erinnere 9
erlebt 9
erläutert 9
errichtet 9
erweiterten 9
erzielten 9
ester 9
eten 9
eti@@ 9
existiert 9
exklusive 9
externe 9
fach 9
fe@@ 9
fen@@ 9
fle@@ 9
fläche 9
form 9
freu@@ 9
freund@@ 9
freundlichen 9
früh@@ 9
fundi@@ 9
fung 9
gebaut 9
geboren 9
gebung 9
gefallen 9
gemeinschaft 9
gemeint 9
genannte 9
gens 9
genügend 9
gerufen 9
gesetz@@ 9
gestaltet 9
gestatten 9
gesucht 9
getragen 9
gewi@@ 9
giert 9
gige 9
gkeits@@ 9
glaub@@ 9
grad 9
griffen 9
grosse 9
grundlegender 9
grundsätzlich 9
grün@@ 9
gungs@@ 9
günstige 9
hand 9
hau@@ 9
hef@@ 9
heim 9
heim@@ 9
heits@@ 9
hervor 9
hervorragend 9
herz@@ 9
heutige 9
heutzutage 9
hierzu 9
hindern 9
hinweg 9
hochwertige 9
hu@@ 9
hän@@ 9
idealen 9
individuellen 9
infolge 9
ingt 9
inmitten 9
innovativen 9
installiert 9
interessen 9
ion 9
isten 9
its 9
jemals 9
jetzigen 9
kas 9
kat@@ 9
kehr@@ 9
keinem 9
ki 9
klassische 9
kli@@ 9
kombiniert 9
konferenz 9
kontrolliert 9
kraft@@ 9
kritischen 9
kro@@ 9
könne 9
künftig 9
landes 9
langfristigen 9
laufenden 9
legi@@ 9
leistet 9
lern 9
letz@@ 9
lierung 9
lischen 9
ll@@ 9
lon@@ 9
maschine 9
mat@@ 9
material 9
meldungen 9
min 9
mitgeteilt 9
modern 9
museum 9
mäßig 9
müsse 9
namens 9
nde 9
niedriger 9
nissen 9
normalerweise 9
not 9
ns 9
offenbar 9
offene 9
offiziell 9
offiziellen 9
oh@@ 9
ola 9
ologische 9
oper@@ 9
optim@@ 9
optimal 9
ordnen 9
orientierten 9
ov@@ 9
paket 9
pal@@ 9
pe@@ 9
perfekte 9
plan@@ 9
planen 9
planung 9
pol@@ 9
produk@@ 9
prozesse 9
punkten 9
qui@@ 9
rahmen 9
rati@@ 9
rau@@ 9
regierung 9
regionaler 9
respektieren 9
rit@@ 9
ros 9
sa 9
schen@@ 9
schlech@@ 9
schlägt 9
scht 9
schwei@@ 9
schwierigen 9
schön 9
sel 9
selten 9
sern 9
set 9
sexuellen 9
sicherstellen 9
sierungs@@ 9
sin@@ 9
solches 9
sorgungs@@ 9
spät 9
sta 9
stadt 9
stattfindet 9
stattgefunden 9
sten@@ 9
streben 9
technisch 9
technologische 9
teilnehmer 9
teilzunehmen 9
tende 9
tender 9
that 9
tiere 9
tierten 9
traditionell 9
traditionelle 9
traditionellen 9
trau@@ 9
tru@@ 9
u.a. 9
ue 9
unterstreichen 9
ux 9
verabschieden 9
verantwortungs@@ 9
verband 9
verehrten 9
verk@@ 9
verkauft 9
verleihen 9
vern@@ 9
version 9
vertreter 9
vertritt 9
verursachen 9
verwendeten 9
verwiesen 9
veröffentlichen 9
via 9
vollem 9
voran 9
vorsichtig 9
vorsieht 9
wechsel 9
wies 9
wirklichen 9
woh@@ 9
wort 9
zeit@@ 9
zieht 9
ziemlich 9
zigen 9
zuerst 9
zusetzen 9
zü@@ 9
Ägypten 9
Überblick 9
Überlegungen 9
älter 9
öffentlich 9
öffentlicher 9
überprüft 9
.- 8
.de 8
0,@@ 8
0.000 8
06 8
07 8
10. 8
10.@@ 8
130 8
16. 8
17. 8
1989 8
1992 8
1993 8
200@@ 8
2015 8
25@@ 8
26. 8
28 8
28. 8
3D 8
44 8
51 8
63 8
67 8
82 8
99 8
AC 8
Abbau 8
Abfall@@ 8
Abhängigkeit 8
Aff@@ 8
Afri@@ 8
Akteure 8
Aktu@@ 8
Aktualisierung 8
Anforderung 8
Anlage 8
Anreize 8
Ansprüche 8
Ap@@ 8
Aufzug 8
Auge 8
Augen@@ 8
Augenblick 8
Ausbau 8
Ausgabe 8
Außen- 8
BO@@ 8
Bahn@@ 8
Banken@@ 8
Bedien@@ 8
Befürchtungen 8
Beg@@ 8
Beh@@ 8
Beide 8
Berich@@ 8
Beschäftigten 8
Best 8
Bestell@@ 8
Betre@@ 8
Betreuung 8
Betriebe 8
Betriebssystem 8
Bewertungen 8
Binnenmarktes 8
Bis@@ 8
Blau@@ 8
Bosnien 8
Brau@@ 8
Brief 8
Bulgarien 8
Bush 8
Bürgerbeauftragten 8
Bürgerrechte 8
CH@@ 8
CR@@ 8
Castell@@ 8
Centre 8
Check 8
Client 8
Col@@ 8
Comm@@ 8
Corporate 8
DA 8
DI@@ 8
Dau@@ 8
Defizite 8
Dep@@ 8
Derzeit 8
Detail 8
Dienst@@ 8
Diesem 8
Dikt@@ 8
Diktatur 8
Direktor 8
Dokument@@ 8
Dokumentation 8
Dringlichkeit 8
Drittel 8
Drogen@@ 8
Durchsetzung 8
EF@@ 8
EL 8
Ei@@ 8
Einer 8
Einfluß 8
Eingabe 8
Einleitung 8
Email 8
England 8
Entscheidungs@@ 8
Entschlossenheit 8
Erd@@ 8
Ereignis 8
Ergänzung 8
Erst@@ 8
Erstellung 8
Erwachsen@@ 8
Erwägung 8
Erwägungen 8
Etik@@ 8
Etikettierung 8
Eu@@ 8
Europ@@ 8
Exchange 8
Ferienwohnung 8
Feuer 8
Fin@@ 8
Finanzmärkte 8
Finnland 8
Flash 8
Fluss 8
Fläche 8
Formul@@ 8
Formulierung 8
Fra@@ 8
Frage@@ 8
Free 8
Führer 8
Fünf@@ 8
GB 8
Gal@@ 8
Gaza 8
Gegenwart 8
Geh@@ 8
Gehminuten 8
Gei@@ 8
Gemeinden 8
Genfer 8
Gentoo 8
Gerechtigkeit 8
Gerä@@ 8
Geschmack 8
Governance 8
Gruppen@@ 8
Haar@@ 8
Haben 8
Handel@@ 8
Hard@@ 8
Hardware 8
Haushalts 8
Heizung 8
Hier@@ 8
Hierbei 8
Hin@@ 8
Hohe 8
Holz 8
IA@@ 8
IM 8
Ide@@ 8
Inflation 8
Investition 8
Investitions@@ 8
John 8
Jugendlichen 8
Justiz@@ 8
Kampagne 8
Kin@@ 8
Komit@@ 8
Kommentare 8
Kompetenz 8
Konferenzen 8
Konflikten 8
Korruption 8
Kredit@@ 8
Kri@@ 8
Krieg@@ 8
Kurse 8
Kön@@ 8
Küsten@@ 8
LE@@ 8
LO@@ 8
Lamaniten 8
Landes@@ 8
Laser@@ 8
Lateinamerika 8
Lauf@@ 8
Legitimität 8
Letz@@ 8
Liberalen 8
Lieferanten 8
Lin@@ 8
Links 8
Live 8
Lodge 8
MP@@ 8
MS 8
Mad@@ 8
Mailand 8
Mails 8
Mandat 8
Marken 8
Maschinen 8
Mauern 8
Max 8
Maya 8
Mel@@ 8
Mensch 8
Metall@@ 8
Minderheiten 8
Mir 8
Mis@@ 8
Mitentscheidung 8
Montag 8
Montenegro 8
Moskau 8
Mu@@ 8
Mul@@ 8
Män@@ 8
NRO 8
Na@@ 8
News@@ 8
Nicht@@ 8
OR@@ 8
Objekt 8
Offizi@@ 8
Ok@@ 8
Optimierung 8
Orientierung 8
Ost@@ 8
PR@@ 8
PS 8
Pack 8
Parlament@@ 8
Patent@@ 8
Pe@@ 8
Perspektive 8
Pfeiler 8
Planeten 8
Plas@@ 8
Poker 8
Port 8
Portal 8
Posten 8
Power@@ 8
Pres@@ 8
Privatsphäre 8
Produkts 8
Prof. 8
Professor 8
Projek@@ 8
Prozesses 8
QU@@ 8
QuarkXPress 8
Quell@@ 8
Quelle 8
Quellen 8
Rassismus 8
Ratspräsident 8
Raums 8
Reb@@ 8
Red 8
Regierungskonferenz 8
Reihenfolge 8
Reserve 8
Rezession 8
Roh@@ 8
Rohr@@ 8
Rus@@ 8
Räume 8
SAP 8
SO@@ 8
Sachver@@ 8
Saison 8
San@@ 8
Schicksal 8
Schloss 8
Schlussfolgerungen 8
Schn@@ 8
Schweden 8
Sek@@ 8
Sektoren 8
Sem@@ 8
Servic@@ 8
Sili@@ 8
Sozialpartner 8
Stabilitäts- 8
Standorte 8
Star@@ 8
Statut 8
Ste@@ 8
Ster@@ 8
Stich@@ 8
Stoffe 8
Stoffen 8
Strom@@ 8
Strukturfonds 8
Stück 8
Sub@@ 8
Super 8
Syrien 8
Sü@@ 8
Süd@@ 8
TR@@ 8
Tab@@ 8
Teilnehmer 8
Ther@@ 8
Tisch 8
Todes@@ 8
Tour 8
Tour@@ 8
Tran@@ 8
Trans@@ 8
Truppen 8
Umstände 8
Unterdrückung 8
Unternehmen@@ 8
Unterschied 8
Variablen 8
Verantwortungs@@ 8
Vereinigte 8
Verluste 8
Versorgungs@@ 8
Versprechen 8
Vertrieb@@ 8
Veröffentlichung 8
Virus 8
Visa 8
Vit@@ 8
Voraus@@ 8
Wald@@ 8
Ware 8
Waren@@ 8
We@@ 8
Websites 8
Weitere 8
Weiß@@ 8
Werten 8
Wesen 8
West 8
Wiederauf@@ 8
Wiederherstellung 8
Wird 8
Wirtschaftskrise 8
Wohlstand 8
Wohnzimmer 8
Wol@@ 8
World 8
Wähler 8
Würde 8
Zahlung 8
Zerstörung 8
Zit@@ 8
Zufall 8
Zuge 8
Zusagen 8
Zuständigkeiten 8
abend 8
abgestimmt 8
aches 8
ack 8
ack@@ 8
adi@@ 8
age 8
agne 8
ak 8
aktivi@@ 8
akzep@@ 8
alisieren 8
alistische 8
allzu 8
alternativen 8
altet 8
anbietet 8
anen 8
anerkennen 8
anforderungen 8
angebote 8
angebracht 8
angenehm 8
angenehme 8
ani 8
anlage 8
ann 8
annehmen 8
ante 8
anzugehen 8
arbei@@ 8
ari 8
ark@@ 8
ass 8
assi@@ 8
ates 8
ativer 8
ats@@ 8
atten 8
auff@@ 8
aufgebaut 8
aufnahme 8
ausgelegt 8
ausreichen 8
ay@@ 8
ba 8
baut 8
bedanken 8
befürworten 8
behoben 8
behörde 8
beigetragen 8
beinahe 8
beinhalten 8
beizutragen 8
bekräftigt 8
bende 8
beraten 8
bereiten 8
bereitet 8
berichte 8
beruf@@ 8
beruht 8
beschließen 8
besonderes 8
bestand@@ 8
bestens 8
betriebe 8
beweisen 8
blo@@ 8
blu@@ 8
blü@@ 8
but 8
bürokrati@@ 8
can 8
chron@@ 8
chs@@ 8
cker@@ 8
code 8
com 8
com@@ 8
cor@@ 8
cu@@ 8
datei 8
davor 8
decken 8
denden 8
denjenigen 8
derzeitige 8
derzeitigen 8
design 8
deswegen 8
digitale 8
digitalen 8
direkte 8
dom@@ 8
drin@@ 8
dunk@@ 8
durchsetzen 8
durchzuführen 8
dy 8
dün@@ 8
e- 8
effektive 8
egen 8
egt 8
ehl 8
einhalten 8
einheiten 8
einnehmen 8
einzuführen 8
einzusetzen 8
ele 8
elektronischen 8
eli@@ 8
empfangen 8
empfängt 8
endgültig 8
engagieren 8
engagiert 8
entdeckt 8
entsch@@ 8
entspannen 8
eres 8
erfasst 8
erheben 8
erhielten 8
erie 8
erkennt 8
erklärte 8
erneuerbare 8
erwähnen 8
ete 8
ever@@ 8
existieren 8
fahrzeuge 8
fal@@ 8
fehlen 8
firmen 8
fla@@ 8
flexibel 8
flo@@ 8
flu@@ 8
folge 8
fragt 8
freut 8
fri@@ 8
friendly 8
frühen 8
fuer 8
fun@@ 8
fungs@@ 8
funktion@@ 8
funktionen 8
fähige 8
fällen 8
führungs@@ 8
gar@@ 8
gebieten 8
geboten 8
geeignete 8
geeigneten 8
gefangen 8
gefragt 8
gehörigen 8
gelassen 8
geld 8
gelegenen 8
geleitet 8
genauer 8
geplant 8
geregelt 8
gerich@@ 8
geräte 8
geschickt 8
gesetzgebung 8
gesetzte 8
gestaltung 8
gestellte 8
gestärkt 8
geteilt 8
gewaltigen 8
gewicht 8
gewählten 8
gkeiten 8
gl@@ 8
gleichzei@@ 8
glück@@ 8
glücklicherweise 8
gratis 8
greift 8
größerer 8
gutem 8
gäbe 8
has 8
hel@@ 8
hervorragenden 8
hervorzuheben 8
heu@@ 8
hierfür 8
hil@@ 8
hingegen 8
ht 8
humanitären 8
hung 8
hy@@ 8
höchst 8
höchsten 8
höher 8
iel@@ 8
igten 8
igungen 8
iler 8
inakzeptabel 8
inen 8
ino@@ 8
integrieren 8
intensiv 8
interessant 8
intern 8
investieren 8
isti@@ 8
ite 8
iten 8
itäten 8
jahr 8
jährliche 8
kamen 8
kan 8
kar@@ 8
ke@@ 8
kel@@ 8
ken@@ 8
ker@@ 8
klassischen 8
kleines 8
klären 8
kom@@ 8
kommun@@ 8
kompliziert 8
kontaktieren 8
konto 8
kop@@ 8
kt@@ 8
ktion 8
ktions@@ 8
kultur 8
kurbeln 8
küh@@ 8
lag@@ 8
lands 8
langem 8
leb@@ 8
leh@@ 8
leistungen 8
lenken 8
ley 8
liber@@ 8
liberale 8
licherweise 8
lieferungen 8
lik@@ 8
lin 8
linien 8
live 8
log 8
lokaler 8
los@@ 8
läu@@ 8
lüsse 8
mali@@ 8
manchen 8
mb@@ 8
mehr@@ 8
messen 8
mittel- 8
mittelalterlichen 8
modified 8
neben@@ 8
nern 8
neuesten 8
neun 8
neusten 8
nicht@@ 8
niemals 8
nisses 8
nungs@@ 8
nützlich 8
obligator@@ 8
ollen 8
ologen 8
ologisch 8
onie 8
organ@@ 8
otten 8
parallel 8
passt 8
pat@@ 8
perat@@ 8
pflicht 8
plätze 8
portugiesischen 8
positionen 8
produkten 8
prozeß 8
pu@@ 8
punkte 8
qualitativ 8
quellen 8
rasche 8
raten 8
raums 8
reform@@ 8
regeln 8
registrieren 8
reibung 8
rein@@ 8
reise 8
respektiert 8
ritt 8
rt 8
ruhig 8
ruppe 8
s.@@ 8
schafft 8
schließe 8
schlim@@ 8
schreibt 8
schreiten 8
schrift 8
schw@@ 8
schwerer 8
sehe 8
setzungs@@ 8
sich@@ 8
sichten 8
sinn 8
situationen 8
sitzen 8
sive 8
soeben 8
solch 8
spezi@@ 8
spor@@ 8
sportlichen 8
sprech@@ 8
sprä@@ 8
spätestens 8
staat 8
staff 8
stal@@ 8
stecken 8
steigt 8
stische 8
stoß 8
str@@ 8
stä@@ 8
sub@@ 8
sur 8
tag 8
tau@@ 8
technologischen 8
teilungen 8
tene 8
terer 8
tern@@ 8
this 8
tier@@ 8
tigt 8
tim@@ 8
ting 8
tnis@@ 8
trags@@ 8
trans@@ 8
tö@@ 8
tü@@ 8
ua 8
ule 8
umfangreiche 8
ungeachtet 8
untersuchen 8
unterzeichnet 8
unverzichtbar 8
unwahrscheinlich 8
verantwor@@ 8
vereinfachen 8
verfol@@ 8
verkehrs@@ 8
vermitteln 8
vermutlich 8
versorgt 8
verst@@ 8
verstehe 8
ves 8
vi 8
vielfältige 8
views 8
volles 8
voneinander 8
voraus@@ 8
vorge@@ 8
wechsel@@ 8
westliche 8
will@@ 8
wohnen 8
währ@@ 8
wünsche 8
wünscht 8
würdigen 8
za 8
zahl 8
zahl@@ 8
zentren 8
zerstör@@ 8
zeuger 8
zig 8
ziger 8
zip 8
zivilen 8
zugelassen 8
zugute 8
zusätzlicher 8
zuzu@@ 8
zwanzig 8
zweiter 8
zwischen@@ 8
¼ 8
ßt 8
ändert 8
änderungen 8
är 8
äter 8
äufe 8
è@@ 8
öl@@ 8
üb@@ 8
überaus 8
überwiegend 8
ück@@ 8
č@@ 8
™ 8
...... 7
12.00 7
13. 7
1990 7
1991 7
22. 7
250 7
31 7
36 7
38 7
41 7
47 7
5. 7
5.@@ 7
55 7
59 7
6. 7
600 7
69 7
9,@@ 7
98 7
AD@@ 7
AK@@ 7
AT 7
Ablauf 7
Abteilung 7
Ac@@ 7
Acht 7
Adobe 7
Airport 7
Akteur 7
Akzeptanz 7
Ale@@ 7
Ali@@ 7
Amerikas 7
Analy@@ 7
Analysen 7
Andernfalls 7
Angabe 7
Angel@@ 7
Anhörung 7
Ankunft 7
Anmeldung 7
Anwen@@ 7
Anzeichen 7
Arbeiter 7
Arbeitskräfte 7
Architekten 7
Armen@@ 7
Arzneimittel 7
Asi@@ 7
Asien 7
Asyl 7
Aufforderung 7
Aufnahmen 7
Auftraggeber 7
Auskunft 7
Auslegung 7
Ausnahmen 7
Ausrichtung 7
Aussagen 7
Ausstattung 7
Auswirkung 7
Ausübung 7
Autovermietung 7
Auß@@ 7
BAE 7
BMW 7
Ba@@ 7
Bag@@ 7
Bank 7
Bauern 7
Begründung 7
Behinderungen 7
Beiträgen 7
Benutz@@ 7
Berg 7
Berichterstattung 7
Besch@@ 7
Beschlüsse 7
Beseitigung 7
Bestand 7
Beste 7
Bestellungen 7
Bestreben 7
Betracht 7
Beträge 7
Bett 7
Bibliothek 7
Bin@@ 7
Birma 7
Blockade 7
Bom@@ 7
Boo@@ 7
Bre@@ 7
Brot 7
Brow@@ 7
Buchten 7
Bud@@ 7
Budapest 7
Budget 7
Buy 7
CA@@ 7
Call 7
Camp@@ 7
Card 7
Casino 7
Chianti 7
Christdemokraten 7
Ci@@ 7
College 7
Controller 7
DA@@ 7
Darauf 7
Darfur 7
Dass 7
Datei@@ 7
Datens@@ 7
Deine 7
Demokratisierung 7
Dest@@ 7
Deut@@ 7
Diagra@@ 7
Dialogs 7
Diejenigen 7
Diplomatie 7
Dokumenten 7
Donn@@ 7
Durchführungs@@ 7
Dynamik 7
Düsseldorf 7
EA 7
EC 7
EG@@ 7
ENT 7
EST 7
Ebenen 7
Ebenfalls 7
Ein- 7
Eingang 7
Einnahmen 7
Einstimmigkeit 7
Emp@@ 7
Erholung 7
Erinnerung 7
Erreichung 7
Erweiterungs@@ 7
Euch 7
Europäisches 7
Experten@@ 7
FI 7
Fa@@ 7
Fachleute 7
Fakten 7
Fang@@ 7
Fax- 7
Fehl@@ 7
Fehlen 7
Fehler@@ 7
Finanzdienstleistungen 7
Finanzen 7
Fitness@@ 7
Florenz 7
Fotokopiereinrichtungen 7
Fr@@ 7
Frankfurter 7
Frankreichs 7
Freiwil@@ 7
Fremd@@ 7
Freuen 7
Fri@@ 7
Friedens 7
Funktionieren 7
Förder@@ 7
Führungs@@ 7
Gam@@ 7
Gang 7
Garantien 7
Geburt 7
Gebühren 7
Gedanken 7
Gegenwärtig 7
Gemäß 7
Generationen 7
Gerade 7
Gericht 7
Gerichten 7
Gesam@@ 7
Geschäft@@ 7
Gesellschafts@@ 7
Gesicht 7
Gest@@ 7
Gewal@@ 7
Gewi@@ 7
Glaubwürdigkeit 7
Gold@@ 7
Golf@@ 7
Gr@@ 7
Grundlagen 7
Gut 7
Gy@@ 7
Güter@@ 7
HD 7
HIV 7
HT@@ 7
Hab@@ 7
Haiti 7
Hamas 7
Hauptziel 7
Haushaltsmittel 7
Health 7
Herr@@ 7
Herz@@ 7
Herzegowina 7
Hierzu 7
Hindernis 7
Hochschul@@ 7
Hof 7
Hor@@ 7
House 7
Hu@@ 7
Höchst@@ 7
Hör@@ 7
IN 7
Ideologie 7
Immer 7
Inc 7
Inneres 7
Innerhalb 7
Insel@@ 7
Inspek@@ 7
Instruments 7
Internetzugang 7
Intervention 7
Israels 7
It 7
Jahrzehnt 7
Java 7
KDE 7
Kalender 7
Kann 7
Kartoff@@ 7
Kategorie 7
Kau@@ 7
Kein 7
Ki@@ 7
Kie@@ 7
Kir@@ 7
Kl@@ 7
Klassi@@ 7
Kle@@ 7
Klein- 7
Klinik 7
Kollegin 7
Konferenz@@ 7
Konsu@@ 7
Kontakt@@ 7
Konzeption 7
Konzern@@ 7
Koordin@@ 7
Kreativität 7
Kriminalität 7
Können 7
LE 7
LU@@ 7
Lager 7
Landschaften 7
Leb@@ 7
Lebensmittelsicherheit 7
Legislativ@@ 7
Les@@ 7
Lev@@ 7
Libanon 7
Licht 7
Lie@@ 7
Lieb@@ 7
Lim@@ 7
Listings 7
Luft 7
Luftverkehrs@@ 7
Mag@@ 7
Mail@@ 7
Mak@@ 7
Management@@ 7
Manche 7
Mann 7
Marina 7
Massen@@ 7
Media 7
Mehrwert 7
Meines 7
Mer@@ 7
Mes@@ 7
Mie@@ 7
Minderheiten@@ 7
Mode@@ 7
Modernisierung 7
Movie 7
Mus@@ 7
Museen 7
Mutter 7
Muttersprache 7
NO@@ 7
Nachkommen 7
Naturkatastrophen 7
Ner@@ 7
Net@@ 7
Neuan@@ 7
Neuen 7
Nich@@ 7
Nichtraucherzimmer 7
Niederlande 7
ON@@ 7
Objekte 7
Original 7
Orts@@ 7
Osteuropa 7
Palästinenser 7
Paradies 7
Parlaments@@ 7
Petitions@@ 7
Pflanzen 7
Plus 7
Pol@@ 7
Pop@@ 7
Port@@ 7
Prin@@ 7
Problematik 7
Prote@@ 7
Präsentation 7
Präsidium 7
Pu@@ 7
Publikum 7
Putin 7
Rahmen@@ 7
Ratsvorsitzes 7
Real@@ 7
Rednern 7
Regionalpolitik 7
Rein@@ 7
Reinigung 7
Reisen 7
Rent@@ 7
Rep@@ 7
Resort 7
Respekt 7
Richtlinienvorschlag 7
Riesen@@ 7
Rio 7
Rohstoff@@ 7
Rom 7
Rubrik 7
Rücktritt 7
SC@@ 7
SS@@ 7
Saint 7
Sam@@ 7
Sauna 7
Schad@@ 7
Schengener 7
Schienen@@ 7
Schlei@@ 7
Schlusselphrase 7
Schlusselwort 7
Schnell@@ 7
Schokol@@ 7
Schottland 7
Schulden@@ 7
Schulen 7
Schutzes 7
Schweizer 7
Schwellen@@ 7
Schwächen 7
See@@ 7
Seminare 7
Sicherheitspolitik 7
Sicherheitsrat 7
Sitzungs@@ 7
Ski 7
Sobald 7
Solana 7
Sollten 7
Songs 7
Sonntag 7
Sorgen 7
Sortiment 7
Sozialdemokraten 7
Spe@@ 7
Speicher 7
Speicherung 7
Spezialisten 7
Spitzen@@ 7
Spä@@ 7
Staatsan@@ 7
Stat@@ 7
Stellen@@ 7
Stellungnahmen 7
Stimm@@ 7
Strafe 7
Strategi@@ 7
Streichung 7
Stärke 7
Sämtliche 7
Säule 7
Süß@@ 7
TA 7
TC 7
TE 7
TO@@ 7
Taiwan 7
Tar@@ 7
Taten 7
Teams 7
Techni@@ 7
Telefon 7
Tem@@ 7
Tests 7
Tex@@ 7
Thomas 7
Tom@@ 7
Tor 7
Tot@@ 7
Touristen 7
Traditionen 7
Tragen 7
Training 7
Trainings@@ 7
Transfer 7
Traum 7
Treff@@ 7
Treiber 7
Tu@@ 7
Unterlagen 7
Unternehmer 7
Unterstütz@@ 7
Unterzeichnung 7
Up 7
Update 7
Ursprung 7
Venedig 7
Verabschiedung 7
Veranstaltungsräume 7
Verbindungen 7
Verdacht 7
Vereinbarungen 7
Vereinigung 7
Verfahrens@@ 7
Verlauf 7
Vertreterin 7
Verurs@@ 7
Vier@@ 7
Vis@@ 7
Vision 7
Vitamin 7
Volkes 7
Volksgesundheit 7
Vorbereitungen 7
Vorgänger 7
Vorher@@ 7
Vorlage 7
Vorsch@@ 7
Vorsitz 7
Wachstums@@ 7
Wachstumsp@@ 7
Weiterhin 7
Weißbuch 7
Weltwirtschaft 7
Werkzeug 7
Western 7
Wettbewerbs@@ 7
Widerstand 7
Wikitravel 7
Wild@@ 7
Wille 7
Wir@@ 7
Wissenschaftler 7
Zeile 7
Zeitung 7
Zi@@ 7
Zielsetzung 7
Zielsetzungen 7
Zimmerservice 7
a. 7
abgestimm@@ 7
ablehnen 7
ablen 7
ables 7
absolute 7
abzulehnen 7
achtet 7
aden 7
ag 7
air@@ 7
aktiviert 7
aktualisieren 7
aktualisiert 7
alisierungs@@ 7
aller@@ 7
amerikanischer 7
amp@@ 7
ane 7
anfangen 7
angeführt 7
angegeben 7
angegebenen 7
angenehmen 7
angesprochenen 7
angewandt 7
angewendet 7
anpassen 7
anschließend 7
anstreben 7
ansä@@ 7
antes 7
anwenden 7
anzuwenden 7
arbeitenden 7
arbeiteten 7
archie 7
ars 7
art@@ 7
arten 7
asi@@ 7
ata 7
atischen 7
ative 7
att@@ 7
atz 7
auen 7
aufbauen 7
aufgestellt 7
aufhin 7
aufrechterhalten 7
ausgebaut 7
ausgeben 7
ausgedrückt 7
ausgewogenes 7
ausgewählt 7
aussehen 7
bach 7
bahn@@ 7
band 7
basierte 7
beach@@ 7
beantragt 7
beantwortet 7
bedeutend 7
bedroht 7
begeistert 7
beglei@@ 7
begrenzten 7
beibehalten 7
beitreten 7
berechtigten 7
berichten 7
bes 7
beschei@@ 7
beschreiben 7
besorgniserre@@ 7
betrieb 7
bewertung 7
bezogen 7
bilateralen 7
bit 7
blicke 7
book 7
bor@@ 7
breite 7
brut@@ 7
bs 7
bur@@ 7
burg 7
char@@ 7
charakter@@ 7
check 7
chter 7
chtig 7
chtigen 7
chtigkeit 7
cons 7
dacht 7
dankbar 7
dateien 7
daten@@ 7
dauer 7
definieren 7
definiert 7
definitiv 7
details 7
didn 7
dien@@ 7
dienst@@ 7
diesbezüglich 7
dieselben 7
digte 7
din 7
durchgeführten 7
durchzusetzen 7
dynam@@ 7
eck 7
ee 7
effiziente 7
effizienten 7
egal 7
ehr 7
ehrlich 7
eigen@@ 7
eignen 7
eingebunden 7
einhei@@ 7
einräumen 7
einschlägigen 7
einstellen 7
einstimmig 7
einzeln 7
einzelner 7
eit 7
ektion 7
elegante 7
elemente 7
ellem 7
enes 7
enfalls 7
enheit 7
entdeckst 7
enter 7
entgegen 7
enthalt 7
er- 7
erarbeitet 7
ergänzt 7
erhebliche 7
erische 7
erischen 7
erlangen 7
ermaßen 7
erneuerbarer 7
ero@@ 7
errichten 7
ersetzt 7
erteilt 7
erzeugung 7
erzählt 7
eröffnet 7
erörtert 7
esch@@ 7
esischen 7
ext 7
extremen 7
fac@@ 7
fall@@ 7
falschen 7
familien@@ 7
feh@@ 7
fein@@ 7
ferenzen 7
feste 7
festgelegte 7
festgelegten 7
festlegt 7
ffer 7
fil@@ 7
film 7
finanzi@@ 7
fisch@@ 7
fizieren 7
flü@@ 7
fortzusetzen 7
frist 7
fru@@ 7
früher 7
früher@@ 7
fundament@@ 7
fällig 7
för@@ 7
fügen 7
fügt 7
führten 7
gebene 7
gebühr@@ 7
gefahren 7
gefähr@@ 7
gefährlich 7
geführten 7
gegebenen 7
gegebenenfalls 7
gegen@@ 7
gegenseitige 7
gehandelt 7
geheim@@ 7
gehender 7
gehörte 7
gek@@ 7
gekennzeichnet 7
gels 7
generation 7
generell 7
geniessen 7
gentechn@@ 7
geplante 7
gerei@@ 7
geringer 7
geschlossenen 7
gesellschaftlichen 7
gesetzlichen 7
gestartet 7
getestet 7
gewinnung 7
gewiss 7
gische 7
glich@@ 7
globaler 7
gol@@ 7
good 7
grammatisch 7
gratuliere 7
grenze 7
gri@@ 7
grossen 7
grundlage 7
grundlegend 7
größtenteils 7
gter 7
gültig 7
haf@@ 7
hast 7
heading 7
heit@@ 7
herr@@ 7
hervorgehoben 7
hierbei 7
hinzufugen 7
hochwertigen 7
hof 7
hohem 7
hol@@ 7
house 7
how 7
hte 7
hängen 7
här@@ 7
höchster 7
hör@@ 7
hü@@ 7
ic 7
ic@@ 7
ick 7
idealer 7
iens 7
ierungs@@ 7
if 7
igran@@ 7
ilen 7
industriellen 7
inn@@ 7
innen@@ 7
inner@@ 7
ins@@ 7
insel 7
integrierten 7
intensiven 7
investiert 7
investitionen 7
irischen 7
isierung 7
jemanden 7
jenen 7
ju@@ 7
jährige 7
jähriger 7
jährlichen 7
kapit@@ 7
katastrophal@@ 7
keinesfalls 7
kes 7
kleineren 7
klu@@ 7
kommende 7
kommens 7
komplexe 7
konfiguriert 7
konfli@@ 7
konsolidi@@ 7
konstitu@@ 7
konstruktive 7
kontextuell 7
kontextuellen 7
koordini@@ 7
korrigieren 7
kostenlose 7
kraft 7
kredi@@ 7
krieg@@ 7
kritisch 7
kritisieren 7
ktion@@ 7
ktionen 7
kum 7
kus 7
kämp@@ 7
körper@@ 7
kü@@ 7
landschaft 7
langer 7
las 7
later@@ 7
lauf 7
lebenden 7
legten 7
legungs@@ 7
lehr@@ 7
leichte 7
letzter 7
lia 7
lichkeits@@ 7
lieb@@ 7
liegenden 7
liger 7
liz@@ 7
lusses 7
lä@@ 7
lädt 7
löst 7
m2 7
mas 7
massive 7
maximal 7
mechanismen 7
medizinischen 7
ment 7
merken 7
mess@@ 7
ministerium 7
mittleren 7
miß@@ 7
moderner 7
moderni@@ 7
multi@@ 7
musi@@ 7
mä@@ 7
mächti@@ 7
märkten 7
mäßigkeit 7
möglichkeit 7
mün@@ 7
na@@ 7
nachdenken 7
nachzukommen 7
nah@@ 7
nahmen 7
nam@@ 7
negativ 7
nen@@ 7
netze 7
normale 7
nukleare 7
nutzt 7
offizielle 7
oftmals 7
ole 7
ologi@@ 7
ologischen 7
omm@@ 7
ommen 7
oni@@ 7
onn@@ 7
pap@@ 7
part 7
passen 7
passende 7
pe 7
perfekt 7
person@@ 7
plan 7
plätzen 7
plötzlich 7
po 7
press@@ 7
pri@@ 7
prinzip 7
problemlos 7
prochene 7
produkt 7
produktiven 7
präzise 7
quelle 7
rad@@ 7
rale 7
ranken 7
rat@@ 7
rate@@ 7
realer 7
realistisch 7
reg@@ 7
reiben 7
reich 7
reifen 7
rein 7
renoviert 7
restaurant 7
restaurants 7
retten 7
rez 7
richtung 7
richtungen 7
rooms 7
rop@@ 7
russische 7
räumen 7
rücken 7
sau@@ 7
schaden 7
schadet 7
schaf@@ 7
schau@@ 7
schnei@@ 7
schnelle 7
schrieb 7
schritt 7
schrittweise 7
schul@@ 7
schwierige 7
schwieriger 7
schädlich 7
sert 7
setz@@ 7
setzte 7
sia 7
sierte 7
sign@@ 7
sische 7
siv@@ 7
skep@@ 7
solidar@@ 7
solide 7
sorgfältig 7
sozusagen 7
spann@@ 7
spannungs@@ 7
sper@@ 7
sport@@ 7
späteren 7
staatlicher 7
standard 7
standen 7
standes 7
station 7
steh@@ 7
steigende 7
steigern 7
steigerung 7
steine 7
stor@@ 7
strasse 7
strengen 7
stru@@ 7
struk@@ 7
strukturen 7
stunde 7
ständiges 7
stück 7
such@@ 7
symboli@@ 7
sämtlicher 7
tal 7
tal@@ 7
taten 7
taus@@ 7
tausende 7
teils 7
teln 7
tem@@ 7
terungen 7
teure 7
tex@@ 7
ti 7
tika 7
tivi@@ 7
tot@@ 7
trag@@ 7
trags 7
transparenten 7
traum 7
turen 7
typ@@ 7
typische 7
typischen 7
täglichen 7
ult 7
umgeben 7
ums@@ 7
umzu@@ 7
unabdingbar 7
une 7
uneingeschränkte 7
unentgeltlich 7
ungeh@@ 7
unglaub@@ 7
ure 7
usw 7
ut 7
va@@ 7
verbinden 7
verbracht 7
verfahrens 7
vergleich@@ 7
verhalten 7
verhandelt 7
verkaufen 7
verlin@@ 7
verlust 7
vermieden 7
vernach@@ 7
verringert 7
verschiedensten 7
versetzt 7
verstärken 7
vertrau@@ 7
vertraut 7
vertretenen 7
verurteilen 7
veränderten 7
vieles 7
vig@@ 7
vonnöten 7
voran@@ 7
vorgehen 7
vorherigen 7
vorhin 7
vorliegen 7
vorn 7
vorzubereiten 7
wachsenden 7
wahl 7
wahr 7
wahrgenommen 7
wand 7
wandeln 7
ware 7
warmen 7
web@@ 7
weichen 7
weltweite 7
west@@ 7
westlich 7
wettbewerbs@@ 7
wick@@ 7
wirft 7
wirkungs@@ 7
wälte 7
wär@@ 7
würdig 7
your 7
zah@@ 7
zeichnung 7
zeichnungen 7
zel@@ 7
zentral 7
zin 7
zitiere 7
zt 7
zuführen 7
zugeben 7
zurückkehren 7
zus@@ 7
zuverlässige 7
zweck@@ 7
zwecken 7
zweif@@ 7
zz@@ 7
Ängste 7
Är@@ 7
Öko@@ 7
Österreichs 7
Überprü@@ 7
Übertragung 7
ähnlich 7
älteren 7
ärz@@ 7
ée 7
ökologische 7
ökonomische 7
überdenken 7
übergehen 7
überlassen 7
üblich 7
ür@@ 7
β@@ 7
.00 6
08.@@ 6
1000 6
149 6
18. 6
1994 6
25. 6
26@@ 6
29. 6
52 6
54 6
60@@ 6
61 6
65 6
7.@@ 6
71 6
74 6
83 6
9.@@ 6
91 6
AG@@ 6
AH@@ 6
ALE 6
AND 6
Absichten 6
Abweichungen 6
Abwicklung 6
Adress@@ 6
Aktiv@@ 6
Aktivität 6
Al 6
Allein 6
Alltag 6
Alternativen 6
Anbetracht 6
Anders 6
Anim@@ 6
Ankündigung 6
Anmerkungen 6
Ann@@ 6
Anti 6
App@@ 6
Arbeitnehmer@@ 6
Arbeitsbedingungen 6
Armee 6
Armen 6
Assi@@ 6
Audio 6
Aufbau@@ 6
Auff@@ 6
Auflösung 6
Aufruf 6
Ausarbeitung 6
Auschecken 6
Auseinandersetzung 6
Ausgleich 6
Australien 6
Ausweitung 6
Automati@@ 6
Automation 6
Autor 6
Avi@@ 6
BA 6
BSE 6
Band 6
Barcel@@ 6
Baum@@ 6
Beachten 6
Beam@@ 6
Bearbeitung 6
Beeinträchti@@ 6
Beendigung 6
Behandlungs@@ 6
Behauptungen 6
Beitritts@@ 6
Bemerkung 6
Benutzer@@ 6
Berater 6
Beratungs@@ 6
Berei@@ 6
Bereitstellung 6
Beschaffung 6
Besitz 6
Besitzer 6
Besonderheiten 6
Besten 6
Besteuerung 6
Bestimmung 6
Bestände 6
Bet@@ 6
Betrug 6
Betrugs@@ 6
Bevölkerungs@@ 6
Beweise 6
Bewältigung 6
Bezahlung 6
Bezug@@ 6
Billi@@ 6
Billionen 6
Binnen@@ 6
Bl@@ 6
Blue 6
Boden@@ 6
Bor@@ 6
Branchen 6
Broschüre 6
Bundesrepublik 6
Burg 6
Bus 6
Bü@@ 6
Bühne 6
Bür@@ 6
CE 6
CEO 6
CNS 6
Canon 6
Cap@@ 6
Captain 6
Cer@@ 6
Chemikalien 6
Chinesen 6
Cli@@ 6
Consul@@ 6
Cre@@ 6
Cu@@ 6
DIE 6
Dach 6
Dafür 6
Dam@@ 6
Dat@@ 6
Dauer 6
Debatten 6
Delegationen 6
Design@@ 6
Designer 6
Deutschlands 6
Dol@@ 6
Dollars 6
Dopp@@ 6
Dritt@@ 6
Dro@@ 6
Dur@@ 6
EIB 6
EWG 6
EX@@ 6
Eck@@ 6
Edi@@ 6
Effektivität 6
Einheiten 6
Einmischung 6
Einstellungen 6
Einzelnen 6
Eis@@ 6
Elementen 6
Emissions@@ 6
Entdeck@@ 6
Entdeckung 6
Entfer@@ 6
Entspannung 6
Entwicklung@@ 6
Entwicklungspolitik 6
Entwicklungsziele 6
Erarbeitung 6
Erfolgs@@ 6
Erhaltung 6
Erholungs@@ 6
Ernst 6
Erwachsene 6
Erwartung 6
Erzeugung 6
Esp@@ 6
Ess@@ 6
Et@@ 6
Eur@@ 6
Executive 6
Expansion 6
Extremisten 6
Fahrlässigkeit 6
Fahrrad@@ 6
Fax 6
Feier@@ 6
Fel@@ 6
Feld@@ 6
Felder 6
Fernsehen 6
Fil@@ 6
Filme 6
Filter 6
Fir@@ 6
Firmen@@ 6
Fisch 6
Fischereipolitik 6
Fischler 6
Fitness 6
Fleisch 6
Flo@@ 6
Flugzeuge 6
Flusses 6
Fol@@ 6
Folter 6
Foren 6
Forst@@ 6
Fortsetzung 6
Foto@@ 6
Fotografen 6
France 6
Frau@@ 6
Free@@ 6
Freie 6
Freizeit@@ 6
Fristen 6
Frühjahr 6
Funktionalität 6
Föderation 6
GH 6
GR@@ 6
GVO 6
Ga@@ 6
Ganz 6
Gas 6
Gef@@ 6
Gelegenheiten 6
Gem@@ 6
Gemeinschaftsebene 6
General 6
Generi@@ 6
Genießen 6
George 6
Georgien 6
Gepäckraum 6
Gerichtshof 6
Germany 6
Geschäft 6
Geschäften 6
Gesetzgeb@@ 6
Gesetzgebungs@@ 6
Gesichts@@ 6
Gesprächen 6
Gestatten 6
Gewebe 6
Gil@@ 6
Gleichheit 6
Gleichwohl 6
Glo@@ 6
Glücklicherweise 6
Glücks@@ 6
Gran@@ 6
Grundsätzen 6
Guide 6
Gute 6
Gärten 6
Güter 6
HO@@ 6
HTML 6
Hauptbahnhof 6
Haushaltslinien 6
Haushaltsplan 6
Heimatland 6
Hektar 6
Heran@@ 6
Herb@@ 6
Herberge 6
Hi@@ 6
Hilfs@@ 6
Hoh@@ 6
Hostels 6
Hostelsclub 6
Hotelsafe 6
Hum@@ 6
Hung@@ 6
Hän@@ 6
Händen 6
Häuser 6
IA 6
III 6
ING@@ 6
IP@@ 6
IR@@ 6
ISA 6
Imperi@@ 6
Indem 6
Individu@@ 6
Informationsschalter 6
Infrastruktur@@ 6
Inhalten 6
Innovation@@ 6
Insofern 6
Intellektu@@ 6
Internet@@ 6
Interventionen 6
Ira@@ 6
Jahr@@ 6
Jahreszeit 6
Jahrhunderten 6
JavaScript 6
Jedoch 6
Jes@@ 6
Jugendliche 6
Kabel 6
Kam@@ 6
Kamp@@ 6
Kas@@ 6
Kat@@ 6
Katalog 6
Kathedrale 6
Ker@@ 6
Kindes 6
Kit 6
Klaren 6
Kli@@ 6
Klin@@ 6
Kodak 6
Kodex 6
Kohle 6
Kommissare 6
Kommunismus 6
Komplexität 6
Kompli@@ 6
Konferenz- 6
Konfigurations@@ 6
Konflikt@@ 6
Konflikts 6
Konfrontation 6
Kongo 6
Kongres@@ 6
Konkurrenz 6
Konsequenz 6
Konsultation 6
Konsum@@ 6
Konventionen 6
Kooperations@@ 6
Koordinierungs@@ 6
Kopien 6
Korrekturen 6
Kr@@ 6
Kreatur 6
Kredite 6
Kriege 6
Kron@@ 6
Kuba 6
Kul@@ 6
Kup@@ 6
König 6
Künstler@@ 6
Lab@@ 6
Laden 6
Laeken 6
Lake 6
Last 6
Lauf 6
Learning 6
Leben@@ 6
Lebensqualität 6
Leh@@ 6
Leistungsfähigkeit 6
Lernen 6
Line 6
Listen 6
Log@@ 6
Los 6
Ly@@ 6
Länge 6
Maria 6
Marken@@ 6
Master 6
Mat@@ 6
Mau@@ 6
Medizin 6
Meeres@@ 6
Meg@@ 6
Mehrwertsteuer 6
Messe@@ 6
Mexiko 6
Miet@@ 6
Milch 6
Ministerpräsidenten 6
Minute 6
Mir@@ 6
Miss@@ 6
Mission 6
Mittelmeer 6
Monte 6
Motoren 6
My@@ 6
Málaga 6
Mün@@ 6
NL 6
Nachbar@@ 6
Nation@@ 6
National 6
National@@ 6
Nationalen 6
Netze 6
Netzwerke 6
Nichtein@@ 6
Nichts 6
Nigeria 6
Nizza 6
Nordamerika 6
Normali@@ 6
Not 6
Nähr@@ 6
OLAF 6
OSZE 6
Oc@@ 6
Off@@ 6
Office 6
On@@ 6
Organen 6
Organismen 6
Original@@ 6
Pakets 6
Panasonic 6
Panoram@@ 6
Parkplätze 6
Parlam@@ 6
Parlamenten 6
Patten 6
Pauschal@@ 6
Pflanzen@@ 6
Plat@@ 6
Plaza 6
Posi@@ 6
Prag 6
Presse@@ 6
Pressefreiheit 6
Print 6
Produk@@ 6
Produktpalette 6
Professionalität 6
Profil 6
Prot@@ 6
Protot@@ 6
Provi@@ 6
Prozess@@ 6
Quark 6
Rabatt 6
Rahmenprogramm 6
Ran@@ 6
Randlage 6
Raum@@ 6
Reak@@ 6
Real 6
Rec@@ 6
Rechner 6
Rechnungs@@ 6
Red@@ 6
Ref 6
Refle@@ 6
Regel@@ 6
Renn@@ 6
Res@@ 6
Ret@@ 6
Revision 6
Revolution 6
Rohstoffen 6
Rout@@ 6
Route 6
Royal 6
Russlands 6
Rö@@ 6
SA 6
SD@@ 6
Saal 6
Santa 6
Sar@@ 6
Sc@@ 6
Schal@@ 6
Schiff 6
Schiffs@@ 6
Schir@@ 6
Schla@@ 6
Schlaf@@ 6
Schmu@@ 6
Schnittstelle 6
Scho@@ 6
Schriftliche 6
Schuld 6
Schwe@@ 6
Schön@@ 6
Sei@@ 6
Senkung 6
Sensor 6
Sex 6
Sha@@ 6
Sicherstellung 6
Sicht@@ 6
Sind 6
Sites 6
Sogar 6
Sohn 6
Solutions 6
Sony 6
Sou@@ 6
Soweit 6
Sowjetunion 6
Sowohl 6
Span@@ 6
Spektrum 6
Staff@@ 6
Stahl 6
Stand@@ 6
Standorten 6
Stationen 6
Statistiken 6
Steck@@ 6
Stei@@ 6
Steuer 6
Stick 6
Still@@ 6
Strafen 6
Strafgerichtshof 6
Street 6
Strei@@ 6
Streit@@ 6
Strände 6
Stu@@ 6
Stuttgart 6
Städ@@ 6
Substanzen 6
Sul@@ 6
Swiss 6
Symbol 6
Süd 6
TE@@ 6
Taliban 6
Tarifa 6
Technologie@@ 6
Temperatur 6
Ter@@ 6
Termin 6
Terror 6
Terroran@@ 6
Text@@ 6
Textilien 6
Thailand 6
Thal@@ 6
Themen@@ 6
Thermal@@ 6
Tie@@ 6
Tief@@ 6
Tipps 6
Tit@@ 6
Tochter 6
Tochter@@ 6
Tragödie 6
Transaktionen 6
Treib@@ 6
Trend 6
Trennung 6
Tru@@ 6
Tschechien 6
Tun@@ 6
Turni@@ 6
Tä@@ 6
UL@@ 6
UND 6
UP@@ 6
UR@@ 6
Uhr@@ 6
Umwelt- 6
Unfälle 6
Uni@@ 6
Untersuchungs@@ 6
Ursache 6
VIP 6
VM 6
Van 6
Veranstaltungs@@ 6
Verbindungs@@ 6
Verbrauch 6
Vergleich@@ 6
Verhandlung 6
Verkaufs@@ 6
Verkehrs 6
Verordnungen 6
Versand@@ 6
Verstöße 6
Verteidigungspolitik 6
Verurteilung 6
Verwirrung 6
Viren 6
Vizepräsident 6
Vol@@ 6
Volkswirtschaften 6
Vollendung 6
Vorgaben 6
Vorrang 6
Vorredner 6
Vorstellungen 6
Vortrag 6
Vorwand 6
Völkermord 6
Völkerrechts 6
WLAN 6
Wach@@ 6
Wachstum@@ 6
Wahlkreis 6
Wallström 6
Weink@@ 6
Weiter 6
Wellnessbereich 6
Weltbank 6
Werbe@@ 6
Wertpap@@ 6
Wertschö@@ 6
Wettbewerbs 6
Wiedervereinigung 6
Wien 6
Wind 6
Wirtschaf@@ 6
Wirtschaft@@ 6
Wissen@@ 6
Wissens@@ 6
Wo@@ 6
Woh@@ 6
Wohl 6
Wohnungen 6
Wäscheservice 6
Zahlungs@@ 6
Zau@@ 6
Zeich@@ 6
Zentren 6
Zertifizierung 6
Zivil@@ 6
Zug@@ 6
Zulassung 6
Zusammen 6
Zusammenhalts 6
Zwangs@@ 6
Zü@@ 6
abgeben 6
abgegeben 6
abgel@@ 6
abhängt 6
abili@@ 6
able 6
abzielen 6
aden@@ 6
ado 6
ahr@@ 6
ai 6
ain 6
alle@@ 6
allgemeinem 6
alo@@ 6
ament 6
ams 6
amt 6
analy@@ 6
analysiert 6
andau@@ 6
anderswo 6
anerkannte 6
angeb@@ 6
angeben 6
angeblich 6
angekün@@ 6
angepasst 6
anhand 6
annimmt 6
anschließ@@ 6
anspruchs@@ 6
ansprüche 6
ant@@ 6
anteil 6
anter 6
any 6
anzuerkennen 6
ard@@ 6
arm@@ 6
artigen 6
ate@@ 6
ath@@ 6
atom@@ 6
audiovisuellen 6
auer 6
aufgeführt 6
aufgerufen 6
aufrechtzuerhalten 6
auftritt 6
ausbildung 6
ausgedehnt 6
ausgehen 6
ausgestattete 6
ausgewählte 6
ausmachen 6
auswahl 6
auswirken 6
automatische 6
automatischen 6
außen 6
außen@@ 6
außenpolitischen 6
basi@@ 6
basierten 6
bearbeitung 6
beauftragt 6
bec 6
bedenken 6
bedeutender 6
bedro@@ 6
beeinflusst 6
been 6
beenden 6
beendet 6
befreien 6
behandlung 6
beiträgt 6
beizu@@ 6
bekann@@ 6
belastung 6
belaufen 6
beliebten 6
bemerkt 6
benachrichtigt 6
benden 6
benen 6
benutz@@ 6
benutzer@@ 6
benötigte 6
bereichs 6
bereitung 6
berühmte 6
bestimm@@ 6
bestände 6
beträchtlichen 6
bett 6
beurteilen 6
bewahren 6
bewertet 6
bewußt 6
bild 6
billigen 6
binden 6
biom@@ 6
bit@@ 6
ble 6
bloß 6
boot 6
boten 6
box 6
bra@@ 6
branche 6
breakfast 6
breit 6
bun@@ 6
bung 6
by@@ 6
ca@@ 6
cal@@ 6
cam@@ 6
cell@@ 6
chan@@ 6
chemische 6
chemischen 6
chi@@ 6
cho@@ 6
chst@@ 6
chter@@ 6
chti@@ 6
chts@@ 6
cia 6
cket 6
cl@@ 6
clean 6
close 6
cm 6
dachte 6
dahin 6
dam@@ 6
dan 6
dans 6
dauerhafte 6
deb@@ 6
defizite 6
dein 6
demo@@ 6
demokratischer 6
dene 6
dens 6
denselben 6
derjenigen 6
derselben 6
derten 6
deutet 6
deutsch 6
dien 6
differenzi@@ 6
disch 6
dor@@ 6
down 6
dro@@ 6
droht 6
dul@@ 6
dur@@ 6
dé@@ 6
ear@@ 6
eben@@ 6
echten 6
echter 6
eckt 6
eckte 6
ehm@@ 6
ehrgeizige 6
ehrgeizigen 6
eht 6
eigenem 6
einfach@@ 6
eingebrachten 6
eingerichteten 6
eingeschränkt 6
einiges 6
einzigartig 6
eleganten 6
elektrischen 6
ella 6
endem 6
endet 6
ennamen 6
enne 6
ennetz 6
enswert 6
enter@@ 6
entfallen 6
enthaltene 6
entnehmen 6
entspann@@ 6
enttäuscht 6
entwickelte 6
entwicklungen 6
entz@@ 6
entziehen 6
era 6
erbaut 6
erfolgte 6
ergibt 6
ergänz@@ 6
erhoben 6
erkennbar 6
erklärten 6
erleichtert 6
ermitteln 6
ermäß@@ 6
erneuerbaren 6
erschö@@ 6
ersuchen 6
erw@@ 6
erwiesen 6
erwor@@ 6
erwähnte 6
erwähnten 6
erzeugnisse 6
esa 6
esten 6
eta 6
ett@@ 6
etten@@ 6
euer 6
europaweit 6
excellent 6
exist@@ 6
fache 6
fahrten 6
fassen 6
fasst 6
feiern 6
fel 6
fert 6
festen 6
festhalten 6
festlegen 6
feu@@ 6
ffe 6
fli@@ 6
fliegen 6
fliehen 6
folglich 6
forder@@ 6
forschung 6
frag@@ 6
fran@@ 6
fuhren 6
funktion 6
fähiger 6
förder@@ 6
füll@@ 6
galt 6
gas 6
gebe 6
geber 6
geber@@ 6
geblieben 6
gebnis 6
gebunden 6
gebäude 6
gebühren 6
gefährden 6
gefährlichen 6
gegenseitig 6
gegent@@ 6
gehabt 6
gelegene 6
gelernt 6
gemeinschaftliche 6
gemü@@ 6
geordneten 6
geprägt 6
gere 6
gericht 6
gerin 6
gering 6
gers 6
gesam@@ 6
geschul@@ 6
geschwächt 6
geschäf@@ 6
geschäfte 6
gesellschaften 6
gesellschaftliche 6
gesetz 6
gesorgt 6
gesperrt 6
get@@ 6
getrennt 6
gewinn@@ 6
gewählte 6
gewöhnlich 6
gingen 6
glei@@ 6
global 6
grenzen 6
grenzüberschreitenden 6
groß@@ 6
grös@@ 6
größ@@ 6
größter 6
gründet 6
gt@@ 6
gur@@ 6
günstig 6
hafter 6
haftet 6
halb 6
halb@@ 6
harmon@@ 6
harte 6
harten 6
heik@@ 6
heil@@ 6
helpful 6
herausragende 6
herbei@@ 6
herum 6
herunter@@ 6
hielt 6
hiermit 6
hilfen 6
hr 6
ico 6
identisch 6
illa 6
illegale 6
industrielle 6
inge 6
ings 6
initi@@ 6
inne 6
inneren 6
instab@@ 6
instrument 6
instrumente 6
intellektu@@ 6
interessierten 6
internationales 6
ire 6
irgend@@ 6
irische 6
ischerweise 6
istischer 6
italien@@ 6
itäts@@ 6
ix 6
izi@@ 6
jahrelang 6
japanischen 6
je@@ 6
kehren 6
kei@@ 6
kel 6
kennt 6
kers 6
ki@@ 6
klarer 6
klausel 6
kleinere 6
kommens@@ 6
kompati@@ 6
kompet@@ 6
kompletten 6
konkre@@ 6
konstru@@ 6
konstruk@@ 6
konstruktiv 6
kontak@@ 6
kontinuierlich 6
kontinuierliche 6
konzept 6
konzer@@ 6
konzipiert 6
kostengünsti@@ 6
krie@@ 6
kritische 6
kräften 6
kurse 6
kurzer 6
kus@@ 6
könnt 6
künst@@ 6
kürz@@ 6
lag 6
lagen@@ 6
lager 6
lam@@ 6
landwirtschaftlichen 6
latein@@ 6
legislativen 6
legitim@@ 6
lehne 6
lehnen 6
lei 6
leichten 6
leidet 6
leiten 6
leiter 6
leitungen 6
lem 6
let@@ 6
letztes 6
li 6
lib@@ 6
lichung 6
lie@@ 6
line 6
lis 6
lische 6
list 6
listen 6
ll 6
llen 6
lo 6
location 6
log@@ 6
low 6
lte 6
lten 6
luxuri@@ 6
ly 6
läge 6
ländliche 6
längst 6
lässig@@ 6
lässigen 6
mail 6
mar 6
mas@@ 6
mechanischen 6
meist 6
menschen@@ 6
methode 6
mi 6
minim@@ 6
ml 6
mobile 6
modell 6
modelle 6
momentan 6
mten 6
mung 6
mächtigen 6
mäler 6
mäßige 6
mündlichen 6
müssten 6
müßte 6
nachhaltig 6
nachzu@@ 6
nahme@@ 6
natürlicher 6
nehm@@ 6
nehme 6
nehmer 6
neo@@ 6
ners 6
nes 6
nete 6
netz@@ 6
neueste 6
new 6
nice 6
niedrige 6
nier 6
nisch 6
non 6
normen 6
nächstes 6
näh@@ 6
nö@@ 6
nütz@@ 6
nützliche 6
odi@@ 6
omp@@ 6
ona 6
one@@ 6
onia 6
oo@@ 6
optimale 6
option 6
optionen 6
organisierte 6
orte 6
ous@@ 6
pan@@ 6
para@@ 6
parti@@ 6
passi@@ 6
paßt 6
persönlicher 6
pflich@@ 6
ph 6
politischem 6
posi@@ 6
post@@ 6
pot 6
potenziellen 6
pour 6
pra@@ 6
prakti@@ 6
produzieren 6
präsentieren 6
ps 6
psych@@ 6
punk@@ 6
pä@@ 6
q 6
quasi 6
ratifiziert 6
ration@@ 6
rats 6
realisieren 6
rechtlich 6
regelmäßigen 6
regelung 6
reguli@@ 6
reinigung 6
reis@@ 6
renommierten 6
repräsentieren 6
repräsentiert 6
restrik@@ 6
rich@@ 6
richtete 6
richtungs@@ 6
rollen 6
roman@@ 6
ruf 6
ruhige 6
rumänischen 6
räu@@ 6
räum@@ 6
ré@@ 6
sachen 6
sah 6
sal@@ 6
sam 6
samm@@ 6
satzes 6
sauber 6
schaft@@ 6
schaftliche 6
schaftlicher 6
schauen 6
scheitern 6
schem 6
schla@@ 6
schlage 6
schle@@ 6
schließ@@ 6
schlug 6
schläge 6
schnelles 6
schnitt 6
schnitten 6
schritt@@ 6
schung 6
schwedische 6
schweigen 6
schwere 6
schäden 6
schädlichen 6
schätzung 6
schützt 6
seitdem 6
seln 6
sender 6
senken 6
seri@@ 6
sinkt 6
soft 6
software 6
sol@@ 6
spanische 6
sport 6
sprach 6
spre@@ 6
ssi@@ 6
stallieren 6
stamm@@ 6
star@@ 6
starkes 6
statten 6
stechnik 6
stens 6
stet 6
stieg 6
stieg@@ 6
stimm@@ 6
stoßen 6
strafrech@@ 6
strah@@ 6
studiert 6
stunden 6
ständige 6
stärke 6
stärksten 6
stücke 6
stützen 6
sy@@ 6
sämtlichen 6
tagung 6
tas 6
tausend 6
technischer 6
technologie 6
terin 6
territorialen 6
terror@@ 6
terung 6
teuer 6
theore@@ 6
tic@@ 6
tief 6
tierte 6
tigungen 6
tis 6
tlinien 6
tom 6
tom@@ 6
top@@ 6
traf 6
tragenen 6
transparent 6
traten 6
trennen 6
trock@@ 6
träge 6
tsprü@@ 6
typ 6
tätigen 6
umfassendes 6
una 6
ungarische 6
unterdrückt 6
unvergessliche 6
unvergleich@@ 6
up@@ 6
urlaub 6
ute 6
veran@@ 6
verarbeitet 6
verbesser@@ 6
verbindet 6
verbindungen 6
verbrau@@ 6
verbreiten 6
vereinfacht 6
vergeben 6
verglichen 6
verhe@@ 6
verlaufen 6
verletzt 6
verliert 6
vermittelt 6
vermögen 6
vernichten 6
vernünftige 6
verpflichten 6
verschaffen 6
versetzen 6
versprechen 6
versuche 6
vertei@@ 6
verursachte 6
verwand@@ 6
verzeichnis 6
verzer@@ 6
vielfältigen 6
vieren 6
vierte 6
vine 6
vis@@ 6
vollkomm@@ 6
voranzutreiben 6
vorausgesetzt 6
vorhand@@ 6
vorher@@ 6
vorrangige 6
vorsch@@ 6
vorschlags 6
vorüber@@ 6
vous 6
wahre 6
wand@@ 6
way 6
wehr 6
weite 6
weiten 6
well 6
welle 6
wen@@ 6
wendung 6
wendungen 6
wenngleich 6
wert@@ 6
wesentlicher 6
wil@@ 6
wir@@ 6
wirtschaftlichem 6
wirtschaftlicher 6
wofür 6
woll@@ 6
wunderschöne 6
wäh@@ 6
wöch@@ 6
wü@@ 6
xen 6
ye 6
yl@@ 6
ypen 6
ze@@ 6
zeitgenössischen 6
zeugung 6
zielt 6
zin@@ 6
zufriedenstellend 6
zugeschnitten 6
zugrunde 6
zun@@ 6
zungen 6
zustellen 6
zuverlässig 6
zwecke 6
zweifel@@ 6
zweimal 6
zweitens 6
zwölf 6
zy@@ 6
zäh@@ 6
© 6
° 6
Änderungsantrags 6
Ökonomie 6
Übereinkommens 6
Übermittlung 6
äh@@ 6
änen 6
änge 6
äum@@ 6
è 6
ère 6
ó@@ 6
öffnung 6
ös 6
österreichischen 6
öt@@ 6
überlegen 6
übermittelt 6
überraschend 6
übersch@@ 6
überschreiten 6
übersetzt 6
überwachen 6
überwacht 6
überwachung 6
ünde 6
ütz@@ 6
ž@@ 6
• 6
--@@ 5
06@@ 5
10.000 5
120 5
1701 5
1979 5
2.0 5
2.1 5
2014 5
2050 5
27. 5
3,@@ 5
30.@@ 5
39 5
48 5
53 5
77 5
80er 5
85 5
86 5
AB@@ 5
AIDS 5
AP 5
AV@@ 5
Abent@@ 5
Abfälle 5
Abgesehen 5
Abs 5
Ach@@ 5
Action 5
Administration 5
Aids 5
Airlines 5
Aktien 5
Aktien@@ 5
Aktions@@ 5
Alkohol@@ 5
Allgemeine 5
Alli@@ 5
Alp@@ 5
Also 5
Alters@@ 5
Aluminium@@ 5
American 5
Amsterdamer 5
Amtszeit 5
Anbindung 5
Ange@@ 5
Anhänger 5
Anonymous 5
Anregungen 5
Anreisedatum 5
Anreiz 5
Ansätze 5
Antibiotika 5
Antrieb@@ 5
Anzei@@ 5
Anzeigen 5
Appartement 5
Appartements 5
Appell 5
Apple 5
Aqu@@ 5
Arbeitnehmern 5
Arbeitsplatz 5
Archiv 5
Aro@@ 5
Aufenthalts 5
Aufstieg 5
Aufstockung 5
Auftrags@@ 5
Aufträge 5
Ausgaben@@ 5
Auslands@@ 5
Ausrüstung 5
Ausserdem 5
Aussichten 5
Außer 5
Außer@@ 5
Az@@ 5
Baby@@ 5
Back@@ 5
Baden 5
Badewanne 5
Bahnen 5
Balkon 5
Ball@@ 5
Barri@@ 5
Basi@@ 5
Bau 5
Beachtung 5
Beamte 5
Begriffe 5
Bemühen 5
Benach@@ 5
Beobach@@ 5
Beobachter 5
Berge 5
Berichterstattern 5
Berichts@@ 5
Beschluß 5
Beschlüssen 5
Beschäf@@ 5
Besonderheit 5
Besuchen 5
Betra@@ 5
Bettwäsche 5
Beurteilung 5
Bewohner 5
Bewusstsein 5
Bier 5
Bike 5
Blo@@ 5
Bologna 5
Boot@@ 5
Bot@@ 5
Brü@@ 5
Buchen 5
Buchungen 5
Bun@@ 5
Börse 5
Büro 5
Büro@@ 5
Bürokratie 5
Büros 5
C4 5
CD@@ 5
CDs 5
CHF 5
Cas@@ 5
Casa 5
Chancengleichheit 5
Channel 5
Chef 5
Cir@@ 5
Clubs 5
Community 5
Côte 5
DC 5
DI 5
Dach@@ 5
Damals 5
Daneben 5
Davon 5
Demokrati@@ 5
Demokratischen 5
Demon@@ 5
Den@@ 5
Dienststellen 5
Digital 5
Direkt 5
Display 5
Donald 5
Double 5
Drive 5
Dum@@ 5
Durchmesser 5
Durchschnitt 5
Dür@@ 5
ED@@ 5
EU@@ 5
EX 5
Edel@@ 5
Edition 5
Effekt 5
Eh@@ 5
Ehr@@ 5
Ehrgeiz 5
Eigentum 5
Eigentümer 5
Einfach@@ 5
Einfluss@@ 5
Eingreifen 5
Einreichung 5
Eintrag 5
Einzelheiten 5
Einzelpersonen 5
End 5
Endes 5
Energiem@@ 5
Energies@@ 5
Energiever@@ 5
Eng@@ 5
Entschließungsanträge 5
Entwürfe 5
Erdgas 5
Ereignissen 5
Erfassung 5
Erfolge 5
Erfordernisse 5
Erhebung 5
Erhö@@ 5
Erinnerungen 5
Erkenn@@ 5
Erkrankungen 5
Ernährung 5
Ernährungs@@ 5
Erste 5
Erzeug@@ 5
Erzeuger 5
Estland 5
Eth@@ 5
Ethernet 5
Europol 5
Euror@@ 5
Event 5
Export 5
Exporte 5
FA@@ 5
Fahrzeugen 5
Fall@@ 5
Fan 5
Fe@@ 5
Fei@@ 5
Feier 5
Fenster@@ 5
Ferienhaus 5
Festplatte 5
Fili@@ 5
Finanzielle 5
Finanzminister 5
Finanzmittel 5
Finanzrahmen 5
Firefox 5
Fisch@@ 5
Fischereiabkommen 5
Fit@@ 5
Fla@@ 5
Flach@@ 5
Fleisch@@ 5
Flexibili@@ 5
Flughaf@@ 5
Flugzeu@@ 5
Flugzeug 5
Flü@@ 5
Flüchtlingen 5
Flügel 5
Forscher 5
Fot@@ 5
Fotografie 5
Fragestunde 5
Freien 5
Freiheits@@ 5
Fremdenverkehr 5
Frieden@@ 5
Frühstücks@@ 5
Frühstücksbuffet 5
Fund@@ 5
Fundament@@ 5
Fäl@@ 5
GIS 5
GPS 5
Galax@@ 5
Galileo 5
Games 5
Ganzes 5
Gast 5
Gates 5
Gay 5
Geben 5
Gedanke 5
Gedanken@@ 5
Gefangenen 5
Gegner 5
Gemeinsam 5
Gemü@@ 5
Gene 5
Genuss 5
Gerichtshofs 5
Gesamtheit 5
Geschlech@@ 5
Gesetzes 5
Gewerkschaften 5
Gewinn 5
Gewinn@@ 5
Gewinner 5
Glauben 5
Glei@@ 5
Glück 5
Gre@@ 5
Grundsatzes 5
Grünbuch 5
Gründer 5
HP 5
HR@@ 5
Haare 5
Haf@@ 5
Hafen 5
Hafen@@ 5
Haft 5
Halbinsel 5
Halle 5
Handelns 5
Handelspartner 5
Handlungen 5
Hans 5
Haushaltsausschusses 5
Hav@@ 5
Heil@@ 5
Heimat 5
Herangehensweise 5
Herbst 5
Herkunfts@@ 5
High 5
Hintergrund@@ 5
Hochschulen 5
Home 5
Hongkong 5
Human@@ 5
Hyper@@ 5
Häfen 5
IC 5
ICH@@ 5
IK 5
IX 5
Il@@ 5
Immobilien 5
Implant@@ 5
Implementierung 5
Inanspruchnahme 5
Indi@@ 5
Indikatoren 5
Informati@@ 5
Initiativ@@ 5
Inland 5
Inneren 5
Insgesamt 5
Inst@@ 5
Instabilität 5
Installer 5
Instituts 5
Instrumenten 5
Integrations@@ 5
Integrität 5
Intel 5
Interesses 5
Is@@ 5
Island 5
J 5
Jack@@ 5
Jacques 5
Jahrzehnte 5
Jet@@ 5
Job 5
Journ@@ 5
Jugend 5
KS 5
Kabel@@ 5
Kamer@@ 5
Kammer@@ 5
Kampf@@ 5
Kampfes 5
Kandidaten 5
Kapitals 5
Kast@@ 5
Katastrophe 5
Keine 5
Kell@@ 5
Kernkraft@@ 5
Kino 5
Kirk 5
Klassen 5
Klienten 5
Kohlendiox@@ 5
Kohäsionsfonds 5
Kollek@@ 5
Kommissionsvorschlag 5
Kommunen 5
Kompatibilität 5
Kompetenz@@ 5
Komple@@ 5
Komplett@@ 5
Komponente 5
Konstruktion 5
Konsumenten 5
Kontinents 5
Konvents 5
Konzepte 5
Konzern 5
Konzert 5
Kooperation 5
Kop@@ 5
Kopie 5
Korrektur 5
Kost@@ 5
Krebs 5
Kreditkarte 5
Kunststoff@@ 5
Kurzem 5
Käl@@ 5
Köln 5
König@@ 5
Körpers 5
Küchen@@ 5
Kürze 5
LCD 5
Lack@@ 5
Lade@@ 5
Lamp@@ 5
Lasten 5
Laut 5
Lebensbedingungen 5
Leer@@ 5
Leid 5
Leist@@ 5
Len@@ 5
Lenk@@ 5
Lieblings@@ 5
Lieferant 5
Life 5
Linien 5
Linken 5
Litauen 5
Lizenz 5
Lobby 5
Lobby@@ 5
Logos 5
Luxus@@ 5
M. 5
MB 5
Mah@@ 5
Main@@ 5
Malta 5
Mauer 5
Mazedonien 5
Maßnahmen@@ 5
Medikamente 5
Meinungen 5
Meister 5
Meldungen 5
Menü@@ 5
Merkel 5
Merkmal 5
Migranten 5
Migrations@@ 5
Milliarde 5
Milosevic 5
Mineral@@ 5
Mini 5
Mini@@ 5
Minibar 5
Mitgefühl 5
Mitglied@@ 5
Mittelmeerraum 5
Mobil@@ 5
Moldau 5
Monats 5
Monitoring 5
Mont@@ 5
Motto 5
Mw@@ 5
MySQL 5
Mön@@ 5
Mühe 5
Mütter 5
NCC 5
NE 5
NEW 5
NICHT 5
Nachmittag 5
Nationalpark 5
Navigation 5
Net 5
Netzes 5
Netzwerk@@ 5
News 5
Nichtraucherzonen 5
Niemand 5
No 5
Norm 5
Nutzungs@@ 5
Nächte 5
OT@@ 5
Obergrenze 5
Objek@@ 5
Offen@@ 5
Oft 5
Ohren 5
Olivenöl 5
Olymp@@ 5
Oran@@ 5
Origin@@ 5
Ost 5
Osteuropas 5
P. 5
PA 5
PC@@ 5
Paar 5
Pakist@@ 5
Pakistan 5
Pakt 5
Palast 5
Panorama 5
Parkplatz 5
Parks 5
Patente 5
Pazi@@ 5
Performance 5
Periode 5
Person@@ 5
Perspektiven 5
Pestizi@@ 5
Pfad 5
Pferd 5
Photo@@ 5
Physi@@ 5
Pilot@@ 5
Pin@@ 5
Plattform 5
Polens 5
Politiken 5
Porto 5
Post 5
Potential 5
Pre@@ 5
Private 5
Prodi 5
Prof@@ 5
Profession@@ 5
Protokolle 5
Prozessen 5
Prävention 5
Publishing 5
Py@@ 5
Q 5
Qualitäten 5
RES@@ 5
Rab@@ 5
Radio 5
Raf@@ 5
Rati@@ 5
Ratspräsidenten 5
Rauchen 5
Realisierung 5
Rechtsan@@ 5
Reden 5
Regelungs@@ 5
Reichtum 5
Reisever@@ 5
Rem@@ 5
Renten 5
Reparatur 5
Report 5
Reports 5
Research 5
Reservierung 5
Residence 5
Residenz 5
Rettungs@@ 5
Rindfleisch 5
Ring 5
Risiko@@ 5
Rit@@ 5
Robert 5
Rohstoffe 5
Roll@@ 5
Ry@@ 5
Rückzug 5
Rüstungs@@ 5
SAT 5
SI@@ 5
SK@@ 5
SQL 5
Safe 5
Salzburg 5
Salzkammergut 5
Sammel@@ 5
Sammlung 5
Samsung 5
Sand 5
Sand@@ 5
Schaden@@ 5
Schattenberichterstattern 5
Schei@@ 5
Scheitern 5
Schil@@ 5
Schlacht@@ 5
Schlag 5
Schlag@@ 5
Schlussfolgerung 5
Schlußfolgerungen 5
Schmer@@ 5
Schrift 5
Schuh@@ 5
Schulungs@@ 5
Schulz 5
Schwarz@@ 5
Schwarzen 5
Schönheits@@ 5
Schüler 5
Seg@@ 5
Sekunden 5
Sel@@ 5
Selbstbestimmung 5
Sen@@ 5
Ser@@ 5
Service@@ 5
Seu@@ 5
Shi@@ 5
Show 5
Sicherheit@@ 5
Sicherung 5
Sieg 5
Siena 5
Sierra 5
Sil@@ 5
Single 5
Sinn@@ 5
Solarium 5
Somit 5
Son@@ 5
Sonn@@ 5
Sor@@ 5
Sound 5
Sound@@ 5
Spek@@ 5
Spende 5
Spielraum 5
Spit@@ 5
Spitz@@ 5
Sportler 5
Spre@@ 5
Sprecher 5
Später 5
Sri 5
Standpunkte 5
Stau@@ 5
Steigerung 5
Steine 5
Stell@@ 5
Stern@@ 5
Steuerzahler 5
Sto@@ 5
Str@@ 5
Straft@@ 5
Strah@@ 5
Strasse 5
Straßburg 5
Straßenverkehr 5
Strom 5
Stän@@ 5
Stücke 5
Stütz@@ 5
Such@@ 5
Suchen 5
Swimmingpool 5
Sym@@ 5
Südo@@ 5
TH@@ 5
Tabelle 5
Tak@@ 5
Taste 5
Tatatabot 5
Taxi 5
Team@@ 5
Telef@@ 5
Temp@@ 5
Test 5
Texten 5
Textes 5
Tr@@ 5
Track 5
Transaktion 5
Treibhausgasemissionen 5
Troika 5
Träger 5
Tschechische 5
Tschetschenien 5
UC@@ 5
UK@@ 5
UM 5
UNESCO 5
URL 5
Ul@@ 5
Umstellung 5
Umweltfragen 5
Umweltsch@@ 5
Umweltschutz@@ 5
Unabhängi@@ 5
Ungleichheiten 5
Universitäten 5
Uns 5
Unsicherheit 5
Unterhaltung 5
Unterscheidung 5
Urheber@@ 5
Urlaubs@@ 5
VP 5
Valencia 5
Var@@ 5
Variable 5
Venti@@ 5
Verbin@@ 5
Verbrech@@ 5
Verfasser 5
Verfügbarkeit 5
Vergabe 5
Verhinderung 5
Vermittlungsverfahren 5
Vermögens@@ 5
Versamm@@ 5
Versand 5
Verschiedene 5
Versicherungs@@ 5
Vertrag@@ 5
Vertriebs@@ 5
Verwand@@ 5
Verzeichnis 5
Vil@@ 5
Viol@@ 5
Vorfälle 5
Vorgän@@ 5
Vorred@@ 5
Vorsicht 5
Votum 5
Völker@@ 5
Völkern 5
Wachstums 5
Wagen 5
Wahrnehmung 5
Wall@@ 5
Wartung 5
Washington 5
Wat@@ 5
Watch 5
Wechsel@@ 5
Weiterbildung 5
Weitergabe 5
Wellen 5
Weltkrieg 5
Werden 5
Wert@@ 5
Wetter@@ 5
WiFi 5
Wil@@ 5
Wirk@@ 5
Wirkungs@@ 5
Wissenschafts@@ 5
Wohlergehen 5
Wolf 5
Workshops 5
Wortlaut 5
Wurzeln 5
Wäre 5
Wärme@@ 5
Wüste 5
Zeitalter 5
Zeitschrift 5
Ziels 5
Zigare@@ 5
Zivilisten 5
Zone 5
Zuerst 5
Zugleich 5
Zusage 5
Zutaten 5
Zuverlässigkeit 5
Zweiten 5
Zyklus 5
aben 5
abends 5
abgebaut 5
ability 5
abkommens 5
abler 5
abschließen 5
abschluss 5
absol@@ 5
absoluten 5
absurd 5
abteilung 5
ac 5
ación 5
acken 5
ail@@ 5
akadem@@ 5
akte 5
aktiver 5
akts 5
alisierten 5
alleine 5
ally 5
altern@@ 5
alternative 5
altung 5
aly@@ 5
amente 5
amtierenden 5
analyse 5
analysieren 5
andels 5
anfän@@ 5
angebot 5
angekommen 5
anges@@ 5
angeschlossen 5
angestre@@ 5
anmelden 5
anna 5
anony@@ 5
anpass@@ 5
ans@@ 5
ansch@@ 5
anspru@@ 5
anspruchsvolle 5
anstal@@ 5
antwor@@ 5
anwendbar 5
anz 5
anzubieten 5
appen 5
aran@@ 5
arbeite 5
ares 5
arische 5
artig 5
artiges 5
ash 5
ateg@@ 5
ater 5
ator@@ 5
attraktive 5
atur 5
aufgeben 5
aufgegriffen 5
aufkommen 5
aufweisen 5
auseinander@@ 5
auses 5
ausgenommen 5
ausgesch@@ 5
ausgeschlossen 5
ausgewo@@ 5
ausgewogene 5
auslösen 5
ausnah@@ 5
ausreich@@ 5
ausstattung 5
ausstellung 5
auszutauschen 5
auszuüben 5
authenti@@ 5
autori@@ 5
avi@@ 5
bahnen 5
basis 5
bauten 5
beabsichtigt 5
beachtet 5
beanspru@@ 5
bedauere 5
bedienen 5
bedient 5
bedürfen 5
beeindruckende 5
befug@@ 5
begangen 5
begeist@@ 5
begrenzte 5
beha@@ 5
beherrscht 5
beides 5
bekanntesten 5
beliebte 5
benachbarten 5
berau@@ 5
bereitgestellten 5
bergen 5
berger 5
berichtet 5
bert 5
berufen 5
beschreibt 5
beschäf@@ 5
beschäftigungs@@ 5
beseitigt 5
besetzt 5
besi@@ 5
besitz 5
best 5
bestehend 5
besticht 5
bestrafen 5
besu@@ 5
betreut 5
betrug 5
betten 5
bevorzugte 5
bewegt 5
bewegung 5
bewerten 5
bewährten 5
bezeichnen 5
biet@@ 5
bildenden 5
bildungs@@ 5
bindung 5
blatt 5
blei@@ 5
blick 5
blieb 5
block 5
blätter 5
brand@@ 5
brasili@@ 5
bre@@ 5
brech@@ 5
breites 5
brenn@@ 5
brin@@ 5
buch@@ 5
burger 5
ce@@ 5
centre 5
charta 5
chi 5
chnei@@ 5
chtete 5
cking 5
codes 5
col@@ 5
could 5
cxns 5
dargestellt 5
dat@@ 5
debattieren 5
defizit 5
dele@@ 5
della 5
dementsprechend 5
denkbar 5
derungen 5
detaillierte 5
deutschsprachigen 5
dev 5
dieren 5
diesbezügliche 5
digten 5
digungen 5
diskrimin@@ 5
diskriminiert 5
dol@@ 5
don 5
doppelt 5
dramatisch 5
dre@@ 5
dri@@ 5
drittens 5
dritter 5
drucken 5
drücke 5
durchgesetzt 5
durfte 5
dynamischen 5
ech@@ 5
echn@@ 5
echnik 5
echtes 5
eckten 5
edi@@ 5
effektiven 5
eg 5
egenen 5
ehmern 5
ehren 5
eigener 5
eilung 5
einander@@ 5
einbringen 5
eindeutige 5
eingang 5
eingebaut 5
eingeben 5
eingebracht 5
eingehend 5
eingeschlossen 5
einst 5
einzigar@@ 5
einzuhalten 5
einzustellen 5
eira 5
eleg@@ 5
elf 5
ema 5
ement 5
empfiehlt 5
enge 5
enger 5
enstern 5
enswer@@ 5
entdeckte 5
ente@@ 5
entfernten 5
entieren 5
entlang 5
entsprechender 5
entsprä@@ 5
entsteht 5
entwerfen 5
entwick@@ 5
entworfen 5
erbar 5
erbracht 5
erc@@ 5
erfahrenen 5
erh@@ 5
erheb@@ 5
erheblichen 5
erkenn@@ 5
erkunden 5
erledigt 5
ermordet 5
ermutigen 5
ermutigt 5
ernannt 5
erneute 5
ernste 5
ernsten 5
erschein@@ 5
erschien 5
erstaunt 5
erstklassige 5
erstreckt 5
erwecken 5
erweist 5
erweiterte 5
esenen 5
ess 5
esse 5
etze 5
etzt 5
eur@@ 5
eure 5
eva 5
eventuelle 5
exklu@@ 5
exo@@ 5
externen 5
fair 5
falsche 5
familie 5
fang@@ 5
fangs 5
far@@ 5
fassten 5
fei@@ 5
feier@@ 5
feinen 5
ferenz 5
fern@@ 5
festigen 5
festzuhalten 5
fiel 5
fine 5
fizierungs@@ 5
floor 5
flow 5
flug 5
flug@@ 5
fluss 5
flächen 5
folgendes 5
folgte 5
folgten 5
foli@@ 5
fortgeschrit@@ 5
fortschrit@@ 5
fot@@ 5
fragte 5
französische 5
friedlichen 5
frisch 5
fro@@ 5
früh 5
fungen 5
fungieren 5
funktionierenden 5
förderung 5
förmi@@ 5
fü@@ 5
gal@@ 5
games 5
gangs 5
ganz@@ 5
geachtet 5
gebenen 5
gebilligt 5
gebun@@ 5
gebühr 5
gedenkt 5
geehrten 5
gefaßt 5
gefertigt 5
gefäch@@ 5
gefährdet 5
gehei@@ 5
geholfen 5
gehöri@@ 5
geklärt 5
gekämpft 5
geladen 5
geleistete 5
geltend 5
gem@@ 5
gemeinschaften 5
gemä@@ 5
gemütlich 5
gemütliche 5
gemütliches 5
genaue 5
genauen 5
gendes 5
genehm@@ 5
genehmigung 5
genetisch 5
gent@@ 5
genü@@ 5
geo@@ 5
geograph@@ 5
geraten 5
gerechnet 5
geren 5
gerichtete 5
gering@@ 5
gert 5
gerweise 5
geräten 5
gesammelt 5
geschafft 5
geschlossen@@ 5
geschäft 5
geschätzten 5
gesell@@ 5
gesenkt 5
gesetze 5
gesp@@ 5
gespeichert 5
gesteuert 5
gesu@@ 5
gesundheitlichen 5
gewinnt 5
gewis@@ 5
gewähr@@ 5
gewünschte 5
gigen 5
gio 5
gleichwohl 5
glichkeit 5
glichkeiten 5
greifenden 5
gres@@ 5
größe 5
gründete 5
gäste 5
gültige 5
günstigen 5
habt 5
had 5
haftigkeit 5
halt@@ 5
haltene 5
haltens 5
handel@@ 5
harmonisieren 5
haushalts@@ 5
heben 5
herauszu@@ 5
herrschen 5
hersteller 5
hinnehmbar 5
hinnehmen 5
hinzu 5
hinzugefügt 5
historischer 5
hmen 5
hochwer@@ 5
hoher 5
holz 5
hot@@ 5
hundert@@ 5
hänge 5
häre 5
höheres 5
iPod 5
icht 5
ics 5
id@@ 5
iel 5
ielle 5
ierenden 5
ießen 5
ignoriert 5
igung 5
iken 5
immerhin 5
iner 5
inger 5
inken 5
inklusive 5
installi@@ 5
institu@@ 5
intensivieren 5
interpre@@ 5
inu@@ 5
iranischen 5
irgendwelche 5
isieren 5
islamischen 5
istisch 5
italienische 5
japanische 5
jeglicher 5
jenige 5
jugosla@@ 5
just 5
jü@@ 5
kamp@@ 5
kaner 5
kap@@ 5
kapital@@ 5
kauf@@ 5
kehrt 5
keineswegs 5
kem@@ 5
kernel 5
kes@@ 5
klam@@ 5
klar@@ 5
klares 5
klasse 5
klein 5
kleinsten 5
klick 5
kn@@ 5
kommerziellen 5
komp@@ 5
komple@@ 5
konsequ@@ 5
konstruiert 5
konstruktion 5
konstruktiven 5
konvention 5
konventionellen 5
konz@@ 5
kost@@ 5
krebs 5
kreis 5
kräfte 5
kub@@ 5
kunden@@ 5
kurs 5
kurzfristig 5
kämpfe 5
kümmert 5
kün@@ 5
küste 5
langes 5
langjährige 5
langjährigen 5
leben@@ 5
lege 5
legte 5
lement 5
lernte 5
less 5
letten 5
leu@@ 5
lev@@ 5
liberalen 5
lic@@ 5
lichere 5
lichsten 5
lieben 5
light 5
ling@@ 5
linge 5
linie 5
linken 5
lla 5
loc@@ 5
located 5
lohnt 5
lossenen 5
lter 5
lus@@ 5
luxuriösen 5
luß@@ 5
läne 5
läßlich 5
lös@@ 5
lück@@ 5
machte 5
made 5
mag@@ 5
malen 5
mangel 5
mangelnde 5
mark@@ 5
marktes 5
marquis 5
massiv 5
materialien 5
materiellen 5
medizinische 5
meinte 5
meistern 5
menge 5
mensch@@ 5
mente 5
menü 5
merk@@ 5
mes@@ 5
mg 5
ministerin 5
mische 5
mitglieder 5
modernes 5
modi@@ 5
movie 5
multinationalen 5
mußte 5
my 5
müh@@ 5
nachdrück@@ 5
nachdrücklich 5
nachzudenken 5
nation@@ 5
nbsp 5
negative 5
negativen 5
nehmen@@ 5
nehmern 5
nennt 5
neutral 5
ney 5
ni 5
nich@@ 5
nord@@ 5
norm@@ 5
nungen 5
nördlichen 5
nötige 5
nü@@ 5
oberen 5
objek@@ 5
off@@ 5
ograf@@ 5
ohlen 5
ohnehin 5
ok 5
old 5
oll 5
onnen 5
ons@@ 5
open 5
operativen 5
operi@@ 5
opfer 5
opfern 5
optimalen 5
optimieren 5
optischen 5
ordnungen 5
ordnungsgemä@@ 5
ordnungsgemäße 5
organisierten 5
other 5
ott 5
over 5
ow 5
packen 5
palästinensische 5
para 5
peri@@ 5
personenbezogenen 5
pfeiler 5
pflanzen 5
pflegen 5
pft 5
phase 5
pla@@ 5
plo@@ 5
plus 5
pläne 5
politi@@ 5
politiken 5
port 5
potenti@@ 5
ppt 5
pr@@ 5
pragmati@@ 5
preis@@ 5
preisgekrön@@ 5
pres@@ 5
privilegi@@ 5
produzi@@ 5
professionelle 5
präz@@ 5
prüfung 5
quali@@ 5
qualifizierten 5
quart@@ 5
rachte 5
rahmen@@ 5
raschen 5
ration 5
rationen 5
reagi@@ 5
reagiert 5
realen 5
really 5
rec@@ 5
rechtlicher 5
reformen 5
regel@@ 5
regen 5
regionen 5
reiches 5
reichlich 5
reit@@ 5
relation 5
relevante 5
religiöse 5
religiösen 5
renovierte 5
rent@@ 5
repar@@ 5
reserven 5
resp@@ 5
rich 5
richti@@ 5
richtlinien 5
rid@@ 5
rischen 5
ron 5
ror@@ 5
rum 5
rump@@ 5
runden 5
rus@@ 5
rän@@ 5
räte 5
s- 5
sab@@ 5
sah@@ 5
saison 5
same 5
samkeit 5
sc@@ 5
scape 5
schafter 5
schalten 5
schenken 5
schich@@ 5
schicht 5
schied@@ 5
schiff@@ 5
schir@@ 5
schlafen 5
schlu@@ 5
schluss 5
schlägen 5
schlüssel 5
schmerz@@ 5
schn@@ 5
schre@@ 5
schreckliche 5
schrecklichen 5
schrif@@ 5
schriftliche 5
schu@@ 5
schuld 5
schulden 5
schutzes 5
schwan@@ 5
schwächen 5
schöner 5
sech@@ 5
sek@@ 5
selts@@ 5
sem 5
sende 5
sendet 5
sendung 5
sensi@@ 5
serklärung 5
ses@@ 5
setzungen 5
shand@@ 5
sicherer 5
sichert 5
sichti@@ 5
side 5
siedlung 5
sing@@ 5
sinnvolle 5
sion@@ 5
sischer 5
situation 5
sitz@@ 5
solle 5
some 5
sozi@@ 5
spal@@ 5
spartner 5
spektrum 5
spiel 5
split@@ 5
spon@@ 5
sprachigen 5
sprin@@ 5
spru@@ 5
spüren 5
ss 5
sson 5
stabil 5
stag 5
stammt 5
statistische 5
stattdessen 5
stay 5
steam 5
stechn@@ 5
stei@@ 5
steigenden 5
steil 5
steller 5
stellungs@@ 5
sterben 5
stern 5
steuer@@ 5
sth@@ 5
stil 5
still@@ 5
strategischer 5
stren@@ 5
strenge 5
strengere 5
stritten 5
stro@@ 5
strukturelle 5
strukturellen 5
strä@@ 5
studieren 5
städtischen 5
ständen 5
ständi@@ 5
stör@@ 5
substan@@ 5
summe 5
systemen 5
sz@@ 5
sä@@ 5
sé@@ 5
südlich 5
tags 5
tar@@ 5
tatsächlichen 5
tchen 5
techn@@ 5
techni@@ 5
ted 5
teilten 5
tenen 5
tener 5
terrasse 5
tert 5
terten 5
test 5
teste 5
thal@@ 5
thaus 5
theken 5
thema 5
therapie 5
there 5
they 5
thos 5
ths 5
tiefen 5
tierung 5
tigungs@@ 5
tiker 5
time 5
tin@@ 5
tipp 5
tisches 5
tnismäßig 5
toleri@@ 5
totalit@@ 5
transatlantischen 5
transparenter 5
transpor@@ 5
transportiert 5
traum@@ 5
traums 5
trenn@@ 5
trieb@@ 5
trop@@ 5
tschaf@@ 5
tschechische 5
tschechischen 5
tte 5
ty@@ 5
tzen 5
uer 5
uliert 5
unbesch@@ 5
unde@@ 5
unent@@ 5
unfähig 5
ungere@@ 5
unglaublich 5
ungsper@@ 5
union 5
unmittelbare 5
unt@@ 5
unterbreitet 5
unteren 5
unterrichtet 5
unterscheidet 5
unterstreicht 5
unverantwor@@ 5
unverändert 5
uropä@@ 5
ursprüngliche 5
use 5
utz@@ 5
utzt 5
v. 5
val@@ 5
van@@ 5
veaus 5
verab@@ 5
veranstal@@ 5
verarbeiten 5
verbesserte 5
verbrauch 5
verbände 5
verdeutlicht 5
vereinen 5
vergleichen 5
verhaftet 5
verhandlungen 5
verheerenden 5
verhängt 5
verkauf 5
verlor@@ 5
verläuft 5
vermis@@ 5
verpflich@@ 5
verschieden 5
verschärfen 5
versehen 5
versi@@ 5
versionen 5
verspricht 5
verstoßen 5
verständ@@ 5
verständliche 5
versäumt 5
verteilung 5
vertiefen 5
vertrags 5
vertrauen 5
verw@@ 5
verwalten 5
verwaltet 5
verz@@ 5
veröffentlichte 5
viert 5
vierten 5
view 5
visi@@ 5
vit@@ 5
vollsten 5
vollständiger 5
vorangegangenen 5
voranzubringen 5
vorbehalten 5
vorgetragen 5
vorkommen 5
vorlegt 5
vorliegt 5
vorschläge 5
vorschlägt 5
vorzunehmen 5
völ@@ 5
völlige 5
wachstum 5
wahl@@ 5
wandern 5
weisung 5
weitergegeben 5
weitergehen 5
wel@@ 5
wen 5
wende 5
werks 5
wertvolle 5
wet@@ 5
wettbewerb 5
wettbewerbsfähig 5
wider 5
widersprechen 5
widmet 5
wiederhole 5
willigen 5
wirksam@@ 5
wirksamer 5
wirkungen 5
wirst 5
wischen 5
wissenschaft@@ 5
wissenschaftlicher 5
wohlhab@@ 5
wohn@@ 5
wohnheiten 5
wohnungen 5
womit 5
womöglich 5
ws 5
wunderbare 5
wunderschönen 5
wäs@@ 5
wörter 5
wür@@ 5
xis@@ 5
yn 5
z.@@ 5
za@@ 5
zehnten 5
zeigte 5
zeile 5
zeitlich 5
zeitraum 5
zentraler 5
zia 5
zieren 5
zo@@ 5
zog 5
zogen 5
zugreifen 5
zukunfts@@ 5
zulegen 5
zulässig 5
zunehmen@@ 5
zustand 5
zustande 5
zuver@@ 5
zuwenden 5
zweifelt 5
zö@@ 5
§ 5
Ärzte 5
Überarbeitung 5
Übergang 5
Übersetzungen 5
Überwindung 5
ás 5
ähnliches 5
änderung 5
ärer 5
äst@@ 5
ästheti@@ 5
ätze 5
äußer@@ 5
ê@@ 5
ín 5
ón 5
öl 5
örtlichen 5
ös@@ 5
öse 5
ösen 5
östlich 5
ösungen 5
übereinstimmen 5
überflüssig 5
übergeben 5
überschritten 5
übertragung 5
überwie@@ 5
überwälti@@ 5
ühr@@ 5
ürzt 5
üsse 5
Š@@ 5
.000 4
.org 4
0,00 4
04 4
05 4
1,5 4
100@@ 4
11.00 4
111 4
13.@@ 4
142 4
15.@@ 4
19.@@ 4
1967 4
1973 4
1976 4
1978 4
1980 4
1985 4
2.2 4
24. 4
29@@ 4
36@@ 4
6,@@ 4
66 4
72 4
73 4
81 4
92 4
93 4
94 4
A. 4
A4 4
ABS 4
AD 4
AGB 4
ALDE 4
AN 4
AP@@ 4
AS 4
ASA 4
Abfall 4
Abgabe 4
Abreise 4
Abschluß 4
Abstimmungen 4
Abänderungs@@ 4
Adel@@ 4
Adri@@ 4
Ag@@ 4
Airways 4
Aktionsplans 4
Aktionsprogramm 4
Alan 4
Alexander 4
Algerien 4
Alkohol 4
Amat@@ 4
Anbau 4
Angeboten 4
Angela 4
Angleichung 4
Angriffe 4
Anhang 4
Anhän@@ 4
Anhörungen 4
Animation 4
Anlage@@ 4
Anleger 4
Anleitung 4
Ansprüchen 4
Anstatt 4
Antonio 4
Antrieb 4
Anwendungsbereich 4
Appar@@ 4
Applikationen 4
Arbeitslosen@@ 4
Architek@@ 4
Argentinien 4
Arm 4
Arn@@ 4
Arran@@ 4
Arti@@ 4
Artikeln 4
Artikels 4
Arzt 4
As 4
Aserbaidschan 4
Asp@@ 4
Asylan@@ 4
Atlantik 4
Atomwaffen 4
Audio@@ 4
Aufenthalts@@ 4
Aufgaben@@ 4
Aufnahme@@ 4
Aufpreis 4
Aufschwung 4
Aufsicht 4
Aufsichts@@ 4
Ausflug 4
Ausfuhr@@ 4
Ausgang 4
Auslieferung 4
Ausnahme@@ 4
Aussage 4
Ausschüssen 4
Ausstellungen 4
Ausstellungs@@ 4
Auswärtigen 4
Autor@@ 4
Autoren 4
Autorität 4
Außenminister 4
Award 4
Azur 4
Bahnstation 4
Bands 4
Barrieren 4
Bauer 4
Bauteile 4
Bay 4
Bayern 4
Bearbeitungs@@ 4
Beauty 4
Bedingung 4
Begrenzung 4
Behandlungen 4
Beihilfe 4
Beitrittskandidaten 4
Beitrittsländer 4
Beitrittsländern 4
Bekannt@@ 4
Bekanntlich 4
Belange 4
Belastung 4
Belastungen 4
Bell@@ 4
Bem@@ 4
Benachrichti@@ 4
Benutzen 4
Berat@@ 4
Beratungen 4
Berechnung 4
Bergen 4
Beruf 4
Beruf@@ 4
Besatz@@ 4
Besatzung 4
Bescheid 4
Beschleunigung 4
Beschwerde 4
Besichtigung 4
Besitz@@ 4
Besonderen 4
Besser@@ 4
Bestimm@@ 4
Besu@@ 4
Beta 4
Betrei@@ 4
Bewegungen 4
Bibliotheken 4
Bilanz 4
Bildschirm 4
Bildungs- 4
Bio 4
Biokraft@@ 4
Black 4
Blick@@ 4
Bonus@@ 4
Boots@@ 4
Brand 4
Brand@@ 4
Breit@@ 4
British 4
Bruder 4
Brust@@ 4
Bruttoinlands@@ 4
Buchungs@@ 4
Buffet 4
Bul@@ 4
Bushaltestelle 4
Bügelservice 4
Büh@@ 4
Bün@@ 4
Bünd@@ 4
CC 4
CH 4
CHEN 4
CNC 4
COM 4
CPU 4
CS 4
Ca@@ 4
Cafés 4
Camping@@ 4
Carl@@ 4
Casino@@ 4
Cat@@ 4
Catalunya 4
Cav@@ 4
Chaos 4
Chile 4
Chr. 4
Christian 4
Cin@@ 4
Classic 4
Clients 4
Cob@@ 4
Consulting 4
Cookie 4
Copy@@ 4
Creative 4
Cri@@ 4
Cro@@ 4
Cru@@ 4
Cup 4
DE@@ 4
DR 4
DS@@ 4
DU 4
Da@@ 4
Dachterrasse 4
Danke 4
Daphne 4
Daraus 4
Darin 4
Datenschutz 4
Dauer@@ 4
Defiz@@ 4
Defizit 4
Deiner 4
Demand 4
Demonstranten 4
Demonstration 4
Deutsch 4
Dev@@ 4
Devisenwechsel 4
Diensten 4
Dienstes 4
Dienstleister 4
Differenzen 4
Diplom@@ 4
Diskussions@@ 4
Distribut@@ 4
Diversifizierung 4
Doha 4
Don 4
Doppelbett 4
Doppelzimmer 4
Dre@@ 4
Dringlichkeits@@ 4
Drink 4
Drittländer 4
Drittländern 4
Dublin 4
Dup@@ 4
Durchschnitts@@ 4
Dörfer 4
Dü@@ 4
ECH@@ 4
ECHO 4
EGF 4
ELL@@ 4
ET 4
Ech@@ 4
Echtzeit 4
Ecke 4
Egal 4
Ehren@@ 4
Eigentlich 4
Einen 4
Einerseits 4
Einfuhren 4
Eingangs@@ 4
Einkommens@@ 4
Einschränkungen 4
Eintritt 4
Einwanderungspolitik 4
Einwohnern 4
Eis 4
Ele@@ 4
Emis@@ 4
Emo@@ 4
Energiek@@ 4
Energiepolitik 4
Energieverbrauch 4
Energieversorgung 4
Engagements 4
Ents@@ 4
Entscheidungsträger 4
Entschließungen 4
Entschädigung 4
Entspannen 4
Entwicklern 4
Entwicklungshilfe 4
Erb@@ 4
Erfol@@ 4
Erfordernis 4
Ergebnis@@ 4
Erhalt 4
Erkenntnis 4
Erlaubnis 4
Erleichterung 4
Ermäß@@ 4
Ern@@ 4
Ero@@ 4
Ersten 4
Erweiterungen 4
Erwerb 4
Es@@ 4
Essen 4
Etwa 4
Europa@@ 4
European 4
Europäern 4
Eurostat 4
Event@@ 4
Ex 4
Exempl@@ 4
Exper@@ 4
Explo@@ 4
Export@@ 4
Express 4
F. 4
FM 4
FOR@@ 4
FR@@ 4
Fab@@ 4
Fah@@ 4
Fahrplan 4
Fahrrad 4
Fahrzeug 4
Fahrzeug@@ 4
Fak@@ 4
Fal@@ 4
Famili@@ 4
Fans 4
Feder@@ 4
Felsen 4
Feri@@ 4
Fernseher 4
Fertigung 4
Fest 4
Filter@@ 4
Finanz- 4
Finanziellen 4
Finn@@ 4
First 4
Fische 4
Fischern 4
Flag@@ 4
Flagge 4
Fle@@ 4
Fli@@ 4
Fluggesellschaften 4
Fokus 4
Ford 4
Forsch@@ 4
Fortschritten 4
Fotografien 4
Foundation 4
Franzosen 4
Französisch 4
Frauen@@ 4
Freizügigkeit 4
Fremdenfeindlichkeit 4
Frequ@@ 4
Friendly 4
Fro@@ 4
Front 4
Fut@@ 4
Futter@@ 4
Fußball@@ 4
G8 4
GE 4
Ganze 4
Ganzen 4
Garan@@ 4
Garden 4
Gebur@@ 4
Ged@@ 4
Gedächtnis 4
Gefan@@ 4
Gefängnis 4
Geg@@ 4
Gegebenheiten 4
Gegenstände 4
Geiste 4
Geltungsbereich 4
Gelände 4
Gemeinschaftshaushalt 4
Gemeinschaftsrecht 4
Genauigkeit 4
Genehmigung 4
General@@ 4
Generalsekretär 4
Gerne 4
Geschlecht 4
Geschwindi@@ 4
Geschäftsführer 4
Geschäftspar@@ 4
Gesetzen 4
Gestalt 4
Gesundheitswesen 4
Getrie@@ 4
Gewalt@@ 4
Gewähr@@ 4
Gewährung 4
Gewässern 4
Glas 4
Glau@@ 4
Gleichbehandlung 4
Global 4
Gold 4
Gor@@ 4
Grafik 4
Granada 4
Green 4
Group 4
Große 4
Großunternehmen 4
Grundzüge 4
Gum@@ 4
Gutes 4
Gö@@ 4
Göteborg 4
Gültigkeit 4
HOTEL 4
Hack@@ 4
Haftungs@@ 4
Hall 4
Haltestelle 4
Handels- 4
Handhabung 4
Handlung 4
Handy 4
Hannover 4
Hat 4
Haushaltsausschuß 4
Haushaltslinie 4
Haushaltsp@@ 4
Head@@ 4
Heidelberg 4
Helsinki 4
Herkunft 4
Herrschaft 4
Herzlich 4
Himm@@ 4
Hinsichtlich 4
Hisbollah 4
Histori@@ 4
Hit@@ 4
Hitler 4
Hochgeschwindi@@ 4
Hoffnungen 4
Holding 4
How 4
Hunder@@ 4
Hunger 4
Hypoth@@ 4
Hä@@ 4
Här@@ 4
Hö@@ 4
Höhen@@ 4
Höhepunkt 4
Hügeln 4
I. 4
IB@@ 4
IL 4
IR 4
IV 4
Ideal 4
Identifizierung 4
Immer@@ 4
Immunität 4
Imp@@ 4
Importe 4
Inbetriebnahme 4
Indiens 4
Indik@@ 4
Indonesien 4
Industrien 4
Industriepolitik 4
Inf@@ 4
Info 4
Infolgedessen 4
Inform@@ 4
Information@@ 4
Informations- 4
Ingenieure 4
Inhaber 4
Inn 4
Innenhof 4
Innov@@ 4
Installations@@ 4
Institute 4
Intern@@ 4
Interview 4
Invasion 4
Invent@@ 4
Investment 4
Irlands 4
Italiener 4
Italiens 4
JPEG 4
Jagd 4
Jahre@@ 4
Javascript 4
Je@@ 4
Jeden 4
Jedenfalls 4
Jel@@ 4
Jesus 4
Jugend@@ 4
Juli@@ 4
Jung@@ 4
Jä@@ 4
KB 4
KG 4
KON@@ 4
Kameras 4
Kamin 4
Kapit@@ 4
Kapital 4
Karriere 4
Karten@@ 4
Katal@@ 4
Ke@@ 4
Kel@@ 4
Kernenergie 4
Kinnock 4
Klarheit 4
Klassen@@ 4
Klaus 4
Klim@@ 4
Kluft 4
Koalition 4
Koch@@ 4
Kombin@@ 4
Komm@@ 4
Kommando 4
Kommentar 4
Kommissionsmitglied 4
Kommissionspräsidenten 4
Kommuni@@ 4
Kompres@@ 4
Kompromisse 4
Kompromisses 4
Kompromiß 4
Konkre@@ 4
Konservativen 4
Kontra@@ 4
Kontrast 4
Konvention 4
Konzent@@ 4
Konzerte 4
Koordination 4
Kra@@ 4
Kranken@@ 4
Krie@@ 4
Kritik@@ 4
Krä@@ 4
Kunststoff 4
Kurs@@ 4
Ky@@ 4
Käufer 4
LAN@@ 4
Lach@@ 4
Landwirten 4
Langl@@ 4
Langzeit@@ 4
Laptop 4
Last@@ 4
Latein@@ 4
Latin 4
Laufenden 4
Leder@@ 4
Leidenschaft 4
Leiter 4
Leon@@ 4
Letzte 4
Lich@@ 4
Licht@@ 4
Lisa 4
Literatur 4
Literatur@@ 4
Lizenzen 4
Loch 4
Logik 4
Logistik@@ 4
Lot@@ 4
Luftfahrt@@ 4
Luxus 4
Lärm 4
Löhne 4
Lösungs@@ 4
Lü@@ 4
Lücke 4
MAN@@ 4
MI@@ 4
MIN@@ 4
MP3 4
MR@@ 4
Machth@@ 4
Madeira 4
Magazine 4
Magnet@@ 4
Mais 4
Maj@@ 4
Malware 4
Mand@@ 4
Mari@@ 4
Marktwirtschaft 4
Mas@@ 4
Massenvernichtungswaffen 4
Material@@ 4
Materie 4
Maus@@ 4
Maßstab 4
Maßstäbe 4
Medium 4
Mehrheits@@ 4
Mehrzahl 4
Meilen 4
Mein@@ 4
Meinungs@@ 4
Meinungsäußerung 4
Menschenhandel 4
Menüs 4
Merk@@ 4
Metern 4
Mich@@ 4
Michael 4
Milch@@ 4
Milli@@ 4
Million 4
Mio 4
Mischung 4
Mitgliedsländer 4
Mitteilungen 4
Mittwoch 4
Miß@@ 4
Mobili@@ 4
Mobiltelefon 4
Mod@@ 4
Mode 4
Modell@@ 4
Modellen 4
Modells 4
Moder@@ 4
Mond 4
Montage@@ 4
Montre@@ 4
Morgan 4
Mozilla 4
Multimedia 4
Mur@@ 4
Muster 4
Mä@@ 4
Mär@@ 4
Mé@@ 4
Möbel@@ 4
Müller 4
Nachbarschaftspolitik 4
Nachteil 4
Nag@@ 4
Nahrung 4
Nahrungsmittel 4
Nai@@ 4
Namens 4
Nationalparks 4
Nav@@ 4
Nehmen 4
Nenn@@ 4
Nero 4
Neu 4
Neues 4
Neuigkeiten 4
Nichts@@ 4
Niedergang 4
Niederlassung 4
Non 4
Nordafrika 4
Nordirland 4
Nordkorea 4
Norwegen 4
Nu@@ 4
Null 4
Nutzern 4
OECD 4
OF 4
Obama 4
Oberflächen 4
Ol@@ 4
On 4
Oper@@ 4
Opera 4
Operation 4
Operationen 4
Optim@@ 4
Organ 4
Organisations@@ 4
Os@@ 4
Ostse@@ 4
Ostsee 4
Otta@@ 4
Oxford 4
PA@@ 4
PAR@@ 4
PD@@ 4
PHP 4
PK@@ 4
PP 4
PRO@@ 4
PSE 4
Pack@@ 4
Pad@@ 4
Paket@@ 4
Palace 4
Palazzo 4
Palästinen@@ 4
Parado@@ 4
Parti@@ 4
Partition 4
Partner@@ 4
Partners 4
Partnerschaften 4
Partnerschafts@@ 4
Passagiere 4
Pensionen 4
Personals 4
Persön@@ 4
Pflege 4
Phasen 4
Piazza 4
Pil@@ 4
Pir@@ 4
Pisa 4
Pit@@ 4
Platten 4
Portfolio 4
Prak@@ 4
Premierminister 4
Presse 4
Primär@@ 4
Privilegien 4
Product 4
Professional 4
Profi 4
Program@@ 4
Prozent@@ 4
Prü@@ 4
Publikation 4
Punk@@ 4
Qualifikationen 4
Queen 4
Qui@@ 4
RA@@ 4
RI 4
Radi@@ 4
Rahmens 4
Ram@@ 4
Rand 4
Rande 4
Rang 4
Rate 4
Rating 4
Raumfahrt@@ 4
Reader 4
Reaktionen 4
Rech@@ 4
Recher@@ 4
Rechn@@ 4
Rechnungen 4
Recht@@ 4
Rechtfertigung 4
Rechtsrahmen 4
Reda@@ 4
Redezeit 4
Referenz@@ 4
Regierung@@ 4
Register 4
Regul@@ 4
Reguli@@ 4
Rehabili@@ 4
Reich@@ 4
Reichen 4
Reicht@@ 4
Reichweite 4
Reifen 4
Release 4
Reservierungen 4
Reservierungs@@ 4
Ressourcen@@ 4
Rhetorik 4
Ric@@ 4
Richard 4
Richtige 4
Rin@@ 4
Roboter 4
Rollen 4
Roman@@ 4
Ron@@ 4
Rub@@ 4
Ruh@@ 4
Russen 4
Rä@@ 4
Räumlichkeiten 4
Rü@@ 4
Rücken 4
Rückgang 4
Rückverfolgbarkeit 4
SCH@@ 4
SIM@@ 4
SM@@ 4
SPA 4
SQ@@ 4
SS 4
SU@@ 4
Sab@@ 4
Saison@@ 4
Salon 4
Sat@@ 4
Sau@@ 4
Scanner 4
Schach@@ 4
Schaf@@ 4
Schaff@@ 4
Schall@@ 4
Schaltfläche 4
Schau@@ 4
Schauen 4
Schengen 4
Schichten 4
Schie@@ 4
Schiffen 4
Schle@@ 4
Schließ@@ 4
Schließung 4
Schluß 4
Schmi@@ 4
Schne@@ 4
Schnee 4
Schnitt@@ 4
Schreibtisch 4
Schro@@ 4
Schulung 4
Schulungen 4
Schum@@ 4
Schwan@@ 4
Schweigen 4
Schwellenländer 4
Schwimm@@ 4
Schär@@ 4
Schö@@ 4
Schüler@@ 4
Screen 4
Sech@@ 4
Security 4
Segment 4
Seien 4
Seitdem 4
Seiten@@ 4
Senior 4
Sequ@@ 4
Ses@@ 4
Set 4
Setzen 4
Share 4
Sho@@ 4
Shops 4
Shu@@ 4
Sicherheits- 4
Sicherheitsrates 4
Sichtweise 4
Sied@@ 4
Sieg@@ 4
Sig@@ 4
Signat@@ 4
Sim@@ 4
Simp@@ 4
Sing@@ 4
Sitze 4
Skandal 4
Sn@@ 4
Sofern 4
Sofor@@ 4
Softwa@@ 4
Sol 4
Solche 4
Som@@ 4
Sounds 4
Source 4
Sowjet@@ 4
Speisen 4
Spen@@ 4
Spielregeln 4
Spitze 4
Spri@@ 4
Spritz@@ 4
Square 4
St 4
Stadtr@@ 4
Stamm@@ 4
Stan@@ 4
Star 4
Statistik 4
Stattdessen 4
Stellenwert 4
Stern 4
Steuerpolitik 4
Steuerung 4
Stiftung 4
Stille 4
Stimmen@@ 4
Stir@@ 4
Stock 4
Stornierungen 4
Streben 4
Streit 4
Streitkräfte 4
Stri@@ 4
Strukturfonds@@ 4
Strukturreformen 4
Studien@@ 4
Stufen 4
Sturz 4
Stärken 4
Stör@@ 4
Subventionen 4
Suiten 4
Sur@@ 4
Sus@@ 4
Sympath@@ 4
Synergien 4
Sän@@ 4
Söhne 4
T. 4
TER@@ 4
TION 4
TNG 4
Tampere 4
Tan@@ 4
Tanz 4
Tarif 4
Tatsachen 4
Tau@@ 4
Technologi@@ 4
Tel 4
Telefon@@ 4
Telekommunikations@@ 4
Temperaturen 4
Tennis 4
Terrassen 4
Territorium 4
Teu@@ 4
Textil@@ 4
Therap@@ 4
Therapie 4
Thun@@ 4
Tibet 4
Til@@ 4
Tob@@ 4
Todesfälle 4
Todesstrafe 4
Tom 4
Ton 4
Touristen@@ 4
Trenn@@ 4
Trop@@ 4
Träume 4
Tuberkulose 4
Typ 4
UNG 4
USD 4
UV 4
Ultra@@ 4
Umstrukturierung 4
Unabhängig 4
Unix 4
Unrecht 4
Unser@@ 4
Unterricht 4
Unterrichts@@ 4
Unterzeichn@@ 4
Up@@ 4
Urheberrechte 4
Urlaub@@ 4
Ursprungs 4
Ursprungs@@ 4
VI@@ 4
Vaku@@ 4
Val 4
Varianten 4
Verantwortlichen 4
Verarbeitungs@@ 4
Vergessen 4
Verhaf@@ 4
Verhaltenskodex 4
Verheugen 4
Verhältnis@@ 4
Verhütung 4
Veri@@ 4
Verletzungen 4
Vermittlungs@@ 4
Vernunft 4
Verordnungs@@ 4
Verpackungs@@ 4
Verschmutzung 4
Versicherung 4
Verspä@@ 4
Verstän@@ 4
Versuchung 4
Vertiefung 4
Vertrieb 4
Verwaltungen 4
Verwendungs@@ 4
Verwertung 4
Verzeichn@@ 4
Verzer@@ 4
Verzögerung 4
Vide@@ 4
Vier 4
Viertel 4
View 4
Virtual 4
Voice 4
Volksrepublik 4
Volkswirtschaft 4
Vorfeld 4
Vorgehensweise 4
Vorur@@ 4
Vorzüge 4
Voyager 4
Völkerrecht 4
W. 4
WER@@ 4
Waffen@@ 4
Waffenstillstand 4
Wahlkampf 4
Wand 4
Wand@@ 4
Warn@@ 4
Warschau 4
Warte@@ 4
We 4
Webserver 4
Weder 4
Weisheit 4
Wellness 4
Weltgesundheits@@ 4
Wet@@ 4
Wettbewerbspolitik 4
Wikicars 4
Wissens 4
Wladimir 4
Wochen@@ 4
Wochenende 4
Wohlbefinden 4
Wohnraum 4
Woody 4
Workshop 4
Wortes 4
Wunder@@ 4
Wünschen 4
XML 4
XP 4
YORK 4
Zahl@@ 4
Zeichn@@ 4
Zentralbanken 4
Zertifikat 4
Ziffern 4
Zinssätze 4
Zollunion 4
Zonen 4
Zucker@@ 4
Zugangs 4
Zunahme 4
Zurückhaltung 4
Zusammenbruch 4
Zusammenfassung 4
Zusammensetzung 4
Zuweisung 4
Zwischen 4
Zy@@ 4
aal 4
abe 4
abel 4
abel@@ 4
abgesch@@ 4
ableh@@ 4
abri@@ 4
abschließ@@ 4
abseits 4
absur@@ 4
abwechslungs@@ 4
abweich@@ 4
abzuhalten 4
abzuschließen 4
achte 4
adresse 4
afri@@ 4
agers 4
aggres@@ 4
agieren 4
agt 4
agten 4
ah 4
aj@@ 4
aka 4
akten 4
aktivitäten 4
aktu@@ 4
akus@@ 4
ali 4
alisierungen 4
alist 4
alisten 4
alitäten 4
allen@@ 4
ama 4
amb@@ 4
amerikas 4
ami 4
aming 4
ances 4
anfangs 4
anführen 4
angefangen 4
angegangen 4
angekündigt 4
angelegten 4
angen 4
angestrebt 4
anien 4
anim@@ 4
anmerken 4
anne 4
ansehen 4
anstelle 4
antiken 4
ants 4
antwortet 4
anzusprechen 4
appe 4
appelliere 4
aqu@@ 4
arbeitete 4
arbeitungs@@ 4
arch@@ 4
arisch 4
armen 4
artik@@ 4
asch@@ 4
asen 4
ash@@ 4
aspekte 4
astronom@@ 4
ated 4
ath 4
atische 4
ato@@ 4
atte 4
aufeinander 4
aufer@@ 4
auffor@@ 4
aufgeführten 4
aufgelistet 4
aufnehmen 4
aufrecht 4
aufrufen 4
aufsichts@@ 4
aufstre@@ 4
aufwand 4
aufzeigen 4
aufzustellen 4
augen@@ 4
ausch 4
ausdrück@@ 4
ausdrückliche 4
ausfallen 4
ausführ@@ 4
ausführen 4
ausführliche 4
ausgegeben 4
ausgehend 4
ausgewogenen 4
ausgezeichnet 4
ausgeübt 4
ausrüstung 4
ausschließ@@ 4
austra@@ 4
ausüben 4
auto@@ 4
automati@@ 4
außerordentlichen 4
available 4
avec 4
aya 4
back 4
baden 4
baltischen 4
ban 4
banken 4
bearbeitet 4
bedar@@ 4
bedenkt 4
bedeutete 4
bedeutsam 4
bedingte 4
bedürf@@ 4
beeinträchtigt 4
befaßt 4
befes@@ 4
befin@@ 4
befre@@ 4
befreit 4
befu@@ 4
befür@@ 4
begannen 4
begeistern 4
beginn 4
beglückwünsche 4
begrenz@@ 4
begrenzen 4
begründen 4
begünstigt 4
behaup@@ 4
beheben 4
behin@@ 4
behindert 4
behinderten@@ 4
behält 4
beigetreten 4
beitritts@@ 4
bekannte 4
bekämpft 4
bekämpfung 4
belast@@ 4
belasten 4
belastet 4
beleb@@ 4
beleg@@ 4
belegt 4
beleu@@ 4
belgische 4
beliebtesten 4
bemühen 4
benö@@ 4
beobachtet 4
berat@@ 4
berater 4
beratung 4
berechtigte 4
bereichen 4
bereit@@ 4
berichts 4
beruhi@@ 4
berung 4
berühmt 4
beschleunigen 4
beschreibung 4
beschränkungen 4
beschä@@ 4
beschädigt 4
besprochen 4
bestanden 4
bestehender 4
besucht 4
besuchte 4
betrag 4
beu@@ 4
beunruhi@@ 4
beurteilt 4
bevorstehenden 4
bevorzugt 4
bevölk@@ 4
bewaffneten 4
bewahrt 4
bewe@@ 4
beweist 4
bewirken 4
bewusstsein 4
bewähr@@ 4
bezahl@@ 4
bezahlt 4
bezauber@@ 4
beziehe 4
bezo@@ 4
bi 4
bige 4
bigen 4
bilaterale 4
bilder 4
bildungen 4
bische 4
blen 4
bler 4
bliche 4
blick@@ 4
blieben 4
blö@@ 4
bol@@ 4
bon 4
bruch 4
bten 4
buchs 4
bul@@ 4
bungs@@ 4
bus@@ 4
bös@@ 4
bünd@@ 4
bürgerlichen 4
bürgern 4
büro 4
cad@@ 4
car@@ 4
center 4
cer 4
chert 4
chester 4
chn@@ 4
chtige 4
ckte 4
cs 4
cus 4
cy 4
dach@@ 4
dad 4
dahingehend 4
dauerhaft 4
dauerhaften 4
dauern 4
dbar 4
dd@@ 4
debatte 4
deckten 4
deli@@ 4
dem@@ 4
demonstrieren 4
dena 4
dend 4
dent@@ 4
dep@@ 4
derart 4
deuten 4
deutsch@@ 4
deutscher 4
dia 4
digt 4
direkter 4
discher 4
diverse 4
dle 4
dlern 4
dnis 4
dominiert 4
door@@ 4
doppelten 4
dramatische 4
dreht 4
dreimal 4
dreißig 4
dringen 4
dringende 4
dru@@ 4
ds@@ 4
dt 4
duktion 4
dump@@ 4
durchführt 4
durchschnittlich 4
durchschnittlichen 4
dynamische 4
dämmen 4
each 4
ebene 4
echt 4
ecke 4
ecks 4
eda 4
efeld 4
eff@@ 4
effek@@ 4
egi@@ 4
ehrgeizi@@ 4
ehrgeizig 4
eil 4
einfluss@@ 4
eingebettet 4
eingefügt 4
eingeladen 4
eingenommen 4
eingeräumt 4
eingetreten 4
einheit 4
einheitliches 4
einigt 4
einladen 4
einleiten 4
eins@@ 4
einsehen 4
einseitig 4
einsetzt 4
eintreten 4
einzelstaatlichen 4
einzig 4
einziges 4
ekt 4
ektor 4
eld 4
elektron@@ 4
elektronische 4
element 4
elli 4
emen 4
emm@@ 4
emotion@@ 4
ende@@ 4
endung 4
energ@@ 4
energi@@ 4
energie 4
engruppen 4
ening 4
enken 4
enkt 4
enorm 4
enorme 4
entation 4
entfer@@ 4
entgehen 4
enth@@ 4
entiert 4
entlassen 4
entlichen 4
ento 4
entscheidungen 4
entsp@@ 4
entstandenen 4
entstehenden 4
entzieht 4
eo 4
eo@@ 4
erInnen 4
erb@@ 4
erbare 4
erbaren 4
erendes 4
erfahrene 4
erforder@@ 4
erfreu@@ 4
ergie 4
erhö@@ 4
erien 4
erkan@@ 4
erkläre 4
erlassen 4
erleb@@ 4
erledigen 4
erneu@@ 4
ernsthaften 4
ero 4
erre@@ 4
erreichte 4
erschi@@ 4
erschreck@@ 4
erschwing@@ 4
erseits 4
erstens 4
ersuche 4
ersucht 4
erteilen 4
ervice 4
erwer@@ 4
erwerben 4
erworben 4
erzeug@@ 4
erzi@@ 4
eröffnen 4
erörtern 4
eso 4
essel 4
essi@@ 4
esti@@ 4
ests 4
etabli@@ 4
etes 4
eth@@ 4
ethischen 4
ethnische 4
etta 4
ewi@@ 4
exakt 4
existierenden 4
exklusiven 4
experten 4
explizit 4
explo@@ 4
exportiert 4
extra 4
extrem@@ 4
exzell@@ 4
fa 4
fahren@@ 4
fahrer 4
fahrzeugen 4
faire 4
fak@@ 4
famili@@ 4
familiäre 4
far 4
fass@@ 4
fassend 4
faßt 4
fehler@@ 4
feindlichen 4
feine 4
fertig@@ 4
fertigen 4
festgehalten 4
fet@@ 4
fielen 4
fig@@ 4
fik@@ 4
finanzieller 4
finanzierten 4
fing 4
fischen 4
fiziert 4
fließen 4
fluss@@ 4
fläch@@ 4
flüssen 4
fo 4
forderte 4
forderung 4
formali@@ 4
formati@@ 4
former 4
formulieren 4
forum 4
free 4
freier 4
freigegeben 4
freundlicher 4
friedliche 4
frischen 4
fristen 4
fristig 4
fs@@ 4
fts@@ 4
fund@@ 4
funden 4
funk 4
fusion 4
fähi@@ 4
fähigen 4
fähiges 4
fällige 4
fängt 4
füh@@ 4
fühlt 4
führungen 4
gab@@ 4
ganzes 4
ganzhei@@ 4
garten 4
geben@@ 4
gebietes 4
gebrau@@ 4
gedrängt 4
geehrter 4
gefasst 4
gegenüber@@ 4
gegründete 4
gehörige 4
gehörigkeit 4
geistigen 4
gekauft 4
gekürzt 4
gelad@@ 4
gelder 4
gelegentlich 4
geleiteten 4
gelesen 4
geliefert 4
gelieferten 4
gelingen 4
gelö@@ 4
gemachten 4
genommene 4
genossen 4
genügt 4
geplanten 4
gerau@@ 4
gerech@@ 4
gerechten 4
geri@@ 4
gericht@@ 4
geringsten 4
gerte 4
gerung 4
geschenkt 4
geschlossene 4
geschätz@@ 4
geschätzt 4
gesetzes 4
gesetzliche 4
gesetzten 4
gestal@@ 4
gestrichen 4
gestört 4
gestütz@@ 4
gestützt 4
gesunden 4
gesunken 4
getrenn@@ 4
getrieben 4
getötet 4
gewachsen 4
gewahrt 4
gewalts@@ 4
gewer@@ 4
gewisses 4
gewöhnt 4
gezahlt 4
gezielte 4
ggf. 4
ghts 4
gia 4
gik 4
gion 4
gipf@@ 4
gipfel 4
gischen 4
glas@@ 4
glaubt 4
glaubwürdig 4
gliederung 4
gni@@ 4
grades 4
graf@@ 4
grafische 4
gran@@ 4
graphische 4
grenzt 4
großartige 4
großzügig 4
grund@@ 4
größt@@ 4
gründlich 4
gste 4
gut@@ 4
gän@@ 4
gängigen 4
gül@@ 4
günsti@@ 4
güter 4
halbe 4
halten@@ 4
halts 4
handels 4
handels@@ 4
hardt 4
heimischen 4
hen@@ 4
hende 4
henden 4
herausgestellt 4
herausstellen 4
herauszufinden 4
herbeizuführen 4
herkömm@@ 4
herrschaft 4
herrschenden 4
herstellen 4
herunter 4
hervorgerufen 4
herzlichen 4
hieß 4
high 4
hilfsbereit 4
hinausgehen 4
hinzu@@ 4
hl 4
hlen 4
hn 4
holi@@ 4
hotels 4
hten 4
hundert 4
häusern 4
höre 4
hörer 4
hörte 4
iPhone 4
ia@@ 4
ica 4
identi@@ 4
identifiziert 4
ideologischen 4
iere 4
iges 4
igkeits@@ 4
ih@@ 4
ill@@ 4
illegal 4
illustri@@ 4
ils 4
immers 4
imstande 4
ination 4
iners 4
inf@@ 4
infrastruktur 4
ingu@@ 4
inhal@@ 4
iniert 4
inierten 4
inische 4
ink@@ 4
inn 4
inos 4
insofern 4
institution@@ 4
int@@ 4
integr@@ 4
intensi@@ 4
intensiver 4
interessierte 4
interven@@ 4
investment 4
ires 4
irgendeine 4
irgendeiner 4
irgendwie 4
irgendwo 4
irre@@ 4
isi@@ 4
isiert 4
islam@@ 4
isoliert 4
israelische 4
iss@@ 4
issen 4
istik 4
ital 4
iti@@ 4
itä@@ 4
jag@@ 4
jahren 4
jemandem 4
jeweilige 4
jk 4
jun@@ 4
jur@@ 4
juristische 4
justi@@ 4
jün@@ 4
jüngst 4
jüngste 4
jüngster 4
kalt 4
kanische 4
kanäle 4
kapazitäten 4
karten 4
kas@@ 4
keits@@ 4
keln 4
kenne 4
kennenzulernen 4
kenntnisse 4
kg 4
kin@@ 4
king 4
klagt 4
klassi@@ 4
klingen 4
klingt 4
kms 4
knapp@@ 4
koh@@ 4
komfort 4
komfort@@ 4
komfortablen 4
kommend 4
kommerzielle 4
komplex 4
komplizierter 4
konkret 4
konkur@@ 4
konkurrieren 4
konsequent 4
konsum 4
kontroll@@ 4
koordinieren 4
kopieren 4
kore@@ 4
korrekte 4
kostenfrei 4
kra@@ 4
kriminellen 4
krisen 4
kriterien 4
kund@@ 4
kunden 4
ky@@ 4
kö@@ 4
lad@@ 4
lagerung 4
lagerungen 4
lah 4
landwirtschaftliche 4
lans 4
lar@@ 4
lator 4
lattform 4
lauten 4
lebende 4
legal 4
legalen 4
legitimen 4
legungen 4
leid 4
leiste 4
leitenden 4
lerin 4
lernt 4
lers 4
let 4
lichste 4
licht@@ 4
liebt 4
lien 4
lieren 4
lies 4
liesslich 4
like 4
lingen 4
liter@@ 4
lle 4
logische 4
loh@@ 4
lohn@@ 4
lok@@ 4
loser 4
lossene 4
lot 4
länen 4
längeren 4
lé@@ 4
lü@@ 4
m. 4
macher 4
machten 4
mals 4
manager 4
mangelt 4
mann@@ 4
marke 4
massage 4
massiven 4
maximalen 4
maß@@ 4
maßgeb@@ 4
medizinischer 4
mehrjährigen 4
meiste 4
meldung 4
ments 4
mern 4
messung 4
meter 4
mien 4
miet@@ 4
mieten 4
milli@@ 4
ministers 4
minutes 4
mis@@ 4
mission 4
mithilfe 4
mittelalterliche 4
mittelten 4
mme 4
mod@@ 4
modernster 4
modus 4
montiert 4
moralische 4
morgens 4
männ@@ 4
möge 4
nachkommen 4
nachtei@@ 4
nahegel@@ 4
nd 4
net@@ 4
neut@@ 4
nig 4
nik 4
nos@@ 4
not@@ 4
nutzbar 4
nä@@ 4
oberste 4
obgleich 4
obliegt 4
oc@@ 4
offenkundig 4
og@@ 4
ografie 4
olen 4
olo@@ 4
ologe 4
ologischer 4
ome 4
onen@@ 4
oner 4
ont 4
operative 4
oping 4
optimiert 4
ordn@@ 4
organe 4
orgen 4
oria 4
orienti@@ 4
orientieren 4
origin@@ 4
original 4
orium 4
orts 4
ose 4
ost@@ 4
otel 4
otels 4
ouren 4
ous 4
own 4
ox@@ 4
pa 4
pak@@ 4
pakete 4
pakist@@ 4
parlamentarische 4
partei@@ 4
partner 4
partner@@ 4
pas@@ 4
pass 4
pass@@ 4
passend 4
passieren 4
pedition 4
pen@@ 4
personenbezogene 4
pfen 4
pfer@@ 4
pflege 4
pfung 4
pfungs@@ 4
php 4
plant 4
platten 4
poli@@ 4
polizei@@ 4
populi@@ 4
por 4
pran@@ 4
praxis@@ 4
preises 4
prinzipiell 4
prior@@ 4
privacy 4
problemati@@ 4
problemen 4
produkts 4
profi@@ 4
programmi@@ 4
projek@@ 4
projekt 4
prop@@ 4
proz@@ 4
präsentation 4
punkt@@ 4
putz@@ 4
qm 4
qualifiziert 4
qualitative 4
quar@@ 4
quiet 4
ral 4
rangi@@ 4
rank 4
ras@@ 4
rassi@@ 4
realisiert 4
recher@@ 4
rechtfertigen 4
rechtswidri@@ 4
reck@@ 4
red 4
regiert 4
reibungs@@ 4
reichhaltiges 4
reih@@ 4
reihe 4
reihen 4
reine 4
reiz@@ 4
rek@@ 4
religiöser 4
rell 4
rem@@ 4
republi@@ 4
reservieren 4
respon@@ 4
resul@@ 4
richter 4
riebene 4
rier 4
riesige 4
rif@@ 4
right 4
risi@@ 4
roll@@ 4
roten 4
rou@@ 4
ruf@@ 4
ruft 4
rumän@@ 4
rung 4
ry@@ 4
räger 4
ränkten 4
räume 4
rö@@ 4
saal 4
sammlung 4
samt 4
sauber@@ 4
schaftlich 4
schar@@ 4
schaut 4
schein 4
schenko 4
scheu@@ 4
schichten 4
schieben 4
schlecht 4
schlechter 4
schock@@ 4
schon@@ 4
schreck@@ 4
schrieben 4
schriftlichen 4
schuldig 4
schungen 4
schwachen 4
schwar@@ 4
schwarze 4
schwe@@ 4
schwedischen 4
schwäch@@ 4
schätzt 4
schö@@ 4
schönes 4
seg@@ 4
seh@@ 4
seiten 4
seitig 4
seits 4
serv@@ 4
set@@ 4
setzbar 4
sexuelle 4
sh 4
shalle 4
shaushal@@ 4
sheit 4
shi@@ 4
sibili@@ 4
sicht@@ 4
sichtlich 4
sichtsp@@ 4
sident 4
sidenten 4
sieb@@ 4
sien 4
sierter 4
sig 4
single 4
sinken 4
sisch 4
sit 4
siv 4
siver 4
skandal@@ 4
sko@@ 4
sla@@ 4
slowak@@ 4
sn@@ 4
sober@@ 4
sogenannte 4
sole 4
sozialistischen 4
span@@ 4
spezielles 4
spiegelt 4
sprechenden 4
spreis 4
spunkt 4
spä@@ 4
ssel 4
ssiers 4
ssig 4
stab@@ 4
stabile 4
stahl 4
stam@@ 4
stammen 4
standardmäßig 4
stap@@ 4
startete 4
staste 4
statt@@ 4
status 4
stechnologien 4
steck@@ 4
sted 4
steilen 4
stein@@ 4
sters 4
stetig 4
steuer 4
steuerung 4
stisch 4
stischer 4
stoppen 4
strahlt 4
strategien 4
stration 4
strecke 4
street 4
streng 4
strichen 4
ströme 4
stufe 4
stungen 4
ständiger 4
stärk@@ 4
stätte 4
stür@@ 4
su 4
substanzi@@ 4
such 4
suche 4
suite 4
super 4
surfen 4
sätz@@ 4
tain@@ 4
tam@@ 4
tat 4
tatsächliche 4
tauchen 4
tausenden 4
teien 4
teilgenommen 4
teilnehmenden 4
telefon 4
telefon@@ 4
telefonisch 4
tels 4
tent@@ 4
teres 4
tes@@ 4
teuren 4
th 4
than 4
the@@ 4
thematischen 4
then 4
theti@@ 4
tierungs@@ 4
tigten 4
tiken 4
til 4
tim 4
tischem 4
tivere 4
tivitäten 4
tner 4
toler@@ 4
tollen 4
too 4
touristischen 4
transpar@@ 4
transport 4
trauri@@ 4
treff@@ 4
tritte 4
two 4
tz 4
tzei@@ 4
täten 4
täu@@ 4
türkische 4
türkischen 4
ulieren 4
ultur 4
ume 4
umfassen 4
umfassen@@ 4
umgehend 4
umgewandelt 4
umliegenden 4
ummer 4
umso 4
unabhängiger 4
unauf@@ 4
unde 4
under 4
unds 4
ungarischen 4
unglei@@ 4
unkten 4
unlängst 4
unnötig 4
unsch@@ 4
untergebracht 4
unternimmt 4
unterstrichen 4
unterstützung 4
untersuch@@ 4
unterteilt 4
unterworfen 4
unterzeichnen 4
unumgän@@ 4
unverzicht@@ 4
unzu@@ 4
unzureichend 4
unüber@@ 4
ups 4
ure@@ 4
ures 4
urg 4
user 4
uss@@ 4
uter 4
val 4
venti@@ 4
ventura 4
verabschiedeten 4
veranstaltet 4
verbesserten 4
verbieten 4
verbot 4
verdienen 4
vereinbarte 4
vereinbarten 4
vereinbarungen 4
verfolgung 4
verfügbare 4
verhandeln 4
verhäl@@ 4
verhältnisse 4
verkauf@@ 4
verkün@@ 4
verlang@@ 4
verlor 4
vermark@@ 4
vermu@@ 4
vern 4
vernichtet 4
verring@@ 4
verschafft 4
verse 4
versorgen 4
verstand 4
verstän@@ 4
verstärkten 4
versuchte 4
versuchten 4
verteidigt 4
vertrages 4
vertret@@ 4
verträ@@ 4
verträge 4
verursachten 4
verwaltungs@@ 4
verwandelt 4
verweist 4
verwirklicht 4
verwur@@ 4
verzichtet 4
veränder@@ 4
vielfäl@@ 4
vies 4
vin@@ 4
vision 4
visit 4
visuelle 4
vollzogen 4
volta@@ 4
von@@ 4
vorange@@ 4
vorangetrieben 4
vorbei 4
vorgang 4
vorgelegte 4
vorgesehene 4
vornehmen 4
vorteil@@ 4
vorwiegend 4
vorzuschlagen 4
votes 4
votre 4
wach@@ 4
wachsende 4
wald 4
warnt 4
wechseln 4
wechslung 4
weigert 4
wein 4
weis 4
weis@@ 4
weisungen 4
weitem 4
welch 4
wem 4
wendet 4
werdet 4
were 4
wesens 4
widersprüch@@ 4
wilden 4
win 4
wirksames 4
wissen@@ 4
wissenschaften 4
wohnern 4
wol@@ 4
worauf 4
worüber 4
wu@@ 4
wuchs 4
wunderbaren 4
wur@@ 4
wächst 4
wände 4
würdige 4
xe 4
xes 4
xi@@ 4
xy 4
ye@@ 4
yer 4
yo 4
yp@@ 4
ystem 4
zar@@ 4
zehn@@ 4
zeich@@ 4
zeichneten 4
zeitig 4
zeitung 4
zell@@ 4
zentrales 4
zerti@@ 4
zet@@ 4
zeu@@ 4
zeugen 4
ziel 4
zierten 4
zipi@@ 4
zivi@@ 4
zone 4
zufällig 4
zuhalten 4
zumeist 4
zurzeit 4
zurückgegangen 4
zurückzukehren 4
zusammengearbeitet 4
zusehen 4
zuständige 4
zusätzliches 4
zuteil 4
zuverlässigen 4
zuvor@@ 4
zweck 4
zweckmäßig 4
zweier 4
zweifelsohne 4
zweites 4
zwun@@ 4
zählung 4
zügen 4
zügig 4
· 4
Ägyp@@ 4
Ähn@@ 4
Äl@@ 4
Änderungsvorschläge 4
Ästheti@@ 4
Öffent@@ 4
Überleben 4
Übersetz@@ 4
Übersetzungs@@ 4
Übertrag@@ 4
Überwachungs@@ 4
ßes 4
án 4
äden 4
äler 4
ält 4
ältere 4
ältesten 4
ände 4
änder@@ 4
ästi@@ 4
ätz@@ 4
äus@@ 4
äußerster 4
ía 4
ó 4
öffent@@ 4
örung 4
öst@@ 4
östlichen 4
überdies 4
übergreifende 4
überleben 4
überraschen 4
überwunden 4
überwäl@@ 4
überzeu@@ 4
üh@@ 4
ühle 4
ünsti@@ 4
ür 4
üt@@ 4
к@@ 4
,000 3
.-@@ 3
.ch 3
.net 3
0,5 3
08@@ 3
0er 3
1.0 3
1.000 3
103 3
105 3
112 3
118 3
12.@@ 3
129 3
14.@@ 3
147 3
155 3
16.@@ 3
17.@@ 3
18.@@ 3
180 3
1800 3
1952 3
196 3
1960 3
1977 3
1981 3
1987 3
1988 3
2,5 3
215@@ 3
22.@@ 3
26.@@ 3
28.@@ 3
3000 3
5.00 3
5.000 3
56 3
58 3
68@@ 3
70@@ 3
750 3
75@@ 3
78 3
84 3
87 3
88 3
89 3
90@@ 3
ACE 3
AF@@ 3
APS 3
ASPs 3
ATION 3
Abenteuer 3
Aber@@ 3
Abhilfe 3
Abhängi@@ 3
Abonn@@ 3
Abrüstung 3
Absicherung 3
Abständen 3
Abu 3
Ad 3
Adapter 3
Administrator 3
Adressen 3
Adria 3
Aer@@ 3
Aero@@ 3
Affiliate 3
Agen@@ 3
Ah@@ 3
Akte 3
Albanien 3
Albert 3
Album 3
Alexand@@ 3
Allergi@@ 3
Allgem@@ 3
Alliance 3
Alpha 3
Alt 3
Alte 3
Alternativ 3
Aluminium 3
Anbau@@ 3
Android 3
Angehörige 3
Angehörigen 3
Angel 3
Angriffen 3
Anhebung 3
Anleihen 3
Anmerkung 3
Annan 3
Annäherung 3
Anpassungen 3
Anrei@@ 3
Anreise 3
Anschlag 3
Anschließend 3
Ansprechpartner 3
Anstrengung 3
Ant@@ 3
Antwer@@ 3
Anzeige 3
Apache 3
Apartment 3
Arabien 3
Arafat 3
Arbeits- 3
Arbeitsmarkt@@ 3
Arbeitsprogramm 3
Arbeitszeit 3
Area 3
Argum@@ 3
Ari@@ 3
Artenvielfalt 3
Arzneimitteln 3
As@@ 3
Assad 3
Asset 3
Assistenten 3
Association 3
Assoziations@@ 3
Assoziierungsabkommen 3
Asylbewer@@ 3
Athle@@ 3
Atlan@@ 3
Att@@ 3
Attent@@ 3
Attraktionen 3
Attraktivität 3
Au 3
Audi@@ 3
Auffassungen 3
Aufrechterhaltung 3
Aufsichtsrat 3
Aufteilung 3
Auftreten 3
Aufwand 3
Augenmerk 3
August@@ 3
Aus- 3
Ausblick 3
Ausbreitung 3
Ausbruch 3
Ausgleichs@@ 3
Auslö@@ 3
Ausschluss 3
Aussehen 3
Aussteller 3
Austri@@ 3
Austria 3
Auswahl@@ 3
Autom@@ 3
Autonomie 3
Außenhandel 3
Av@@ 3
Ay@@ 3
B5 3
BI 3
BL@@ 3
BO 3
BU@@ 3
Bad@@ 3
Bahrain 3
Bak@@ 3
Bananen@@ 3
Banglades@@ 3
Barrot 3
Bat@@ 3
Bauern@@ 3
Beamten 3
Beantwortung 3
Beck@@ 3
Bedienung 3
Bedrohungen 3
Bedürfnis 3
Befehl 3
Befreiung 3
Befür@@ 3
Begeisterung 3
Behauptung 3
Behinderung 3
Beibehaltung 3
Bein@@ 3
Beispielen 3
Beispielsweise 3
Beitritts 3
Bekann@@ 3
Bekenntnis 3
Benz 3
Beobachtung 3
Bequ@@ 3
Bereichs 3
Bergwelt 3
Berühr@@ 3
Beschluss@@ 3
Beschränkung 3
Beschäftig@@ 3
Besetzung 3
Besichti@@ 3
Besorg@@ 3
Bestehen 3
Besteller 3
Bestrebungen 3
Besuchern 3
Betrach@@ 3
Betroffenen 3
Betrugsbekämpfung 3
Betrügereien 3
Bevölkerungsgruppen 3
Bewegungs@@ 3
Bezeichnung 3
Bezugs@@ 3
Bier@@ 3
Bilder@@ 3
Bildern 3
Bildschirm@@ 3
Bill 3
Binnenmark@@ 3
Biotechnologie 3
Bisher 3
Black@@ 3
Blickwinkel 3
Blitz@@ 3
Blokland 3
Blu@@ 3
Bluetooth 3
Blumen 3
Blut 3
Blö@@ 3
Blü@@ 3
Board 3
Bob@@ 3
Bolkestein 3
Book 3
Botschaften 3
Boulevard 3
Bow@@ 3
Box 3
Branchen@@ 3
Brem@@ 3
Bres@@ 3
Bron@@ 3
Bronze 3
Brüder 3
Buchstabe 3
Buchstaben 3
Bulgari@@ 3
Bund 3
Bundeskanz@@ 3
Busin@@ 3
Businesscenter 3
Button 3
Byrne 3
Bäumen 3
Bücher 3
Büchern 3
Bürgermeister 3
CC@@ 3
CL@@ 3
CMS 3
COD 3
CON@@ 3
COS 3
CSS 3
Ca 3
Caf@@ 3
Camp 3
Camping 3
Canada 3
Cancún 3
Capri 3
Care 3
Casinos 3
Castel@@ 3
Cent@@ 3
Central 3
Cha@@ 3
Chal@@ 3
Challenge 3
Charme 3
Chat 3
Chil@@ 3
Chin@@ 3
Chinese 3
Chor@@ 3
Christ@@ 3
Claude 3
Cle@@ 3
Clinton 3
Clu@@ 3
Co 3
Co. 3
Cock@@ 3
Cocktails 3
Codes 3
Collection 3
Compact@@ 3
Connec@@ 3
Content 3
Control 3
Copyright 3
Corn@@ 3
Corne@@ 3
Corporation 3
Cou@@ 3
Court 3
Cra@@ 3
D. 3
DDR 3
DJ 3
DL@@ 3
DM@@ 3
DOS 3
DS9 3
DVDs 3
Dagegen 3
Daim@@ 3
Dalai 3
Damp@@ 3
Darf 3
Darlehen 3
Das@@ 3
Dasselbe 3
Datent@@ 3
Day 3
Deb@@ 3
Deck@@ 3
Deluxe 3
Demo 3
Demonstrationen 3
Department 3
Deregulierung 3
Designs 3
Desk 3
Desktop 3
Detail@@ 3
Diabetes 3
Dialog@@ 3
Dich 3
Diego 3
Dienstleistung 3
Dienstleistungsrichtlinie 3
Digitalkamera 3
Disk 3
Diskre@@ 3
Diskriminierungen 3
Distributoren 3
Dok@@ 3
Doktor 3
Dolomiten 3
Domain 3
Don@@ 3
Donau 3
Doyle 3
Dresden 3
Dri@@ 3
Drin@@ 3
Drittstaatsan@@ 3
Drogen 3
Dubrovnik 3
Duisenberg 3
Dy@@ 3
Dynamic 3
Dän@@ 3
Dé@@ 3
EE@@ 3
EK@@ 3
ELDR 3
EM 3
EP@@ 3
ERS 3
EV@@ 3
EZ@@ 3
Ear@@ 3
Earth 3
Easy 3
Easy@@ 3
Eb@@ 3
Edinburgh 3
Effekte 3
Ehe@@ 3
Eigenmittel 3
Eigentums 3
Eingriff 3
Eink@@ 3
Einkaufsmöglichkeiten 3
Einmal 3
Einschränkung 3
Einsetzung 3
Einstimm@@ 3
Einträge 3
Einvernehmen 3
Einwanderer 3
Einwanderern 3
Einwände 3
Einzelbetten 3
Einzigar@@ 3
Electronic 3
Eleganz 3
Elektronik 3
Elektronik@@ 3
Elite 3
Embar@@ 3
Embedded 3
Emi@@ 3
Emissionsh@@ 3
En 3
Energieträger 3
Engineering 3
Entdecken 3
Entertainment 3
Enth@@ 3
Entlast@@ 3
Entlastung 3
Entscheidungsfindung 3
Entschließungsantrags 3
Entschuldigung 3
Entsorgung 3
Enttäuschung 3
Entwickl@@ 3
Entwicklungs- 3
Ep@@ 3
Erdbeben 3
Erdöl 3
Erfahren 3
Erfindungen 3
Ergän@@ 3
Erlass 3
Erleben 3
Ermittlung 3
Ermittlungen 3
Ernennung 3
Erneuerung 3
Ernte 3
Errungenschaften 3
Ersatz 3
Ersatzteile 3
Erspar@@ 3
Ersuchen 3
Erteilung 3
Erwachsenen 3
Erwäh@@ 3
Erwähnung 3
Erwärmung 3
Erör@@ 3
Esk@@ 3
Etagen 3
Ether@@ 3
Euratom 3
Europar@@ 3
Europarat 3
Evalu@@ 3
Events 3
Expertise 3
Extra@@ 3
F1 3
FIN@@ 3
FORM@@ 3
FS 3
Fabri@@ 3
Fac@@ 3
Facebook 3
Fahrzeu@@ 3
Faktoren 3
Farm 3
Fass@@ 3
Fast 3
Fat@@ 3
Features 3
Federal 3
Fehlern 3
Ferien 3
Fernando 3
Ferrero 3
Fertigstellung 3
Fes@@ 3
Festland 3
Festplatten 3
Feststellung 3
Festung 3
Fett@@ 3
Figuren 3
File 3
Files 3
Finanzinstrumente 3
Finden 3
Fine 3
Fis@@ 3
Fitnesscenter 3
Flex@@ 3
Fluggesellschaft 3
Flugzeug@@ 3
Focus 3
Folgendes 3
Form@@ 3
Formel 3
Forschungs- 3
Fortschritts@@ 3
Forums 3
Fr 3
Franz 3
Freihandels@@ 3
Freihandelsabkommen 3
Freihandelszone 3
Freilassung 3
Fres@@ 3
Fris@@ 3
Frontex 3
Früchte 3
Frühstück@@ 3
Funktions@@ 3
Fusion 3
Fuss 3
Future 3
Fähr@@ 3
Föder@@ 3
Führungskräfte 3
Für@@ 3
G20 3
GA 3
GAL@@ 3
GM@@ 3
GO@@ 3
GU@@ 3
GUE 3
Gad@@ 3
Galerie 3
Gaming 3
Ganz@@ 3
Garage 3
Gardas@@ 3
Gastfreundschaft 3
Gastronom@@ 3
Gastronomie 3
Gau@@ 3
Gebirge 3
Geburts@@ 3
Geburtstag 3
Gebäude@@ 3
Gebäuden 3
Gebäudes 3
Gebühr 3
Gedenk@@ 3
Gefähr@@ 3
Gefährdung 3
Gefühle 3
Gegen 3
Gegenden 3
Geheimnisse 3
Gehör 3
Geist@@ 3
Geiß@@ 3
Geltung 3
Gemeinde@@ 3
Generaldirektion 3
Geno@@ 3
Gent@@ 3
Geo@@ 3
Geom@@ 3
Georgi@@ 3
Gep@@ 3
Gerichts@@ 3
German@@ 3
Gerü@@ 3
Gesamthaush@@ 3
Geschenke 3
Geschwindigkeit 3
Geschäf@@ 3
Geschäftsbedingungen 3
Gesetz@@ 3
Gesetzgeber 3
Gesichtspunkten 3
Gesprä@@ 3
Gesundheits- 3
Gesundheitsschutz 3
Gesundheitsversorgung 3
Get@@ 3
Getränk 3
Getränken 3
Gewer@@ 3
Gewähr 3
Gewässer 3
Gf@@ 3
Giovanni 3
Girona 3
Giuli@@ 3
Gl@@ 3
Glaubens@@ 3
Gleichberechtigung 3
Gleiche 3
Gleichgewichts 3
Gläubiger 3
Go 3
Golden 3
Gom@@ 3
Good 3
Got@@ 3
Grafik@@ 3
Gran 3
Grande 3
Graz 3
Great 3
Grenzwerte 3
Gri@@ 3
Grundfreiheiten 3
Grundsätzlich 3
Grundvoraus@@ 3
Grö@@ 3
Größenordnung 3
Grün 3
Grüne 3
Guantánamo 3
Gui@@ 3
Gü@@ 3
HL@@ 3
HTTP 3
Haag 3
Haft@@ 3
Hak@@ 3
Halbzeit@@ 3
Hallen@@ 3
Hallo 3
Ham@@ 3
Han@@ 3
Handelsabkommen 3
Handelsbeziehungen 3
Handtücher 3
Handy@@ 3
Handys 3
Harbour 3
Harmon@@ 3
Harmonie 3
Hass 3
Haupts@@ 3
Haushaltskontroll@@ 3
Haut@@ 3
Heim@@ 3
Heiz@@ 3
Hek@@ 3
Hemm@@ 3
Henry 3
Herunterladen 3
High@@ 3
Hilfen 3
Hob@@ 3
Hochzeit 3
Hochzeits@@ 3
Holo@@ 3
Hom@@ 3
Hon@@ 3
Host 3
Host@@ 3
Hostel 3
Hot@@ 3
Hotelzimmer 3
Hubschrau@@ 3
Human 3
Hund 3
Hunderte 3
Hunderttaus@@ 3
Hur@@ 3
Hussein 3
Hut@@ 3
Hy@@ 3
Hygi@@ 3
Hz 3
Häftlin@@ 3
Häufi@@ 3
Hôtel 3
ICEcat 3
ID@@ 3
IE 3
IFA 3
IG@@ 3
ISS 3
ITE 3
IV@@ 3
Il 3
Illu@@ 3
Image 3
Images 3
Import 3
Impulse 3
Industriest@@ 3
Industriezwei@@ 3
Info@@ 3
Informationsgesellschaft 3
Ingenie@@ 3
Innsbruck 3
Insbesondere 3
Insi@@ 3
Install@@ 3
Installationen 3
Inte@@ 3
Intelligenz 3
Intensität 3
Interess@@ 3
Interessen@@ 3
Interessi@@ 3
Interface 3
Internetanschluss 3
Internetseite 3
Interoperabilität 3
Interpre@@ 3
Investitionsbank 3
Islam@@ 3
Israelis 3
Italienisch 3
Iz@@ 3
J. 3
JO@@ 3
Jack 3
Jag@@ 3
Jahresbericht 3
Jahrestag 3
Jahrhunder@@ 3
Jak@@ 3
James 3
Jan@@ 3
January 3
Jeg@@ 3
Jerusalem 3
Jobs 3
Jon@@ 3
Jones 3
Joomla 3
Jubilä@@ 3
Juncker 3
Jur@@ 3
Jürgen 3
KE@@ 3
Kab@@ 3
Kaffe@@ 3
Kali@@ 3
Kalten 3
Kant@@ 3
Kanz@@ 3
Kap@@ 3
Kapazitäten 3
Karibik 3
Katastrophen@@ 3
Keller 3
Kenia 3
Kilometern 3
Kinderbetreuung 3
Kirchen 3
Kitz@@ 3
Klang 3
Klarstellung 3
Klausel 3
Klick 3
Klo@@ 3
Klu@@ 3
Knei@@ 3
Knopf 3
Koch 3
Kofi 3
Kofinanzierung 3
Koh 3
Kohlen@@ 3
Kohäsion 3
Kolle@@ 3
Kollektion 3
Koloni@@ 3
Kolumbien 3
Kommission@@ 3
Komplettpreise 3
Kompon@@ 3
Kompro@@ 3
Kompromiss@@ 3
Kongress 3
Konjunktur@@ 3
Konten 3
Kontin@@ 3
Konvergenz 3
Konzep@@ 3
Konzerne 3
Konzerns 3
Kosme@@ 3
Kraftstoff@@ 3
Kreditkarten@@ 3
Kreis 3
Kreuz 3
Kund@@ 3
Kundenservice 3
Kö@@ 3
Königreichs 3
Kühl@@ 3
Kühlschrank 3
Kün@@ 3
Künste 3
Kürzungen 3
LIFE 3
Lab 3
LabVIEW 3
Label 3
Lagerung 3
Lama 3
Language 3
Las 3
Laser 3
Laufwerk 3
Laufzeit 3
Lay@@ 3
Laz@@ 3
Leader 3
Lehre 3
Lehren 3
Leistungsverhältnis 3
Leitfaden 3
Lek@@ 3
Leo@@ 3
Leon 3
Leone 3
Lettland 3
Li 3
Library 3
License 3
Lichte 3
Lido 3
Liebhaber 3
Lied 3
Lieder 3
Light 3
Liikanen 3
Limited 3
Linke 3
List 3
List@@ 3
Lit@@ 3
Liv@@ 3
Live@@ 3
Location 3
Lockerung 3
Lohn@@ 3
Lon@@ 3
Lop@@ 3
Lor@@ 3
Lounge 3
Ltd 3
Luft- 3
Lufthansa 3
Luka@@ 3
Lulu 3
Lux@@ 3
Lös@@ 3
Lücken 3
MB@@ 3
MD@@ 3
ME 3
MM@@ 3
Maastricht 3
Mac 3
Mahl@@ 3
Main 3
Maler 3
Malerei 3
Mallorca 3
Mam@@ 3
Manchester 3
Manchmal 3
Mann@@ 3
Mannschaft 3
Marathon 3
Marco 3
Marie 3
Marketing@@ 3
Marktan@@ 3
Marktführer 3
Markus 3
Marri@@ 3
Martini 3
Massa@@ 3
Massi@@ 3
Master@@ 3
Maustaste 3
Maxim@@ 3
May@@ 3
McC@@ 3
Mechan@@ 3
Med@@ 3
Medizin@@ 3
Meeres 3
Meeting 3
Meetings 3
Mehrere 3
Meilenstein 3
Meinungsverschiedenheiten 3
Meister@@ 3
Menschenleben 3
Menschenwürde 3
Menschheit 3
Mercedes 3
Messen 3
Messung 3
Metall 3
Micro@@ 3
Migration 3
Miguel 3
Militär 3
Militärs 3
Millenniums 3
Min 3
Minim@@ 3
Ministerpräsident 3
Mira@@ 3
Missachtung 3
Missionen 3
Mitgliedsstaaten 3
Mitgliedstaates 3
Mitgliedstaats 3
Mithilfe 3
Mittag 3
Mittelme@@ 3
Mobile 3
Mobiltelef@@ 3
Model@@ 3
Moderne 3
Modi@@ 3
Modul 3
Mohammed 3
Mol@@ 3
Monopol 3
Monta@@ 3
Monteneg@@ 3
Moral 3
Mot@@ 3
Mount 3
Mountain@@ 3
Mozart 3
Multi 3
Music 3
Musiker 3
Mut@@ 3
My 3
Mächte 3
Mü@@ 3
NE@@ 3
NGL 3
NT@@ 3
Na 3
Nachfol@@ 3
Nachteile 3
Nachtleben 3
Nachweis 3
Nahrungsmitteln 3
Nam@@ 3
Namens@@ 3
Nan@@ 3
Nass@@ 3
Nat@@ 3
Nationalstaaten 3
Naturschutz@@ 3
Neapel 3
Neg@@ 3
Nepal 3
Netto@@ 3
Neuerungen 3
Neuseeland 3
Nichtregierungsorganisationen 3
Nicolas 3
Niederlassungen 3
Nikol@@ 3
Nobel@@ 3
Nom@@ 3
Note 3
Noten@@ 3
Notfall@@ 3
Notwendi@@ 3
Nuendo 3
Nuklear@@ 3
Null@@ 3
Ny@@ 3
OM@@ 3
OR 3
Oase 3
Ob@@ 3
Obgleich 3
Oliven@@ 3
Olympischen 3
Olympus 3
One 3
Onlin@@ 3
Open@@ 3
OpenCms 3
Opposition@@ 3
Orchester 3
Orchestra 3
Ord@@ 3
Orienti@@ 3
Ortes 3
Our 3
Oze@@ 3
PER@@ 3
PM 3
PM@@ 3
PP@@ 3
PROD@@ 3
PSP 3
Pak@@ 3
Paketen 3
Palacio 3
Palette 3
Panel 3
Papier@@ 3
Para@@ 3
Parameter 3
Pariser 3
Parlamentarier 3
Partei@@ 3
Patch 3
Patri@@ 3
Pei@@ 3
Peking 3
Pen@@ 3
Pension 3
Pensions@@ 3
Per 3
Perf@@ 3
Perl 3
Persönlichkeit 3
Persönlichkeiten 3
Peru 3
Perugia 3
Pflan@@ 3
Pflege@@ 3
Phan@@ 3
Philippinen 3
Pixel 3
Pl@@ 3
Place 3
Planet 3
Plans 3
Platten@@ 3
Ple@@ 3
Plenarsaal 3
Plenarsitzung 3
Plug 3
Pluralismus 3
Plätze 3
Points 3
Politikbereiche 3
Porte 3
Potenzi@@ 3
Power 3
Pr@@ 3
Prager 3
Preises 3
Premium 3
President 3
Pri@@ 3
Prior@@ 3
Privatpersonen 3
Problem@@ 3
Produktes 3
Produktivität 3
Profi@@ 3
Programmi@@ 3
Programmierung 3
Projektes 3
Promotion 3
Prop@@ 3
Prospek@@ 3
Protektionismus 3
Protest 3
Proteste 3
Protok@@ 3
Protokolls 3
Proz@@ 3
Prämi@@ 3
Präsent@@ 3
Präsident@@ 3
Präsidentschaftswahlen 3
Präzedenzfall 3
Präzision 3
Psych@@ 3
Public 3
Pun@@ 3
Put@@ 3
Pä@@ 3
Qualifikation 3
Quality 3
Quanti@@ 3
Quart@@ 3
Que@@ 3
Quellcode 3
RAM 3
RAW 3
RE 3
Racing 3
Rahmenbedingungen 3
Rahmenprogramms 3
Rak@@ 3
Rasse 3
Rath@@ 3
Raumes 3
Reading 3
Rechen@@ 3
Rechtsetzung 3
Rechtssicherheit 3
Rede@@ 3
Refer@@ 3
Regen 3
Regierungsführung 3
Region@@ 3
Regulierungs@@ 3
Reihen 3
Reit@@ 3
Reiten 3
Rek@@ 3
Rekord@@ 3
Relax 3
Religionsfreiheit 3
Renaissance 3
Renault 3
Renten@@ 3
Rentner 3
Residen@@ 3
Resolutionen 3
Ress@@ 3
Ressource 3
Resul@@ 3
Resultat 3
Resultate 3
Revi@@ 3
Review 3
Rho@@ 3
Rights 3
Riviera 3
Rol@@ 3
Ros@@ 3
Rose 3
Rosen@@ 3
Roten 3
Rothley 3
Rou@@ 3
Rous@@ 3
Rumäniens 3
Run@@ 3
Römer 3
Rön@@ 3
Rücksicht 3
SC 3
SHO@@ 3
SI 3
SIS 3
SL@@ 3
SMS 3
SP 3
SR@@ 3
ST 3
STR@@ 3
SW@@ 3
Saddam 3
Saf@@ 3
Sahara 3
Sak@@ 3
Salz@@ 3
Samm@@ 3
Sant@@ 3
Santiago 3
Sat 3
Satur@@ 3
Saudi 3
Schalt@@ 3
Schar@@ 3
Schauspielerin 3
Schein@@ 3
Scher@@ 3
Schieds@@ 3
Schlafzimmer 3
Schlu@@ 3
Schluß@@ 3
Schlüsselrolle 3
Schreib@@ 3
Schrift@@ 3
Schriften 3
Schriftsteller 3
Schritten 3
Schutzmaßnahmen 3
Schwarz 3
Schwei@@ 3
Schwein@@ 3
Schwellenländern 3
Schwerpunkt 3
Schwester 3
Schwimmbad 3
Schwäch@@ 3
Schwäche 3
Schä@@ 3
Schü@@ 3
Science 3
Scre@@ 3
Sec@@ 3
Seel@@ 3
Seeverkehr 3
Sein 3
Sekunde 3
Seminar 3
Seminar@@ 3
Sendung 3
Serben 3
Seri@@ 3
Servern 3
Servers 3
Sevilla 3
Sex@@ 3
Shanghai 3
Shop@@ 3
Shopping 3
Shutt@@ 3
Sicherheitsstandards 3
Sid 3
Sie@@ 3
Siedlungen 3
Siehe 3
Simbabwe 3
Sin@@ 3
Singapur 3
Sitzungsperiode 3
Skand@@ 3
Skigebiet 3
Skla@@ 3
Skype 3
Sli@@ 3
Slo@@ 3
Slowen@@ 3
Slowenien 3
Social 3
Soft@@ 3
Solar@@ 3
Soldaten 3
Solidaritäts@@ 3
Solution 3
Sorten 3
Sozialpolitik 3
Sozialversicherungs@@ 3
Space 3
Spaltung 3
Spanisch 3
Spass 3
Speci@@ 3
Special 3
Speichern 3
Speises@@ 3
Spekul@@ 3
Spenden 3
Spezifikationen 3
Spi@@ 3
Spielern 3
Spirit 3
Split 3
Sports 3
Sports@@ 3
Spuren 3
Spybot 3
Staatsanleihen 3
Staatsanwal@@ 3
Stadium 3
Stahl@@ 3
Stammzellen 3
Statt 3
Steuerungs@@ 3
Stipen@@ 3
Stockholm 3
Strahlung 3
Straß@@ 3
Streifen 3
Stress 3
Stro@@ 3
Studenten@@ 3
Studios 3
Studium 3
Stufe 3
Stur@@ 3
Stuttgar@@ 3
Stä@@ 3
Suites 3
Sum@@ 3
Summen 3
Sun 3
Sup@@ 3
Superior 3
Surfen 3
Swiss@@ 3
Sy@@ 3
Sydney 3
Symphon@@ 3
Synergi@@ 3
Szenarien 3
Szenario 3
Südamerika 3
TER 3
TOR@@ 3
TRA@@ 3
Tabak 3
Tabellen 3
Tags 3
Tast@@ 3
Tausend 3
Techn@@ 3
Tei@@ 3
Teilnehmern 3
Telefonnummer 3
Telekommunikation 3
Tempel 3
Tempo 3
Ten@@ 3
Tendenzen 3
Tennis@@ 3
Termine 3
Terror@@ 3
Terrorismusbekämpfung 3
Terroristen 3
Testing 3
Texti@@ 3
Thematik 3
Thessaloniki 3
They 3
Thom@@ 3
Ticket@@ 3
Tickets 3
Tim 3
Tisch@@ 3
Tochtergesellschaften 3
Tok@@ 3
Toledo 3
Tools 3
Top@@ 3
Touch 3
Tradi@@ 3
Transit@@ 3
Trau@@ 3
Travel@@ 3
Trends 3
Trichet 3
Trin@@ 3
Trium@@ 3
Trocken@@ 3
Trump 3
Tschernobyl 3
Turin 3
Turm 3
Turnier 3
Tän@@ 3
Tätigkeits@@ 3
UM@@ 3
USE 3
Umlauf 3
Umstand 3
Umstrukturi@@ 3
Umweltpolitik 3
Umweltverschmutzung 3
Umweltverträ@@ 3
Unfall 3
Ungar@@ 3
Unionsbürger 3
Univers@@ 3
Universal@@ 3
Universi@@ 3
Unklar@@ 3
Unserer 3
Unterbrechung 3
Unterbringung 3
Unterkünften 3
Untern@@ 3
Unternehm@@ 3
Unterrichtung 3
Unterschriften 3
UpdateStar 3
Updates 3
Upgrade 3
Us@@ 3
User 3
VE 3
VER@@ 3
VIS 3
Vari@@ 3
Variante 3
Vaters 3
Veranstalter 3
Verband 3
Verein 3
Verein@@ 3
Verf@@ 3
Verfahrens 3
Verfol@@ 3
Vergewal@@ 3
Vergnügen 3
Verhand@@ 3
Verkehrsmitteln 3
Verlei@@ 3
Verlän@@ 3
Vermark@@ 3
Vermarktung 3
Verpack@@ 3
Versandkosten 3
Verschiebung 3
Verschuldung 3
Verschärfung 3
Versicherungen 3
Verstärkung 3
Versöhnung 3
Vertei@@ 3
Vertrauens 3
Vertre@@ 3
Vertretung 3
Verun@@ 3
Very 3
Verz@@ 3
Verzicht 3
Veröffentlichungen 3
Veter@@ 3
Veterin@@ 3
Via 3
Vice 3
Vie@@ 3
Vir@@ 3
Virtu@@ 3
Visum@@ 3
Vitorino 3
Vogel@@ 3
Voraus 3
Vorbe@@ 3
Vorbehalte 3
Vorbeugung 3
Vorgang 3
Vormittag 3
Vorsorge@@ 3
Vorteilen 3
Vorträge 3
Völ@@ 3
WE 3
WE@@ 3
WHO 3
WWU 3
Waff@@ 3
Waldner 3
Wallis 3
Walter 3
Wan@@ 3
Wandel 3
Wanderungen 3
Warenzeichen 3
Warnung 3
Wartungs@@ 3
Wassers 3
Watson 3
Weber 3
Wechsel 3
Wehr@@ 3
Well@@ 3
Weltmarkt 3
Wen@@ 3
Wende 3
Werken 3
Werkstatt 3
Werkzeug@@ 3
Wertpapier@@ 3
Wertschätzung 3
Wes@@ 3
Whirlpool 3
Wich@@ 3
Wichtig 3
Wiederaufnahme 3
Wiederbelebung 3
Wiederein@@ 3
Wiederholung 3
Wiener 3
Wik@@ 3
Will 3
Wirtschaften 3
Wirtschaftswachstums 3
Wissenschaftlern 3
Wohlstands 3
Wolfgang 3
Wollen 3
Word 3
Wort@@ 3
Wunder 3
Wählern 3
Wälder 3
Wäldern 3
Wände 3
Wörter@@ 3
You 3
You@@ 3
Young 3
Zauber 3
Zauber@@ 3
Zeh@@ 3
Zeichen@@ 3
Zeitungen 3
Zellen 3
Zentrale 3
Zentrums 3
Zeugen 3
Zeugnis 3
Zie@@ 3
Zielvorgaben 3
Zins@@ 3
Zivilbevölkerung 3
Zivilisation 3
Zucker 3
Zufriedenheit 3
Zugänglichkeit 3
Zukunfts@@ 3
Zul@@ 3
Zun@@ 3
Zurück@@ 3
Zus@@ 3
Zusch@@ 3
Zuwanderung 3
Zwecken 3
Zwischenzeit 3
Zäh@@ 3
Zö@@ 3
aba 3
abdecken 3
aber@@ 3
abgedeckt 3
ablehnt 3
about 3
abschließend 3
absichti@@ 3
abstra@@ 3
abzugeben 3
abzustimmen 3
acc@@ 3
access 3
acher 3
aching 3
achtung 3
aci@@ 3
act@@ 3
ade@@ 3
ades@@ 3
ading 3
administr@@ 3
adores 3
ados 3
aeus 3
affung 3
afgh@@ 3
after 3
aged 3
agen 3
ages 3
ahl@@ 3
aim@@ 3
aire 3
ais 3
akademie 3
akademischen 3
aker 3
aki 3
akt@@ 3
akter 3
aktionen 3
aktuell@@ 3
alarmi@@ 3
ald 3
alisierte 3
alko@@ 3
allas 3
allgemein@@ 3
alog@@ 3
alp@@ 3
alto 3
aman@@ 3
ambi@@ 3
ambition@@ 3
amen@@ 3
amo 3
amtierende 3
amtierender 3
anbau 3
anc@@ 3
ancen 3
anderwei@@ 3
andum 3
anerkannten 3
angehören 3
angel@@ 3
angelegt 3
angemess@@ 3
angeneh@@ 3
angenommene 3
angeseh@@ 3
angewand@@ 3
anhaltende 3
anhaltenden 3
ania 3
ankommen 3
annehm@@ 3
anschluss 3
anstehenden 3
antrag 3
any@@ 3
ao 3
apartment 3
apaz@@ 3
api@@ 3
appellieren 3
archä@@ 3
ardo 3
ards 3
ario 3
arischen 3
arisierung 3
arkt 3
arm 3
aro 3
arrest 3
arta 3
arte 3
artier 3
arz@@ 3
ase 3
ases 3
asp@@ 3
asser 3
assungs@@ 3
aster 3
atemberaubende 3
aten@@ 3
ater@@ 3
atik 3
atives 3
ato 3
aturen 3
auferlegt 3
aufgaben 3
aufhalten 3
aufhören 3
aufsicht 3
aufstellen 3
aufwän@@ 3
aufzuheben 3
ausdrücken 3
auseinander 3
ausgabe 3
ausgedeh@@ 3
ausgeglich@@ 3
ausgehandelt 3
ausgeht 3
ausgeprä@@ 3
ausgestellt 3
ausgeweitet 3
ausgewählten 3
ausschliesslich 3
aussieht 3
austauschen 3
auszubauen 3
auszudrücken 3
automaten 3
automation 3
autorit@@ 3
außergewöhnliche 3
außergewöhnlichen 3
außerordentliche 3
band@@ 3
barem 3
bauer 3
beabsichti@@ 3
beantragen 3
beck 3
becken 3
bedanke 3
bedauert 3
bedaure 3
bedienung 3
beeindruck@@ 3
beeindruckt 3
befriedi@@ 3
befugnisse 3
befürworte 3
beginn@@ 3
begriff 3
begriffen 3
begründete 3
begrüßenswert 3
behandlungen 3
behauptet 3
behilflich 3
behindertenfreundliche 3
behör@@ 3
beispiel@@ 3
beizubehalten 3
beizutreten 3
bekam 3
bekannteste 3
bekanntlich 3
bekräftigen 3
belgischen 3
beliebig 3
beln 3
bemerk@@ 3
bemerkenswert 3
bemerkenswerte 3
bequem@@ 3
berechnen 3
berechtigung 3
bereitschaft 3
berge 3
bers 3
berühr@@ 3
berühren 3
besagt 3
beschleun@@ 3
beschleunigt 3
beschlossenen 3
beschriebenen 3
beschul@@ 3
besprechen 3
besser@@ 3
besseres 3
bestellt 3
bestimmung 3
beständig 3
betei@@ 3
beteiligung 3
beten 3
betone 3
betonte 3
betragen 3
betreffende 3
betreibt 3
betreuen 3
bevorzugen 3
bevölkerung 3
bewirkt 3
bewus@@ 3
bewusste 3
bezeichnete 3
beziehungen 3
bezogene 3
bezogenen 3
bic 3
bie@@ 3
biegen 3
biens 3
bigkeit 3
bil 3
bilanz@@ 3
bindungen 3
bio@@ 3
bir@@ 3
birgt 3
bis@@ 3
bist 3
bisweilen 3
bli@@ 3
blin@@ 3
block@@ 3
blä@@ 3
boards 3
bonus 3
booking.com 3
boom 3
boot@@ 3
bot@@ 3
bra 3
bran@@ 3
brau@@ 3
brauche 3
brauchs 3
breiter 3
breiteren 3
brem@@ 3
brennen 3
brennungs@@ 3
bricht 3
bring@@ 3
browser 3
bru@@ 3
brüche 3
bs@@ 3
bst 3
bulgar@@ 3
bz@@ 3
bör@@ 3
bühne 3
bün@@ 3
büne 3
bür@@ 3
bürger@@ 3
bürokratische 3
card 3
carte 3
casa 3
cel@@ 3
cer@@ 3
ces 3
cha 3
chal@@ 3
charakteristischen 3
charge 3
chens 3
chine@@ 3
chni@@ 3
christliche 3
ciano 3
cio 3
cit@@ 3
cken@@ 3
ckten 3
cle@@ 3
cli@@ 3
club 3
coffee 3
comfort 3
config 3
cou@@ 3
cours 3
d.@@ 3
dago@@ 3
dahinter 3
dank@@ 3
darzustellen 3
dasselbe 3
dat 3
datenbank 3
dates 3
dauer@@ 3
day 3
dazu@@ 3
dd 3
def@@ 3
definierten 3
degra@@ 3
dekori@@ 3
dema@@ 3
demselben 3
dener 3
dent 3
dereg@@ 3
derer 3
derte 3
deter 3
deurop@@ 3
deutliche 3
deutlicher 3
dex 3
dez 3
dge 3
diensten 3
diente 3
diesbezüglichen 3
dieselbe 3
diff@@ 3
diger 3
digitaler 3
diglich 3
digungs@@ 3
dimension@@ 3
direct 3
direktor 3
diskre@@ 3
disposition 3
disziplin 3
diver@@ 3
dla 3
dlichkeit 3
dlichkeiten 3
domin@@ 3
donn@@ 3
doppel@@ 3
doppelte 3
dortigen 3
dos 3
download 3
downloaden 3
draußen 3
drohen 3
drängt 3
dur 3
durchgeführte 3
dus 3
dustrie 3
dämp@@ 3
dänischen 3
dü@@ 3
e.@@ 3
e.V 3
easy 3
eber@@ 3
ebook 3
ece 3
echnologie 3
eck@@ 3
ection 3
eder@@ 3
ee@@ 3
effekte 3
effizienter@@ 3
egenheiten 3
eh 3
ehe 3
ehemaliger 3
ehen 3
ehmen 3
ehrt 3
eigenschaften 3
eigenständige 3
eim@@ 3
ein- 3
eindringlich 3
einfügen 3
eingangs 3
eingeb@@ 3
einger@@ 3
eingerei@@ 3
einhalb 3
einheitlich 3
einmaligen 3
einnahmen 3
einsatz@@ 3
einschließen 3
einseitige 3
einstellungen 3
einwand@@ 3
einziger 3
einzubringen 3
einzunehmen 3
einzurichten 3
eister@@ 3
eistungen 3
element@@ 3
elli@@ 3
els@@ 3
emin@@ 3
empfehle 3
ems 3
enburg 3
ence 3
enda 3
endor@@ 3
enem@@ 3
ener@@ 3
energie@@ 3
engagierte 3
engli@@ 3
englisch 3
englischen 3
enha@@ 3
enn 3
ennen 3
ennt 3
ennung 3
enny 3
enstadt 3
enster 3
ensu@@ 3
ensystem 3
enta 3
entgegenzu@@ 3
entierte 3
entin 3
entransfer 3
ents 3
ents@@ 3
entscheidung 3
entschä@@ 3
entstand@@ 3
enttäu@@ 3
entwickel@@ 3
enza 3
eph@@ 3
erbaute 3
ere@@ 3
erei@@ 3
erender 3
erfahr@@ 3
erfol@@ 3
erfolgten 3
erforschen 3
ergeb@@ 3
ergreift 3
erhebt 3
erholsamen 3
erinn@@ 3
erinnen 3
erisch 3
erklär@@ 3
erkrank@@ 3
erlau@@ 3
erleich@@ 3
erm@@ 3
ermittelt 3
ermöglichte 3
ername 3
erneuert 3
erneuten 3
ernsthafte 3
err@@ 3
erreich@@ 3
erreichten 3
erschüttert 3
erstaun@@ 3
erstellte 3
erstellten 3
erstklassigen 3
erstrecken 3
erwarte 3
erwartete 3
erweise 3
erweiter@@ 3
esische 3
esp@@ 3
essive 3
esst 3
esta 3
ethische 3
etri@@ 3
etrie 3
etrischen 3
etzen 3
eu 3
euer@@ 3
eurer 3
euro@@ 3
europ@@ 3
europa@@ 3
europas 3
eux 3
evalu@@ 3
ex 3
exclusive 3
experiment@@ 3
expor@@ 3
exzellente 3
ey@@ 3
fabrik 3
facto 3
faktor 3
farbe 3
fasste 3
fasz@@ 3
faszini@@ 3
faszinierenden 3
fax 3
feder@@ 3
fehl 3
fehlenden 3
fehler 3
feiert 3
felder 3
fenster 3
fers 3
fertigung 3
fes 3
fes@@ 3
festyle 3
ffekt 3
ffene 3
ffizi@@ 3
ffs 3
fft 3
fikationen 3
fil 3
finanz@@ 3
finanziell 3
finanzierung 3
finnische 3
fir@@ 3
fit@@ 3
fizierten 3
flan@@ 3
fleisch@@ 3
flexiblen 3
flexibler 3
flich 3
flächen@@ 3
flüge 3
fokus@@ 3
foo@@ 3
ford 3
forderungen 3
formate 3
formed 3
formular 3
forschungs@@ 3
fortfahren 3
fr 3
freiem 3
freigel@@ 3
frequ@@ 3
freundliches 3
friedi@@ 3
früchte 3
ftung 3
furcht@@ 3
fut@@ 3
fährt 3
fän@@ 3
förm@@ 3
fühle 3
führender 3
füllt 3
fünfte 3
fünfzehn 3
fürchten 3
g. 3
garanti@@ 3
gas@@ 3
gastronom@@ 3
gebau@@ 3
gebilli@@ 3
gebnisse 3
gebor@@ 3
gebraucht 3
gebro@@ 3
gebu@@ 3
gebucht 3
geeignet@@ 3
geeigneter 3
geeinigt 3
gefolgt 3
geforderten 3
gefährdeten 3
gefährliche 3
gefügt 3
gegeben@@ 3
gegensei@@ 3
gegenstände 3
gegenüberstehen 3
gehe 3
gehens 3
geho@@ 3
gehörenden 3
gehörten 3
geisti@@ 3
geistige 3
gelagert 3
gelan@@ 3
gelang 3
gelebt 3
gelei@@ 3
geli@@ 3
gelitten 3
gelt 3
gelöscht 3
gemeldet 3
gements 3
gemessen 3
gemis@@ 3
genau@@ 3
gendsten 3
geneti@@ 3
genommenen 3
genutzten 3
genügen 3
geographischen 3
geordnet 3
geprä@@ 3
gere@@ 3
gerer 3
geringeren 3
gerlich 3
geru@@ 3
gerä@@ 3
gesandt 3
geschei@@ 3
geschi@@ 3
geschich@@ 3
geschlagen 3
geschm@@ 3
geschmackvoll 3
geschoss 3
geschrit@@ 3
geschwindigkeit 3
gesetzlich 3
gesonderte 3
gespannt 3
gesper@@ 3
gest 3
gestaltete 3
gesteigert 3
gesteu@@ 3
gestoppt 3
gestrigen 3
gesund 3
get 3
getr@@ 3
getre@@ 3
getrennte 3
getreten 3
getroffenen 3
geträn@@ 3
gewalt@@ 3
gewaltige 3
gewann 3
gewerblichen 3
gewirkt 3
gewisser 3
gewonn@@ 3
gewäh@@ 3
gewöhnliche 3
gewöhnlichen 3
gewünscht 3
gezi@@ 3
geänderten 3
ggen@@ 3
gh 3
gie@@ 3
girl 3
gl 3
gle@@ 3
gleicht 3
glicher 3
gmati@@ 3
gos 3
gravier@@ 3
greg@@ 3
grenzüberschreitende 3
gress 3
griffe 3
gross 3
gross@@ 3
grundsätzliche 3
grundsätzlichen 3
grupp@@ 3
grä@@ 3
grünen 3
gängen 3
gängig 3
günstiger 3
halben 3
haltend 3
halter 3
halts@@ 3
ham 3
handelte 3
handlung 3
handwerk@@ 3
has@@ 3
hase 3
haupt 3
hauses 3
haut 3
hebt 3
heiligen 3
heisst 3
heizung 3
herausra@@ 3
here 3
hero@@ 3
herrlich 3
herrliche 3
heruntergeladen 3
hervorgeht 3
hervorragendes 3
hervorrufen 3
hi 3
hilfre@@ 3
hinaus@@ 3
hinein 3
hinweg@@ 3
hinzuweisen 3
his 3
historisch 3
historisches 3
hn@@ 3
holt 3
home 3
homo@@ 3
hor@@ 3
hosp@@ 3
host 3
hrt 3
hunder@@ 3
hydrau@@ 3
hypo@@ 3
häl@@ 3
häuser 3
höchst@@ 3
hüb@@ 3
hül@@ 3
iTunes 3
ian 3
icht@@ 3
ida 3
iden 3
ido 3
ien@@ 3
iers 3
ignorieren 3
igte 3
ihrerseits 3
iling 3
illegaler 3
iller@@ 3
illi@@ 3
imp@@ 3
implementiert 3
importieren 3
inbegriffen 3
inde@@ 3
indert 3
indirekten 3
indische 3
indischen 3
ine@@ 3
info 3
infra@@ 3
ing- 3
ingham 3
ingungen 3
inhaltlich 3
inischen 3
initiative 3
initiativen 3
innovativer 3
installation 3
institutioneller 3
int 3
integrierte 3
intensive 3
interaktiven 3
interesse 3
interessieren 3
interinstitutionellen 3
internationalem 3
interne 3
interpretiert 3
io 3
ira@@ 3
irakische 3
irgend 3
irgendeinem 3
irgendwann 3
iser 3
ismen 3
istisches 3
ita 3
iti 3
ity 3
itäten@@ 3
izer 3
ja@@ 3
jah@@ 3
jahres@@ 3
jahrzehntel@@ 3
jan 3
jana 3
jap@@ 3
jas 3
jed@@ 3
jeglichen 3
jeher 3
jenes 3
jenseits 3
ji 3
ji@@ 3
jobs 3
ka@@ 3
kab@@ 3
kalender 3
kamera 3
kammer 3
kanischen 3
kanten 3
kapitali@@ 3
kat 3
kate 3
katho@@ 3
keit 3
ketten 3
king@@ 3
kit 3
klassen 3
kle@@ 3
kleinste 3
klär@@ 3
komfortable 3
kommission 3
kommunikation 3
kompatibel 3
kompetent 3
kompetente 3
kompetenten 3
komplexer 3
komplizierte 3
konfigu@@ 3
konfigurieren 3
konkurrenz@@ 3
konta@@ 3
kontinent@@ 3
kontrollierte 3
kontrollierten 3
konzentri@@ 3
konzepte 3
koordinierte 3
kopf 3
korrigiert 3
kostspie@@ 3
kraten 3
kreative 3
kreativen 3
kreu@@ 3
kritisiert 3
kräf@@ 3
ks@@ 3
kunft 3
kunft@@ 3
kung 3
kurz@@ 3
kurzfristige 3
käme 3
kämpft 3
kündigen 3
künf@@ 3
künstlerische 3
kürzester 3
lamp@@ 3
lands@@ 3
langwieri@@ 3
lass 3
lasse 3
lassung 3
last@@ 3
lasten 3
laufe 3
laßt 3
lberg 3
ld 3
least 3
leave 3
lebens 3
lebi@@ 3
legislative 3
leidung 3
leitet 3
lender 3
lettern 3
lichte 3
lief 3
lieferung 3
liess@@ 3
lift 3
lindustrie 3
listet 3
lit@@ 3
litz 3
lli@@ 3
lob@@ 3
loggen 3
logisch 3
lokal 3
loo@@ 3
losoph@@ 3
lossen 3
lots 3
lover 3
lug 3
luss 3
luxuriöse 3
ländische 3
längere 3
lässi@@ 3
lässigkeit 3
läufer 3
läufi@@ 3
läufig 3
lüssel@@ 3
mah@@ 3
mail@@ 3
makroökonomischen 3
manag@@ 3
manip@@ 3
mantel 3
manu@@ 3
manuell 3
manufacturers 3
mare 3
markts 3
marsch 3
masch@@ 3
maschinen@@ 3
master 3
mati@@ 3
matrix 3
matter 3
mauer 3
max 3
maxim@@ 3
maßen 3
maßgeschnei@@ 3
maßgeschneiderte 3
maßnahme 3
media 3
meer 3
mehrerer 3
melten 3
menden 3
mengen 3
menschlicher 3
menten 3
met 3
meters 3
mikro@@ 3
militärischer 3
minder@@ 3
mine 3
minen 3
minist@@ 3
minü@@ 3
mis 3
mischung 3
missionen 3
misst 3
mitglied 3
mitte 3
mittelständi@@ 3
mitunter 3
mitzu@@ 3
mmen 3
mmer 3
mobilen 3
modernste 3
modernsten 3
mol@@ 3
moment@@ 3
moralischen 3
more 3
motoren 3
multilateralen 3
multination@@ 3
mus@@ 3
musst 3
mutigen 3
mutz@@ 3
mußten 3
my@@ 3
män@@ 3
mäß@@ 3
mäßigen 3
möglicher 3
nachhal@@ 3
nachmittag 3
nachts 3
nah 3
nahen 3
name 3
namen 3
nannte 3
national 3
nau@@ 3
need 3
nerin 3
ness 3
neten 3
nez 3
niedri@@ 3
niedrigere 3
niedrigeren 3
niemanden 3
niert 3
nige 3
nigen 3
night 3
nom@@ 3
nos 3
note 3
noti@@ 3
nov@@ 3
nummern 3
nutzung 3
nächster 3
nähe 3
näher@@ 3
nördlich 3
nützlichen 3
off 3
og 3
ohn@@ 3
ol 3
oli@@ 3
olle 3
ology 3
ommiss@@ 3
oms 3
onas 3
onda 3
onds 3
ones 3
onisten 3
only 3
oot 3
op 3
oper 3
operation 3
operation@@ 3
oph@@ 3
opoulou 3
opp 3
oppelt 3
ops 3
orchest@@ 3
ord 3
ordentlichen 3
ordnet 3
ordnungs@@ 3
org@@ 3
organisi@@ 3
orials 3
orientiert 3
orientierte 3
orientierung 3
oring 3
oro 3
os@@ 3
ost 3
oter 3
oter@@ 3
otten@@ 3
otto 3
outh 3
over@@ 3
pack@@ 3
par 3
partei 3
partement 3
pel@@ 3
perfek@@ 3
perfekten 3
perio@@ 3
pers 3
personenbezogener 3
persön@@ 3
petit 3
pf 3
physi@@ 3
physische 3
plans 3
plas@@ 3
platt@@ 3
platte 3
play 3
plung 3
plä@@ 3
point 3
pol 3
polis 3
polnische 3
pool 3
pools 3
popul@@ 3
porno@@ 3
portal 3
porter 3
porteure 3
portra@@ 3
ports 3
pos 3
positiver 3
posten 3
pot@@ 3
potenzi@@ 3
pper 3
praktischer 3
praktiziert 3
prek@@ 3
pression 3
priv@@ 3
privater 3
problematisch 3
prochenen 3
produktive 3
produzenten 3
prof@@ 3
profession@@ 3
profil@@ 3
profitiert 3
program 3
protektion@@ 3
protestieren 3
protokoll 3
prozenti@@ 3
präsen@@ 3
präsentierte 3
prüf@@ 3
prüft 3
q@@ 3
qu 3
qualifizi@@ 3
qualifizierte 3
qualifizierter 3
quantit@@ 3
quer 3
ques 3
qui 3
quis 3
quote 3
rab@@ 3
rach 3
raff@@ 3
rahmens 3
ran 3
rand 3
rang 3
rank@@ 3
ras 3
reak@@ 3
reale 3
reali@@ 3
rechtmäßig 3
rede 3
regelmäß@@ 3
regelmäßige 3
reichhaltigen 3
reichsten 3
reira 3
reisenden 3
reißen 3
relev@@ 3
reli@@ 3
rem 3
renomm@@ 3
rent 3
resi@@ 3
reson@@ 3
respek@@ 3
ress 3
rest@@ 3
revi@@ 3
ri 3
rie@@ 3
rieben 3
rief 3
rieren 3
risiken 3
risiko 3
robu@@ 3
rolle 3
rom@@ 3
ruhe 3
ruhi@@ 3
ruhiger 3
run 3
run@@ 3
rungen 3
ruppen 3
rut@@ 3
räder 3
rägern 3
räumt 3
römischen 3
rüh@@ 3
s. 3
sache 3
sag@@ 3
sagten 3
sanc@@ 3
sar@@ 3
sat@@ 3
satz@@ 3
sauberen 3
schaftlichen 3
schaftsp@@ 3
schall@@ 3
schalter 3
scharf 3
schef 3
schefs 3
schei@@ 3
schein@@ 3
schien 3
schiff 3
schiffe 3
schlan@@ 3
schlechten 3
schließung 3
schlimmer 3
schlimmsten 3
schlü@@ 3
schm@@ 3
schmerzen 3
schnell@@ 3
schnellstmöglich 3
schnit@@ 3
schot@@ 3
schrank 3
schrei@@ 3
schten 3
schub 3
schuldigen 3
schwach 3
schwache 3
schwankungen 3
schwarzen 3
schwerwie@@ 3
schwi@@ 3
schä@@ 3
schäd@@ 3
schätze 3
schür@@ 3
search 3
sed@@ 3
seid 3
sekre@@ 3
sektor@@ 3
sektoren 3
selb@@ 3
selbständig 3
seltenen 3
send 3
sensible 3
separ@@ 3
separat 3
separate 3
sere 3
serious 3
servi@@ 3
seu@@ 3
shaushalt 3
sher@@ 3
show 3
shows 3
sicherungs@@ 3
sichtbaren 3
sichtig 3
sichtigen 3
sichts@@ 3
sigkeit 3
sil@@ 3
sistenz 3
sit@@ 3
site 3
situ@@ 3
sitz 3
sitzt 3
sitzungen 3
sk 3
sky 3
sland 3
sle@@ 3
slowen@@ 3
smar@@ 3
sofa 3
soliden 3
som@@ 3
sonder@@ 3
sonn@@ 3
sons 3
sonstige 3
sonstigen 3
soren 3
sorg@@ 3
sorge 3
sorgfältige 3
sort 3
sorten 3
souverän@@ 3
sowje@@ 3
sozio@@ 3
space 3
spartn@@ 3
sparungen 3
spektakuläre 3
spenden 3
spezialisiert 3
spezieller 3
sphase 3
spieler 3
spielraum 3
spielten 3
spit@@ 3
splatz 3
sportliche 3
sports 3
spra@@ 3
spraktiken 3
springen 3
spruch 3
spür@@ 3
ssi 3
ssige 3
ssigen 3
ssigkeit 3
sta@@ 3
stab 3
stabil@@ 3
stabilen 3
stable 3
stadt@@ 3
stagung 3
stands@@ 3
stant 3
star 3
starker 3
startet 3
statistischen 3
stattfindenden 3
staurant 3
stehe 3
steil@@ 3
steilnehmer 3
stellern 3
stem 3
stete 3
steuert 3
stin 3
stock 3
strafen 3
stran@@ 3
strand 3
strationen 3
straßen 3
stream 3
streit 3
strich 3
strikt 3
strikte 3
stro 3
struktur@@ 3
strukturiert 3
sträger 3
strö@@ 3
sts 3
studien 3
studios 3
stufen@@ 3
stur@@ 3
städ@@ 3
städte 3
städten 3
städtische 3
stören 3
stößt 3
stürzen 3
suchte 3
sun@@ 3
sung 3
sur@@ 3
sus 3
sw@@ 3
sweise 3
synchron@@ 3
system@@ 3
systematisch 3
systematische 3
sön@@ 3
süd@@ 3
südlichen 3
t- 3
tab@@ 3
tags@@ 3
tale 3
talk 3
tan 3
tanks 3
tant 3
tari@@ 3
tasie 3
tauschen 3
taxi 3
tch 3
team 3
teams 3
teilte 3
telt 3
tempor@@ 3
tend 3
tennis 3
territoriale 3
terweise 3
teter 3
teu@@ 3
tgen@@ 3
thei@@ 3
themen 3
theoretisch 3
ther 3
these 3
thilfe 3
tho@@ 3
those 3
thri@@ 3
through 3
tian 3
tibe@@ 3
tics 3
tie 3
tie@@ 3
tiefer 3
tierenden 3
ties 3
tigsten 3
times 3
timme 3
tionellen 3
tivirus 3
tliches 3
tnissen 3
tober@@ 3
tol@@ 3
toleranz 3
ton@@ 3
top 3
tors 3
tour@@ 3
tradition@@ 3
trag 3
trage 3
tran@@ 3
transeuropäischen 3
transfer 3
transform@@ 3
transportieren 3
tre 3
treffend 3
treibt 3
trennt 3
tribute 3
trieb 3
trieben 3
triebenen 3
trin@@ 3
tritt@@ 3
troffen 3
tropischen 3
try 3
träglich 3
trü@@ 3
tschaft 3
tseite 3
tter 3
tum@@ 3
tums 3
turel@@ 3
tus 3
tà 3
töten 3
tür@@ 3
u.@@ 3
ubs 3
uit@@ 3
uli 3
umen 3
umes 3
umfangreich@@ 3
umfangreichen 3
umfangreiches 3
umfassender 3
umge@@ 3
umgehen 3
umgekehrt 3
umsonst 3
umstrit@@ 3
umzugehen 3
unabding@@ 3
unabhängi@@ 3
unermü@@ 3
unglück@@ 3
ungs 3
ungspunkt 3
ungsum@@ 3
uni@@ 3
univers@@ 3
unkompliziert 3
unlau@@ 3
unmittelbaren 3
unruhi@@ 3
unser@@ 3
unterbreit@@ 3
untergraben 3
unterhalts@@ 3
unterhält 3
unterir@@ 3
unterliegt 3
untern@@ 3
untersagt 3
unterschrieben 3
unverein@@ 3
unvergess@@ 3
unverhäl@@ 3
urg@@ 3
urs 3
urt 3
used 3
uten@@ 3
uts 3
valent 3
vent 3
ventions@@ 3
verabschiedete 3
veranlassen 3
veranlasst 3
veranstalten 3
verbergen 3
verbindlich 3
verbindlichen 3
verbindung 3
verbleibenden 3
verbot@@ 3
verbrechen 3
verbundene 3
verdeutlichen 3
vereint 3
veren 3
verfassungs@@ 3
vergeb@@ 3
vergnügen 3
vergrößert 3
verhelfen 3
verhält 3
verhän@@ 3
verl@@ 3
verlauf 3
verlegt 3
verletzen 3
verletzungen 3
verliehen 3
verlän@@ 3
verlängern 3
verlängert 3
vermehrt 3
vermieten 3
vernünf@@ 3
vernünftigen 3
verschi@@ 3
verschied@@ 3
verschlech@@ 3
verschlei@@ 3
verschlüssel@@ 3
verschoben 3
verschwinden 3
verschwunden 3
versen 3
versichert 3
versicherung 3
versprochen 3
verständigen 3
verständnis 3
verstärkte 3
verteilen 3
vertra@@ 3
vertre@@ 3
vertreiben 3
verweigern 3
verwendung 3
verwunder@@ 3
verzeichnen 3
vgl. 3
vielfach 3
vielfältig 3
vielsei@@ 3
viertel 3
vierung 3
vil@@ 3
villa 3
virtu@@ 3
virtuellen 3
vis 3
visu@@ 3
vol@@ 3
vollziehen 3
vorankommen 3
voranzu@@ 3
voraussichtlich 3
vorgesch@@ 3
vorhandene 3
vorherige 3
vorherseh@@ 3
vorne 3
vorschlägen 3
vorübergehend 3
völk@@ 3
wachen 3
wah@@ 3
wahrnehmen 3
wall 3
wall@@ 3
walls 3
wan 3
wan@@ 3
wandel 3
want 3
ware@@ 3
warm 3
waschen 3
wechselt 3
weilen 3
weiser 3
weiterentwickelt 3
weitergeleitet 3
weiterzu@@ 3
weites 3
weißen 3
well@@ 3
wellen 3
wenigsten 3
werkzeug 3
wertung 3
wertvoll 3
wertvollen 3
wes@@ 3
wesentliches 3
western 3
weswegen 3
which 3
who 3
wichti@@ 3
wid@@ 3
wiederherzustellen 3
wiederhol@@ 3
wig 3
windet 3
wirtschaf@@ 3
wis@@ 3
wissens@@ 3
wissenschaftlich 3
wley 3
wohner 3
woo@@ 3
worth 3
wski 3
wärmung 3
wärtige 3
wärts@@ 3
würfe 3
xi 3
xion 3
xt 3
xx 3
ycle 3
yed 3
yk@@ 3
yrinth 3
zahlreicher 3
zahlung 3
zahlungs@@ 3
zano 3
zau@@ 3
zeichnete 3
zeitgenös@@ 3
zeitlichen 3
zellen 3
zelt 3
zent 3
zep@@ 3
zertifiziert 3
zeuge 3
zeugt 3
ziehung 3
ziem@@ 3
zierung 3
zige 3
zips 3
zonen 3
zte 3
zubereitet 3
zufriedenheit 3
zugefügt 3
zugehen 3
zugs@@ 3
zugän@@ 3
zukommt 3
zukünftig 3
zunehmende 3
zurufen 3
zuräumen 3
zurückgezogen 3
zurückzuführen 3
zurückzuziehen 3
zusammengefasst 3
zusammengestellt 3
zusamment@@ 3
zusenden 3
zutiefst 3
zuverlässiger 3
zuweilen 3
zweit@@ 3
zyklus 3
zzo 3
zählte 3
züge 3
zügi@@ 3
£ 3
¦ 3
Än@@ 3
Änderungs@@ 3
Ära 3
Ö 3
Öffentliche 3
Übereinkunft 3
Überlegung 3
Übernachtungen 3
Übernahme 3
Überschwemmungen 3
Übersicht 3
ßer 3
ßte 3
á 3
äck@@ 3
äd@@ 3
ähi@@ 3
ähn@@ 3
ähnelt 3
ähnlicher 3
ämp@@ 3
äng@@ 3
ärm@@ 3
ät 3
ät@@ 3
äuse 3
å 3
å@@ 3
ç@@ 3
ès 3
éri@@ 3
í 3
ï@@ 3
ña 3
ò 3
öff@@ 3
öffnet 3
ökonom@@ 3
ölle 3
ön 3
öne 3
öpft 3
öser 3
österreichische 3
ú@@ 3
üben 3
übergreif@@ 3
übermäßig 3
übersehen 3
übersetzen 3
überzeugend 3
üblichen 3
übri@@ 3
ücke 3
ündung 3
ürf@@ 3
ürzung 3
üste 3
ützen 3
ě@@ 3
ł@@ 3
ń@@ 3
С 3
и@@ 3
,5 2
.exe 2
.jpg 2
0.1 2
001 2
01.@@ 2
02@@ 2
03 2
03.@@ 2
04.@@ 2
06.@@ 2
07@@ 2
09.@@ 2
09@@ 2
1.2 2
100.000 2
11.30 2
11.@@ 2
119 2
12,@@ 2
120@@ 2
125 2
135 2
137 2
140 2
166 2
175 2
190 2
1900 2
1924 2
1929 2
1951 2
1959 2
195@@ 2
1962 2
196@@ 2
1970 2
1974 2
1975 2
197@@ 2
1980er 2
1984 2
198@@ 2
1990er 2
2.4 2
20,000 2
20.000 2
2016 2
21.@@ 2
220 2
226@@ 2
23. 2
23.@@ 2
24.@@ 2
240 2
24h 2
25.@@ 2
255 2
27.@@ 2
270 2
28@@ 2
3,5 2
3.0 2
3.1 2
320 2
350 2
360 2
365 2
4000 2
400@@ 2
40@@ 2
48@@ 2
5,000 2
5.0 2
500@@ 2
57 2
5th 2
62 2
65@@ 2
7,@@ 2
70er 2
76 2
79 2
8,@@ 2
800@@ 2
80@@ 2
88@@ 2
9. 2
9001 2
90er 2
95@@ 2
A1 2
A350 2
ACK@@ 2
AI 2
AKVIS 2
ANA 2
AR 2
ARE 2
ART 2
ASEAN 2
ASS 2
AST 2
ATA 2
AVE 2
AX 2
Aar@@ 2
Abbildungen 2
Abend@@ 2
Abends 2
Abfahrt 2
Abgeordneten@@ 2
Abonnement 2
About 2
Abstand 2
Abstimm@@ 2
Abwesenheit 2
Academy 2
Acces@@ 2
Access 2
Act 2
Adam@@ 2
Add 2
Added 2
African 2
Agu@@ 2
Air@@ 2
Aires 2
Akteuren 2
Aktionsp@@ 2
Aktionspläne 2
Aktivi@@ 2
Aktivisten 2
Aktualität 2
Alba 2
Alber@@ 2
Albu@@ 2
Algorith@@ 2
Allen 2
Allgemein@@ 2
Alm@@ 2
Alten 2
Altern@@ 2
Alzheimer 2
Amerikanern 2
Analytics 2
Anbietern 2
Andalusien 2
Anfän@@ 2
Anfänger 2
Angebot@@ 2
Angebots 2
Angeles 2
Anla@@ 2
Anlagen@@ 2
Anlauf@@ 2
Anlei@@ 2
Anordnung 2
Anschein 2
Anschluß 2
Anschläge 2
Ansehen 2
Ansonsten 2
Antiqu@@ 2
Antoni@@ 2
Anwes@@ 2
Anzahlung 2
Apart@@ 2
Apf@@ 2
Apo@@ 2
Apoll@@ 2
Appart@@ 2
Applik@@ 2
Applikation 2
Aquak@@ 2
Aquarium 2
Arbei@@ 2
Arbeiter@@ 2
Arbeitsgruppe 2
Arbeitslosen 2
Arbeitsp@@ 2
Architec@@ 2
Architektur@@ 2
Archive 2
Aren@@ 2
Arena 2
Argent@@ 2
Argumentation 2
Arme 2
Armuts@@ 2
Art. 2
Artik@@ 2
Arts 2
Arz@@ 2
Arznei@@ 2
Ash@@ 2
Ashton 2
Assoziierungs@@ 2
Ast@@ 2
Astrium 2
Atem@@ 2
Ath@@ 2
Atlas 2
Audi 2
Auflagen 2
Aufstellung 2
Auftrag@@ 2
Aug@@ 2
Aung 2
Auseinander@@ 2
Ausfahrt 2
Ausgang@@ 2
Ausgewogenheit 2
Ausgleich@@ 2
Ausländer 2
Ausnahmeregelungen 2
Aussetzung 2
Austausch@@ 2
Austra@@ 2
Ausweg 2
Auswertung 2
Auszeichnung 2
Auszeichnungen 2
Autobahnen 2
Automatisierung 2
Autonom@@ 2
Autonomiebehörde 2
B4 2
BEN@@ 2
BER@@ 2
BG 2
BMBF 2
BS 2
BSD 2
BUR@@ 2
BV 2
Bab@@ 2
Baby 2
Backup 2
Bah@@ 2
Balkans 2
Bananen 2
Band@@ 2
Bandbreite 2
Barbara 2
Barón 2
Based 2
Basel 2
Bashir 2
Basic 2
Batterien 2
Bauernhof 2
Baum 2
Baureihe 2
Bay@@ 2
Bed@@ 2
Bedar@@ 2
Bedeut@@ 2
Bedro@@ 2
Beein@@ 2
Beetho@@ 2
Befes@@ 2
Befugnis 2
Beförderungs@@ 2
Befürworter 2
Beglei@@ 2
Begleitung 2
Begri@@ 2
Behand@@ 2
Bekan@@ 2
Beklei@@ 2
Beleuchtung 2
Belfast 2
Belgi@@ 2
Belieb@@ 2
Bemüh@@ 2
Ben 2
Benal@@ 2
Benjamin 2
Benutzern 2
Benutzeroberfläche 2
Berechnungen 2
Bereits 2
Bergh@@ 2
Bern@@ 2
Berufe 2
Beschaff@@ 2
Beschei@@ 2
Beschich@@ 2
Beschlussfassung 2
Besitzstand 2
Besonder@@ 2
Bestand@@ 2
Bestä@@ 2
Besuche 2
Besucher@@ 2
Betonung 2
Betrachtung 2
Betrieben 2
Betä@@ 2
Bevölkerungen 2
Bewahrung 2
Beweg@@ 2
Beweis@@ 2
Bewerber 2
Bewerber@@ 2
Bewertungs@@ 2
Bewirtschaftung 2
Biblioth@@ 2
Bildschir@@ 2
Bill@@ 2
Binde@@ 2
Binnenmarkts 2
Bir@@ 2
Bisch@@ 2
Bit 2
Bit@@ 2
Bla@@ 2
Blackjack 2
Blair 2
Blas@@ 2
Blatt 2
Ble@@ 2
Blei@@ 2
Blin@@ 2
Block 2
Block@@ 2
Blumen@@ 2
Bogen 2
Bohr@@ 2
Bon@@ 2
Bonino 2
Bordeaux 2
Borg 2
Bosch 2
Botschafter 2
Bou@@ 2
Boutique 2
Boutiquen 2
Bremen 2
Brian 2
Bristol 2
Briten 2
Broadway 2
Broek 2
Brok 2
Broo@@ 2
Brown 2
Brun@@ 2
Brut@@ 2
Brücke 2
Brüssel@@ 2
Buches 2
Buenos 2
Buil@@ 2
Building 2
Bundesstaat 2
Burg@@ 2
Bäume 2
Bö@@ 2
Böden 2
Börsen@@ 2
Bürgerbeauftragte 2
C.@@ 2
CA 2
CAR@@ 2
CET 2
CI@@ 2
CIA 2
CN@@ 2
CR 2
CRM 2
CS@@ 2
CU@@ 2
Calle 2
Cann@@ 2
Carlo 2
Casio 2
Cau@@ 2
Cent 2
Champ@@ 2
Charakters 2
Che@@ 2
Check@@ 2
Chemie 2
Chicago 2
Chief 2
Children 2
Chirac 2
Chr@@ 2
Chris 2
Christen 2
Christus 2
Chro@@ 2
Chrys@@ 2
Churchill 2
City@@ 2
Class 2
Classi@@ 2
Click 2
Climate 2
Club@@ 2
Cocktail 2
Common 2
Commons 2
Communication 2
Compact 2
Company 2
Comple@@ 2
Complete 2
Computern 2
Computers 2
Conc@@ 2
Conf@@ 2
Container 2
ContiTech 2
Convention 2
Converter 2
Copenhagen 2
Corbett 2
Costasur 2
Cot@@ 2
Cotonou 2
Cour@@ 2
Cr@@ 2
Credi@@ 2
Crespo 2
Crist@@ 2
Crus@@ 2
Cum@@ 2
Cur@@ 2
Cus@@ 2
Cy@@ 2
Cá@@ 2
D.@@ 2
DB@@ 2
DF 2
DIA 2
DIR 2
DN@@ 2
DNS 2
DO@@ 2
DP 2
DS 2
DVB 2
DY 2
Dalmati@@ 2
Dark 2
Darm@@ 2
Datenbanken 2
Datener@@ 2
Dav@@ 2
Days 2
Daß 2
Deckung 2
Def@@ 2
Deleg@@ 2
Dell 2
Delors 2
Delta 2
Demokratien 2
Der@@ 2
Derartige 2
Det@@ 2
Development 2
Devisen@@ 2
Di 2
Diagno@@ 2
Diagnose 2
Diana 2
Dic@@ 2
Dieb@@ 2
Differ@@ 2
Digit@@ 2
Dimas 2
Dimensionen 2
Direct 2
Director 2
Direk@@ 2
Direktw@@ 2
Disc 2
Disney 2
Distanz 2
Diszipl@@ 2
Disziplin 2
Do 2
Dob@@ 2
Dokuments 2
Dolmet@@ 2
Dom 2
Dorf@@ 2
Dorfes 2
Dou@@ 2
Down@@ 2
Dr@@ 2
Dritter 2
Dru@@ 2
Drucker 2
Dsch@@ 2
Dub@@ 2
Duft 2
Dun@@ 2
Durchbruch 2
Dyn@@ 2
Dynam@@ 2
Dörfern 2
E.ON 2
EB@@ 2
ECR 2
EEE 2
ENGEL 2
EO 2
EOS 2
EP 2
ESA 2
ESS 2
Eben@@ 2
Economy 2
Edu@@ 2
Ehem@@ 2
Eier 2
Eigentums@@ 2
Eindämmung 2
Einfuhr@@ 2
Eingabe@@ 2
Einkauf 2
Einkauf@@ 2
Einladung 2
Einsatz@@ 2
Einsch@@ 2
Einschätzung 2
Einsicht 2
Einsparungen 2
Einstieg 2
Eintritts@@ 2
Eisen@@ 2
Elba 2
Elegan@@ 2
Elektrizität 2
Elektron@@ 2
Elizabeth 2
Eltern@@ 2
Embry@@ 2
Emir@@ 2
Emotionen 2
Empfeh@@ 2
Empfin@@ 2
Empfän@@ 2
Empfänger 2
Energie- 2
Energieein@@ 2
Energiep@@ 2
Energiet@@ 2
Energy 2
Engel 2
Engine 2
Engineer 2
English 2
Enthusi@@ 2
Entschei@@ 2
Entsendung 2
Entsprechend 2
Entstehung 2
Entweder 2
Entwick@@ 2
Entwurfs 2
Enzy@@ 2
Epi@@ 2
Epide@@ 2
Equity 2
Erasmus 2
Erbringung 2
Erdbe@@ 2
Erdgas@@ 2
Erfin@@ 2
Erfordernissen 2
Erforschung 2
Ergeb@@ 2
Erhol@@ 2
Eri@@ 2
Erinn@@ 2
Eritrea 2
Erkenntnisse 2
Erklär@@ 2
Erlau@@ 2
Erleb@@ 2
Erlebnis@@ 2
Erläu@@ 2
Ermessen 2
Ernährungssicherheit 2
Errun@@ 2
Erschein@@ 2
Erscheinung 2
Erstellen 2
Erweiter@@ 2
Erwä@@ 2
Eröffnung 2
Esper@@ 2
Est@@ 2
Eta@@ 2
Etappe 2
Ethik 2
Etiket@@ 2
Etwas 2
Eure 2
Eurocopter 2
Europaab@@ 2
Europä@@ 2
Eva 2
Evaluierung 2
Evange@@ 2
Everest 2
Exek@@ 2
Existenz@@ 2
Exklu@@ 2
Experim@@ 2
Explorer 2
Expo 2
Extra 2
Extremismus 2
Eye@@ 2
FAO 2
FAQ 2
FE@@ 2
FL@@ 2
FO@@ 2
FOR 2
FP@@ 2
FX 2
Fachwissen 2
Fair@@ 2
Fakul@@ 2
Familienzimmer 2
Fassade 2
Fax@@ 2
Feature 2
Feed 2
Feh@@ 2
Feiern 2
Feind 2
Feinde 2
Feldern 2
Ferdin@@ 2
Ferienwohnungen 2
Ferr@@ 2
Ferrari 2
Fertigungs@@ 2
Feuer@@ 2
Fi 2
Figu@@ 2
Figur 2
Filmen 2
Films 2
Finale 2
Finan@@ 2
Finance 2
Finanzinstitutionen 2
Finanzsektor 2
Fire@@ 2
Fischereisektor 2
Fitnessraum 2
Flair 2
Flan@@ 2
Flexi@@ 2
Flor@@ 2
Flori@@ 2
Flotte 2
Flucht 2
Flug 2
Fluggäste 2
Flughafen@@ 2
Flughafens 2
Fly 2
Flächen@@ 2
Flüchtling@@ 2
Flüge 2
Fok@@ 2
Folge@@ 2
Folgenabschätzung 2
Fon@@ 2
For 2
Force 2
Forest 2
Format@@ 2
Formulierungen 2
Fotogra@@ 2
Fotografi@@ 2
Fracht@@ 2
Frag@@ 2
Framework 2
Franc@@ 2
Franzö@@ 2
FreeBSD 2
Freiburg 2
Freizei@@ 2
Frem@@ 2
Fremden@@ 2
Freu@@ 2
Freund@@ 2
Freundlichkeit 2
Freundschaft 2
Frie@@ 2
Friedensprozess 2
Friedensprozeß 2
Friedhof 2
Front@@ 2
Frucht@@ 2
Frü@@ 2
Früh@@ 2
Frühling 2
Fujifilm 2
Fun 2
Fundament 2
Funk@@ 2
Funktionsweise 2
Fur@@ 2
Fuss@@ 2
FÜ@@ 2
FÜR 2
Führungen 2
Füll@@ 2
Fünf 2
Füßen 2
G.@@ 2
G7 2
GAR@@ 2
GBP 2
GEN@@ 2
GES@@ 2
GF@@ 2
GNOME 2
GRO@@ 2
GTZ 2
Game 2
Gange 2
Gardens 2
Garten@@ 2
Gassen 2
Gat@@ 2
Gate 2
Geber@@ 2
Gebiet@@ 2
Gebrauchs@@ 2
Gedäch@@ 2
Gefäng@@ 2
Gegenseitigkeit 2
Gehalt 2
Geheimnis 2
Gehen 2
Gehir@@ 2
Geldpolitik 2
Geldwäsche 2
Gemeinschaftsrechts 2
Gender 2
Gene@@ 2
Genehm@@ 2
Generalversammlung 2
Genf 2
Geniessen 2
Gepäck@@ 2
Gericht@@ 2
German 2
Geschenk 2
Gesell@@ 2
Gesichtspunkt 2
Gespräch 2
Gespräch@@ 2
Getreide@@ 2
Gewerk@@ 2
Gewis@@ 2
Gewissen 2
Gim@@ 2
Gipfel@@ 2
Gir@@ 2
Gis@@ 2
Gitar@@ 2
Gitarre 2
Glan@@ 2
Gletsch@@ 2
Glu@@ 2
Gläu@@ 2
Glück@@ 2
Gn@@ 2
Gottes@@ 2
Grab 2
Grafiken 2
Graphi@@ 2
Gremien 2
Gremium 2
Gren@@ 2
Griechen 2
Griechenlands 2
Griff 2
Grill@@ 2
Grundstück 2
Grön@@ 2
Grös@@ 2
Größen 2
Gs 2
Guinea 2
Gummi@@ 2
Gur@@ 2
Gusta@@ 2
Gut@@ 2
Gutachten 2
Guthaben 2
Gästeh@@ 2
Gül@@ 2
H. 2
HI 2
HOT@@ 2
HU 2
Haftbefehl 2
Halbjahr 2
Hall@@ 2
Handbuch 2
Handelsk@@ 2
Handelspolitik 2
Handwerk 2
Hap@@ 2
Hart@@ 2
Haushalten 2
Haushaltsdisziplin 2
Haushaltsplans 2
Haushaltspolitik 2
Haushaltsverfahren 2
Hay@@ 2
He 2
Heads 2
Hed@@ 2
Heiligen 2
Heilung 2
Heinz 2
Heraus@@ 2
Herausge@@ 2
Herren@@ 2
Herstellungs@@ 2
Herzog 2
Hex@@ 2
Hierfür 2
Hill 2
Hinder@@ 2
Hinter 2
Hoff@@ 2
Hoffentlich 2
Holiday 2
Holocaust 2
Homo@@ 2
Honda 2
Hongkon@@ 2
Horiz@@ 2
Horizont 2
Hub@@ 2
Hul@@ 2
Hurri@@ 2
Hyde 2
Hydro@@ 2
Hygiene 2
IBM 2
ICES 2
IDE 2
IEC 2
IH@@ 2
ILL 2
IME 2
INC@@ 2
INE 2
ING 2
INTER@@ 2
IO 2
ION 2
IRC 2
ITY 2
Inclu@@ 2
Inde@@ 2
Index 2
India 2
Individuen 2
Industrie- 2
Industrieländer 2
Industrieländern 2
Industry 2
Inflations@@ 2
Ingenieur@@ 2
Initi@@ 2
Initiativbericht 2
Innenstadt 2
Instrument@@ 2
Integrated 2
Integri@@ 2
Intelli@@ 2
Interaktion 2
Internation@@ 2
Interpretation 2
Interviews 2
Inv@@ 2
Investition@@ 2
Investment@@ 2
Investor 2
Inzwischen 2
Iran@@ 2
Isolation 2
Isoli@@ 2
Istanbul 2
Istri@@ 2
Italien@@ 2
Ivoire 2
JP@@ 2
Ja@@ 2
Jac@@ 2
Jahrhunderte 2
Jan 2
Janeiro 2
Japan@@ 2
Japans 2
Jas@@ 2
Jav@@ 2
Jazz 2
Jen@@ 2
Jim 2
Johann 2
Johannes 2
Joseph 2
José 2
Juan 2
Jugendher@@ 2
Jugosla@@ 2
Julia 2
Jun@@ 2
Junge 2
Jura 2
Jus@@ 2
KO@@ 2
Kabin@@ 2
Kaffee 2
Kaiser 2
Kaiser@@ 2
Kalk@@ 2
Kampagnen 2
Kanarischen 2
Kandidaten@@ 2
Kandidatenländer 2
Kanäle 2
Kapelle 2
Kari@@ 2
Karl 2
Karl@@ 2
Kart@@ 2
Kei@@ 2
Kelly 2
Kem@@ 2
Keynes 2
Kids 2
Kil@@ 2
Kim@@ 2
Kinderspiel@@ 2
Kirchen@@ 2
Kla@@ 2
Klang@@ 2
Klee 2
Kleine 2
Kleinst@@ 2
Klonen 2
Klär@@ 2
Klärung 2
Kn@@ 2
Kne@@ 2
Knoten 2
Knowledge 2
Kob@@ 2
Koh@@ 2
Kohle@@ 2
Kommando@@ 2
Kommissionsmitglieder 2
Kommun@@ 2
Kommunikation@@ 2
Komponisten 2
Konditionen 2
Konferenzräume 2
Konfiguration 2
Konflik@@ 2
Kongress@@ 2
Konjunk@@ 2
Konkurren@@ 2
Konsolidierung 2
Konstruk@@ 2
Konsultationen 2
Kontak@@ 2
Kontinenten 2
Kontro@@ 2
Kontrol@@ 2
Konvergenz@@ 2
Konz@@ 2
Konzepts 2
Kooper@@ 2
Koso@@ 2
Kran@@ 2
Krank@@ 2
Kreativ@@ 2
Krebs@@ 2
Kreditkarten 2
Kreis@@ 2
Kreta 2
Krimin@@ 2
Kru@@ 2
Kräften 2
Kuli@@ 2
Kunstwerke 2
Kyi 2
Kämp@@ 2
Kämpfe 2
Königs@@ 2
Könnte 2
Kü@@ 2
Künstlern 2
Kürz@@ 2
Küsten 2
LAN 2
LEX 2
LI@@ 2
LIN@@ 2
LKW 2
LONDON 2
LR 2
LT 2
Labour 2
Lac@@ 2
Lad@@ 2
Lager@@ 2
Lampedusa 2
Lande 2
Landhaus 2
Landschafts@@ 2
Lange 2
Lanka 2
Laos 2
Lap@@ 2
Lar@@ 2
Lat@@ 2
Late@@ 2
LateRooms 2
Lav@@ 2
League 2
Lebensdauer 2
Leg@@ 2
Legislative 2
Lehne 2
Leiden 2
Lein@@ 2
Leit@@ 2
Lektion 2
Lem@@ 2
Les 2
Let@@ 2
Letztere 2
Leu@@ 2
Leucht@@ 2
Leuten 2
Libyen 2
Ligh@@ 2
Lignano 2
Link@@ 2
Lisboa 2
Lite 2
Lloyd 2
Located 2
Log 2
Logistik 2
Lom@@ 2
Londoner 2
Louis 2
Luc 2
Ludwig 2
Luftverkehr 2
Luftverschmutzung 2
Lul@@ 2
Lulling 2
Lum@@ 2
Luxem@@ 2
Lyn@@ 2
Lyon 2
Län@@ 2
Länder@@ 2
Lé@@ 2
MAR@@ 2
MAS 2
MEDIA 2
MEP 2
MHz 2
MI 2
MON@@ 2
MSN 2
Magaz@@ 2
Mahlzeiten 2
Mai@@ 2
Mailing@@ 2
Maker 2
Makro@@ 2
Male 2
Manipulation 2
Mannheim 2
Map 2
Mar 2
Marbella 2
Marine 2
Mars 2
Mart@@ 2
Massaker 2
Materials 2
Matrix 2
Matthias 2
Maus 2
Mayor 2
Maß@@ 2
Medical 2
Medicine 2
Medik@@ 2
Medina 2
Meer@@ 2
Meinungsfreiheit 2
Mek@@ 2
Meldung 2
Memor@@ 2
Memory 2
Menschenhandels 2
Menschenrechtsverletzungen 2
Menschlichkeit 2
Meran 2
Messegelände 2
Messenger 2
Metro@@ 2
Mexico 2
Michelin 2
Mil@@ 2
Milit@@ 2
Millenni@@ 2
Miller 2
Milose@@ 2
Minde@@ 2
Minimum 2
Ministerin 2
Ministerrat 2
Ministry 2
Mitarbei@@ 2
Mitentscheidungs@@ 2
Mitentscheidungsverfahren 2
Mitgliedsländern 2
Mitt@@ 2
Mittagessen 2
Mittelalter 2
Mitten 2
Mittern@@ 2
Mitwirkung 2
Modern 2
Moderni@@ 2
Moh@@ 2
Mom@@ 2
Momentan 2
Momente 2
Mond@@ 2
Monte@@ 2
Monum@@ 2
Moor@@ 2
Moore 2
Moratorium 2
Mord 2
Mosch@@ 2
Most 2
Motive 2
Moz@@ 2
Mr. 2
Mugabe 2
Mulder 2
Mun@@ 2
Mund 2
Muslime 2
Muss 2
Mutter@@ 2
Möbel 2
Möchten 2
Möglicherweise 2
Münchner 2
N.@@ 2
NA@@ 2
NAT@@ 2
NET 2
NET@@ 2
NG 2
NT 2
Nachbarschaft 2
Nachfolger 2
Nachrichten@@ 2
Nad@@ 2
Nahe 2
Nas@@ 2
Nationale 2
Natura 2
Nazi 2
Nazi@@ 2
Nei@@ 2
Nephi 2
Netz@@ 2
Netzen 2
Netzwerks 2
Nevada 2
New@@ 2
Nice 2
Nichtrau@@ 2
Nied@@ 2
Niederlage 2
Night 2
Nikon 2
Nordi@@ 2
Nordo@@ 2
Norwe@@ 2
Notre 2
Nou@@ 2
Nov@@ 2
Nä@@ 2
Näch@@ 2
OB@@ 2
OC@@ 2
OL 2
ONE 2
Objekten 2
Obst 2
Obst@@ 2
Ocean 2
Of 2
Offensichtlich 2
Officer 2
Oil 2
Oli@@ 2
Om@@ 2
Oomen 2
Opfern 2
Optimismus 2
Orange 2
Orden 2
Ordner 2
Organis@@ 2
Ortega 2
Orthodo@@ 2
Otto 2
Oz@@ 2
Ozean 2
P.@@ 2
PCI 2
PE 2
PER 2
PI 2
PO 2
PR 2
PRO 2
PV@@ 2
PXI 2
Pacific 2
Pad 2
Pag@@ 2
Page 2
Palais 2
Palermo 2
Palm 2
Palma 2
Paradig@@ 2
Parlamentarischen 2
Parlamentswahlen 2
Party 2
Passi@@ 2
Past@@ 2
Patent 2
Patient 2
Pau@@ 2
Paulo 2
Pav@@ 2
Pedro 2
Pel@@ 2
Pend@@ 2
Pension@@ 2
Pent@@ 2
Pep@@ 2
Peri@@ 2
Peripher@@ 2
Pes@@ 2
Pet@@ 2
Petersburg 2
Peti@@ 2
Petit 2
Pfand@@ 2
Pfei@@ 2
Pfer@@ 2
Pferde 2
Pflanzenschutz@@ 2
Pflicht@@ 2
Pfund 2
Phar@@ 2
Pharma@@ 2
Philippe 2
Philosop@@ 2
Phot@@ 2
Photoshop 2
Pic@@ 2
Piet@@ 2
Pietro 2
Piloten 2
Pion@@ 2
Pis@@ 2
Pist@@ 2
Pisten 2
Pix@@ 2
Pizz@@ 2
Planungs@@ 2
Plattformen 2
Platz@@ 2
Play 2
Play@@ 2
Playa 2
Please 2
Plenar@@ 2
Plätzen 2
Poettering 2
Point 2
Poker@@ 2
Pol 2
Politik@@ 2
Politikern 2
Poll@@ 2
Pon@@ 2
Ponte 2
Pop 2
Populi@@ 2
Porsche 2
Portage 2
Portu@@ 2
Portugals 2
Potsdam 2
Prac@@ 2
Prec@@ 2
Premier 2
Premier@@ 2
Prestige 2
Prim@@ 2
Privacy 2
Privati@@ 2
Probe 2
Production 2
Produktivitäts@@ 2
Produzenten 2
Profil@@ 2
Profile 2
Profit 2
Profitieren 2
Program 2
Programmier@@ 2
Promenade 2
Prostitution 2
Prov@@ 2
Präsen@@ 2
Präsentationen 2
Präzi@@ 2
Prüfungen 2
Prüfungs@@ 2
Ps 2
Publi@@ 2
Publikationen 2
Pum@@ 2
Punta 2
Putins 2
Quark@@ 2
Quecksil@@ 2
Quick@@ 2
Quoten 2
REACH 2
ROM 2
RS 2
RSS 2
Radik@@ 2
Raff@@ 2
Rag@@ 2
Rahmenbesch@@ 2
Rahmenbeschluss 2
Raketen@@ 2
Ral@@ 2
Ramada 2
Rap@@ 2
Ras@@ 2
Rathaus 2
Rational 2
Rats 2
Ratspräsidentin 2
Rav@@ 2
Ray 2
Rechnungshofs 2
Rechtsakte 2
Rechtsprechung 2
Rechtsvorschrift 2
Recy@@ 2
Recycling 2
Redebei@@ 2
Redebeitrag 2
Reduktion 2
Referenden 2
Reich 2
Reihen@@ 2
Reisende 2
Relais 2
Religi@@ 2
Remote 2
Rennen 2
Renovi@@ 2
Rent 2
Repräsentanten 2
Republi@@ 2
Reserven 2
Restau@@ 2
Restauran@@ 2
Rettung 2
Revol@@ 2
Rhein 2
Rhyth@@ 2
Richtigkeit 2
Riga 2
Risi@@ 2
River 2
Robinson 2
Roger 2
Rot 2
Roth@@ 2
Rotterdam 2
Routen 2
Ruijten 2
Rum@@ 2
Run 2
Runden 2
Russischen 2
Ryan 2
Rübig 2
Rücken@@ 2
Rückseite 2
Rücküber@@ 2
SD 2
SDL 2
SF 2
SIE 2
SITE 2
SK 2
SLR 2
SO 2
SR 2
SSL 2
Saar@@ 2
Sackgasse 2
Sad@@ 2
Salz 2
Sandstr@@ 2
Sandstrand 2
Sanierung 2
Santo 2
Sarajevo 2
Sarkozy 2
Satelliten 2
Satelliten@@ 2
Sauer@@ 2
Sav@@ 2
Savo@@ 2
Scal@@ 2
Scan 2
Scar@@ 2
Schadens@@ 2
Schadenser@@ 2
Schatten 2
Schatten@@ 2
Schauspieler 2
Schicht 2
Schlacht 2
Schlafzimmern 2
Schloss@@ 2
Schlü@@ 2
Schmel@@ 2
Schmerzen 2
Schmidt 2
Schmit@@ 2
Schnei@@ 2
Schnit@@ 2
Schnittstellen 2
Schokolade 2
School 2
Schrau@@ 2
Schre@@ 2
Schuhe 2
Schuld@@ 2
Schwa@@ 2
Schwach@@ 2
Schwelle 2
Schwerpunkte 2
Schwi@@ 2
Schwimmen 2
Schätz@@ 2
Schätzungen 2
Schöne 2
Seattle 2
Seeh@@ 2
Seever@@ 2
Segel@@ 2
Segeln 2
Seh@@ 2
Seil@@ 2
Sekretariat 2
Selb@@ 2
Semin@@ 2
Sender 2
Sens@@ 2
Sensibili@@ 2
Sensoren 2
Separ@@ 2
Server@@ 2
Servicel@@ 2
Serviceleistungen 2
Set@@ 2
Setup 2
Sexu@@ 2
Shakespe@@ 2
Shar@@ 2
Sher@@ 2
Shop 2
Sich@@ 2
Sicherlich 2
Sicherungs@@ 2
Sign@@ 2
Signale 2
Silver@@ 2
Simon 2
Simul@@ 2
Simulation 2
Sir 2
Sisko 2
Sit@@ 2
Six@@ 2
Skrip@@ 2
Skulp@@ 2
Skulpturen 2
Sky@@ 2
Sle@@ 2
Slideshows 2
Slowak@@ 2
Smart@@ 2
Smith 2
Smo@@ 2
Soft 2
Solar 2
Soll 2
Solo@@ 2
Somm@@ 2
Song 2
Sonnenter@@ 2
Sonnenterrasse 2
Sonnenunter@@ 2
Souven@@ 2
Souverän@@ 2
Sozialfonds 2
Spain 2
Spalte 2
Spam 2
Spann@@ 2
Spannung 2
Spannungen 2
Spaziergän@@ 2
Spaziergänge 2
Speed 2
Sper@@ 2
Spezialist 2
Spezialitäten 2
Spezies 2
Spiegel 2
Spiegel@@ 2
Spielzeug 2
Spir@@ 2
Spock 2
Sportarten 2
Sprachen@@ 2
Sprung 2
Spur 2
Squ@@ 2
St.@@ 2
Staatsbürger 2
Stabilisierungs@@ 2
Stabilitäts@@ 2
Stadion 2
Stadtteil 2
Stadtzentrums 2
Staff 2
Stagnation 2
Stal@@ 2
Stalin 2
Standardi@@ 2
Standort@@ 2
Standpunk@@ 2
Stars 2
Start@@ 2
Starten 2
Status@@ 2
Staub 2
Steel 2
Stehende 2
Sterckx 2
Stillstand 2
Stim@@ 2
Stimmung 2
Stoff@@ 2
Stolz 2
Strafgericht@@ 2
Straftaten 2
Stran@@ 2
Strassen 2
Strecken 2
Streitigkeiten 2
Stru@@ 2
Stränden 2
Stub@@ 2
Style 2
Störung 2
Subsidiarität 2
Subsidiaritätsprinzip 2
Substanz 2
Suchmaschinen 2
Sudan 2
Sulzer 2
Sun@@ 2
Sunday 2
Suu 2
Syl@@ 2
Symb@@ 2
Symphony 2
Synchron@@ 2
Sz@@ 2
Szen@@ 2
São 2
Sätze 2
Säulen 2
Südti@@ 2
Südtirol 2
TACIS 2
TB 2
TEN 2
TM 2
TO 2
TOR 2
TP 2
TS 2
Tag@@ 2
Tagungs@@ 2
Take 2
Talent 2
Tall@@ 2
Tam@@ 2
Tank@@ 2
Tari@@ 2
Tarif@@ 2
Tastat@@ 2
Tasten 2
Tauch@@ 2
Taxis 2
Tea 2
Tech 2
Technical 2
Technologies 2
Tee 2
Teh@@ 2
Teils 2
Tele@@ 2
Template 2
Tendenz 2
Teneri@@ 2
Tepp@@ 2
Terrain 2
Testen 2
Teufel@@ 2
Texas 2
Theater@@ 2
Themas 2
Theorie 2
Thursday 2
ThyssenKrupp 2
Ticket 2
Tiefe 2
Tim@@ 2
Times 2
Titel@@ 2
Titley 2
Toi@@ 2
Tokyo 2
Tol@@ 2
Ton@@ 2
Tony 2
Tos@@ 2
Toulouse 2
Touren 2
Trag@@ 2
Tragö@@ 2
Trainer 2
Training@@ 2
Transfer@@ 2
Transplan@@ 2
Transpor@@ 2
Transporte 2
Trauben 2
Treibhaus@@ 2
Trek 2
Trieb@@ 2
Trink@@ 2
Trä@@ 2
Trü@@ 2
Tschech@@ 2
Turkish 2
Tut@@ 2
Typ@@ 2
Typen 2
Tür@@ 2
U.@@ 2
UCLAF 2
UEN 2
UK 2
UNGEN 2
UP 2
UPS 2
URE 2
Uganda 2
Ultim@@ 2
Umbri@@ 2
Umgeb@@ 2
Umverteilung 2
Umweltschutzes 2
Ungeachtet 2
Unger@@ 2
Ungleich@@ 2
Unglück 2
Unicode 2
Unions@@ 2
United 2
Universitäts@@ 2
Unregelmäßigkeiten 2
Unruhen 2
Unternehmer@@ 2
Unterstützungs@@ 2
Unzufriedenheit 2
Urlau@@ 2
Ursprün@@ 2
VA 2
VIII 2
VIL@@ 2
VO@@ 2
VW 2
Vali@@ 2
Vall@@ 2
Value 2
Vati@@ 2
Ve@@ 2
Vec@@ 2
Vegetation 2
Vel@@ 2
Velzen 2
Veneti@@ 2
Venture 2
Verantwortlichkeiten 2
Verbrau@@ 2
Verbrauch@@ 2
Verbraucherpolitik 2
Verbrauchs@@ 2
Verdienst 2
Vereinig@@ 2
Verfas@@ 2
Vergütung 2
Verhaltens@@ 2
Verhaltensweisen 2
Verkauf@@ 2
Verkehrsmittel 2
Verkehrspolitik 2
Verknüpfung 2
Verkäufer 2
Verlangen 2
Verletz@@ 2
Verli@@ 2
Vermeidung 2
Vermietung 2
Vermittler 2
Vermögen 2
Vern@@ 2
Vernetzung 2
Verpackung 2
Verpackungen 2
Vers@@ 2
Verschi@@ 2
Verschlechterung 2
Verständigung 2
Verstärk@@ 2
Versuchen 2
Versäum@@ 2
Vertragsparteien 2
Verts 2
Vervielfältigung 2
Verw@@ 2
Verwal@@ 2
Verwei@@ 2
Verweis 2
Verzögerungen 2
Victor 2
Viel 2
Vielmehr 2
Viewer 2
Vill@@ 2
Villen 2
Vin@@ 2
Virginia 2
Visionen 2
Visual 2
Visum 2
Vizepräsidenten 2
Volk@@ 2
Vollständigkeit 2
Volumen 2
Vorbereitungs@@ 2
Vordergrund 2
Vorfall 2
Vorgänge 2
Vorschrift 2
Vorsitzes 2
Vul@@ 2
Vulkan@@ 2
Vögel 2
WB 2
WD 2
WM@@ 2
WOR@@ 2
Waffe 2
Wag@@ 2
Wah@@ 2
Wahlbeobach@@ 2
Wahr@@ 2
Wald 2
Wall 2
Wandels 2
Wandern 2
Wanderung 2
War 2
Warcraft 2
Warenkorb 2
Wasch@@ 2
Wav@@ 2
Wechselkurs@@ 2
Weihnachten 2
Weile 2
Weinen 2
Weisen 2
Welches 2
Welle 2
Wellness@@ 2
Welten 2
Welth@@ 2
Welthandelsorganisation 2
Weltkriegs 2
Werde 2
Werkzeugen 2
Werner 2
Wesentliche 2
Wette 2
Whi@@ 2
Why 2
Wi 2
Wichtigste 2
Wid@@ 2
Wieder 2
Wiedergabe 2
Willi@@ 2
Wirbel@@ 2
Wire 2
Wireless 2
Wirtschaftlichkeit 2
Wirtschaftsraum 2
Wissenschaft@@ 2
Wissenschaften 2
Wit@@ 2
Wogau 2
Wohnen 2
Wohnsitz 2
Wohnungs@@ 2
WordPress 2
Works 2
World@@ 2
Wu@@ 2
Wunsch@@ 2
Wy@@ 2
Wäh@@ 2
Wähler@@ 2
Währungen 2
Währungsfonds 2
Wärme 2
Wörter 2
Württemberg 2
XL 2
XX 2
Xin@@ 2
Yach@@ 2
Yam@@ 2
Your 2
Your@@ 2
Zahlreiche 2
Zehn@@ 2
Zeichnungen 2
Zeilen 2
Zen@@ 2
Zent@@ 2
Zertifikate 2
Zeu@@ 2
Zielgruppe 2
Zir@@ 2
Zo@@ 2
Zoll 2
Zoo 2
Zoom 2
Zugangs@@ 2
Zugehörigkeit 2
Zugestän@@ 2
Zugriffs@@ 2
Zuhause 2
Zulassungs@@ 2
Zurzeit 2
Zustell@@ 2
Zustellbetten 2
Zuständigkeitsbereich 2
Zusätz@@ 2
Zw@@ 2
Zweck@@ 2
Zwisch@@ 2
Zölle 2
a- 2
a.@@ 2
aar 2
abbiegen 2
abgewickelt 2
abhalten 2
abhängen 2
abi@@ 2
abli@@ 2
abläufe 2
absoluter 2
abstimmung 2
abweichen 2
abzielt 2
abzubauen 2
abzuschaffen 2
ace 2
acht@@ 2
act 2
adap@@ 2
adas 2
add@@ 2
addi@@ 2
adel@@ 2
ader 2
administrati@@ 2
administrative 2
administrativen 2
adäqu@@ 2
af 2
affen 2
afft 2
agen@@ 2
agenda 2
agenturen 2
ager 2
agle 2
ago 2
ago@@ 2
agra@@ 2
ags 2
agua 2
ahl 2
ahlen 2
ahn 2
ahnen 2
ahrt 2
ail 2
aine 2
ains 2
air 2
aires 2
ais@@ 2
aks 2
aktes 2
aktion 2
aktives 2
alban@@ 2
alem 2
alien 2
alin 2
alis@@ 2
alisation 2
alists 2
ality 2
alization 2
allesamt 2
alli@@ 2
allmählich 2
allo 2
alls 2
aloge 2
amazing 2
ambling 2
ame@@ 2
ames 2
ammern 2
amor@@ 2
analog 2
anas 2
anbindung 2
anci@@ 2
ancy 2
ander 2
andernfalls 2
andin@@ 2
ando 2
andro 2
andschaft 2
aner@@ 2
anfällig 2
angebotenen 2
angegebene 2
angehört 2
angem@@ 2
angemeldet 2
angeregt 2
angesiedelt 2
angrenzenden 2
anischer 2
anks 2
anni 2
annt 2
annte 2
ano@@ 2
anschau@@ 2
anschauen 2
anscheinend 2
ansonsten 2
anti 2
anto 2
anya 2
anzuschließen 2
apar@@ 2
apel 2
aps 2
apt 2
arab@@ 2
arbeitende 2
arch 2
architekton@@ 2
architektur 2
ardin 2
area 2
argent@@ 2
argument 2
arib@@ 2
arien 2
arier 2
arischer 2
arium 2
arks 2
arme 2
arom@@ 2
arow 2
arri@@ 2
arti@@ 2
artige 2
artikel 2
arts 2
ary 2
asing 2
ask 2
asser@@ 2
asses 2
asso 2
assozi@@ 2
atemberaubenden 2
aters 2
ather 2
ati 2
ational 2
ationale 2
ationalisierung 2
atisch 2
atisti@@ 2
atlan@@ 2
atory 2
atta 2
atta@@ 2
atten@@ 2
attra@@ 2
attraktiven 2
attraktiver 2
atur@@ 2
audi@@ 2
audiovisu@@ 2
aufenthalt 2
auffäl@@ 2
aufgabe 2
aufgezeigt 2
aufgreifen 2
aufre@@ 2
aufrichtig 2
auft 2
auftre@@ 2
aufw@@ 2
aufzugeben 2
ausfall 2
ausführlichen 2
ausgearbeitet 2
ausgebildet 2
ausgeglichen 2
ausger@@ 2
ausgerüstet 2
ausgestatt@@ 2
ausgestatteten 2
ausgetauscht 2
ausgewogen 2
ausgewäh@@ 2
ausgezeichn@@ 2
ausgezeichneter 2
ausschlaggeb@@ 2
ausschließen 2
austausch@@ 2
auswählen 2
auszuarbeiten 2
auszuführen 2
auszuschließen 2
auszusprechen 2
auszuwählen 2
auto 2
autom@@ 2
außer@@ 2
außergewöhn@@ 2
außergewöhnlich 2
aw@@ 2
aware 2
away 2
axi@@ 2
azione 2
aß 2
añ@@ 2
bag@@ 2
bal 2
ball 2
barbar@@ 2
barri@@ 2
bas@@ 2
basierend 2
basierende 2
bat 2
bathroom 2
baum 2
baute 2
bay@@ 2
beabsichtigen 2
beach 2
beam@@ 2
beauftragten 2
bed@@ 2
bedacht 2
bedenk@@ 2
bedeutendsten 2
bedien@@ 2
beding@@ 2
bedingten 2
beein@@ 2
beeinflus@@ 2
befindlichen 2
befolgen 2
befördert 2
begeben 2
begehen 2
begreifen 2
begrün@@ 2
begrüß@@ 2
begünsti@@ 2
beh@@ 2
beherbergt 2
behr@@ 2
behäl@@ 2
behör 2
beider 2
bein@@ 2
bekannt@@ 2
bekräf@@ 2
bekun@@ 2
belei@@ 2
beleuchtet 2
belieb@@ 2
beliebige 2
beliebt 2
belief 2
bell 2
bels 2
beläuft 2
bemü@@ 2
bemühungen 2
benachteiligten 2
benötigten 2
beobach@@ 2
beratenden 2
berechti@@ 2
bereitstellen 2
berichtete 2
beruhigen 2
berät 2
berücksichti@@ 2
berühm@@ 2
berühmtesten 2
besichtigen 2
besitzer 2
besonderem 2
besteh@@ 2
bester 2
bestimmtes 2
bestraft 2
bestä@@ 2
betrachte 2
betre@@ 2
betrei@@ 2
betreiber 2
betreuung 2
betriebs@@ 2
beugen 2
beunruhigt 2
bew@@ 2
bewaff@@ 2
bewahr@@ 2
bewegungen 2
bewer@@ 2
bewil@@ 2
bewu@@ 2
bewundern 2
bewährt 2
bewährte 2
bewäl@@ 2
beziehung 2
bian 2
bibliothek 2
bie 2
bien 2
bieren 2
big 2
biger 2
bik 2
bilanz 2
bildern 2
bildete 2
bilität 2
bisherige 2
bisschen 2
bittet 2
bizar@@ 2
bizarre 2
blas@@ 2
blau 2
blau@@ 2
blaue 2
blauen 2
blich 2
blicken 2
blockieren 2
blockiert 2
bo 2
books 2
borough 2
bre 2
brennung 2
bril@@ 2
bruchs 2
brücke 2
bte 2
bucht 2
bud@@ 2
buff@@ 2
buffet 2
bundes@@ 2
bö@@ 2
böden 2
bürgerliche 2
bürokratischen 2
büros 2
c.@@ 2
cafés 2
camping 2
cap@@ 2
card@@ 2
cars 2
cas 2
cas@@ 2
cc@@ 2
cca 2
cent@@ 2
central 2
certain 2
chambres 2
changes 2
changing 2
charman@@ 2
charmante 2
che@@ 2
chem@@ 2
chest@@ 2
ching 2
chise 2
chno@@ 2
choice 2
christ@@ 2
chtest 2
chteten 2
chts 2
chung 2
cian 2
cion 2
ckel 2
classic 2
cle 2
clips 2
clo@@ 2
como 2
comp@@ 2
comple@@ 2
content 2
cos 2
credi@@ 2
cri@@ 2
cross 2
cryp@@ 2
cul@@ 2
cup 2
cz 2
cz@@ 2
dachten 2
dafi 2
dah 2
dah@@ 2
damalige 2
damaligen 2
damp@@ 2
dankt 2
daraufhin 2
darlegen 2
data 2
date 2
datum 2
dauerte 2
days 2
debat@@ 2
dec@@ 2
deckung 2
decorated 2
ded 2
defini@@ 2
definierte 2
defiz@@ 2
deh@@ 2
deinem 2
dell 2
demnächst 2
demokratisches 2
demon@@ 2
demonstriert 2
denkt 2
denten 2
denti@@ 2
dera 2
derartigen 2
derartiger 2
dermaßen 2
designs 2
desselben 2
dest 2
deu@@ 2
deuropa 2
deutlichen 2
deutliches 2
diagno@@ 2
dichten 2
die@@ 2
dies@@ 2
diesjährigen 2
diesmal 2
differ@@ 2
digit@@ 2
digital 2
din@@ 2
dings 2
dio 2
dio@@ 2
diox@@ 2
diplomatische 2
diplomatischen 2
direk@@ 2
discount 2
diskriminierung 2
diskutierten 2
distan@@ 2
distance 2
disziplin@@ 2
dit 2
dite 2
dium 2
diversen 2
dn 2
dner 2
doba 2
dokument 2
dom 2
don@@ 2
dorthin 2
dose 2
dot@@ 2
dou@@ 2
double 2
dow@@ 2
dra 2
dramatischen 2
drehen 2
drän@@ 2
drück@@ 2
drückt 2
dse@@ 2
dunklen 2
durchlaufen 2
during 2
dynamisch 2
däm@@ 2
dänische 2
eBay 2
ea 2
ean 2
eases 2
eboo@@ 2
ebt 2
ec 2
echti@@ 2
ede 2
eder 2
edge 2
ees 2
efe 2
effizi@@ 2
ege 2
egeln 2
egen@@ 2
eger 2
eger@@ 2
ego 2
ego@@ 2
ehemals 2
ehlt 2
ehmen@@ 2
ehmer 2
ehn@@ 2
ehren@@ 2
eich@@ 2
eien 2
eigens 2
eigent@@ 2
eigentlichen 2
eil@@ 2
eilen 2
eils 2
einbeziehen 2
eindeu@@ 2
einfaches 2
eingebau@@ 2
eingegeben 2
eingerichtete 2
einges@@ 2
eingesetzten 2
eingetragen 2
einheimischen 2
einig@@ 2
einkommen 2
einmalig 2
einnimmt 2
einrichten 2
einrichtung 2
einschließt 2
einschränken 2
einsei@@ 2
einstellung 2
einzel@@ 2
einzigartiges 2
einzubeziehen 2
einzuleiten 2
either 2
ekte 2
ektionen 2
ela 2
elektro@@ 2
elektronisch 2
elektronischer 2
eler@@ 2
eli 2
ellen@@ 2
elligkeit 2
elly 2
elu@@ 2
ely 2
eman@@ 2
ember@@ 2
eme 2
ement@@ 2
ements 2
emissionen 2
empel 2
empfehlenswert 2
empfohl@@ 2
empfunden 2
empty 2
en.@@ 2
ena 2
enberg 2
enen@@ 2
energisch 2
engagi@@ 2
englische 2
enh@@ 2
enhandel 2
enjoyed 2
ennale 2
enor@@ 2
enseite 2
ensysteme 2
ental 2
enters 2
enthielt 2
ential 2
entry 2
entschei@@ 2
entschuldigen 2
entspannt 2
entwicklungs@@ 2
entzogen 2
enzeit 2
enzent@@ 2
enzi@@ 2
eor@@ 2
eppe 2
ept 2
equ@@ 2
equipment 2
erachtet 2
eran 2
erbarkeit 2
erdenk@@ 2
ered 2
ereig@@ 2
erem 2
erfassen 2
erfolg@@ 2
erfreulich 2
erfrisch@@ 2
erfunden 2
ergi@@ 2
ergonom@@ 2
erheblicher 2
erho@@ 2
erholen 2
erhöhte 2
eriode 2
erkennung 2
erklärung 2
erkt 2
erland 2
erlangt 2
erlitten 2
ermu@@ 2
ermuti@@ 2
ernde 2
ernen 2
ernst@@ 2
ernähr@@ 2
ers@@ 2
erschaffen 2
erschaft 2
erschienen 2
erschweren 2
erschüt@@ 2
erstatten 2
erstattung 2
erstaunlich 2
ertem 2
erwar@@ 2
erwarteten 2
erzielte 2
esen@@ 2
esene 2
essenti@@ 2
ession 2
este 2
etablieren 2
etch@@ 2
ete@@ 2
etern 2
eting@@ 2
etts 2
etwaige 2
etz 2
euren 2
euro 2
europä@@ 2
europäisch 2
eute 2
eve 2
eventuellen 2
every 2
everywhere 2
exp@@ 2
expan@@ 2
exportieren 2
extremely 2
ez 2
ez@@ 2
eß 2
fabri@@ 2
fachen 2
facilities 2
factories 2
fahrens 2
[...]
